{
  "version": "1.0",
  "truncation": null,
  "padding": null,
  "added_tokens": [
    {
      "id": 0,
      "content": "[UNK]",
      "single_word": false,
      "lstrip": false,
      "rstrip": false,
      "normalized": false,
      "special": true
    },
    {
      "id": 1,
      "content": "[PAD]",
      "single_word": false,
      "lstrip": false,
      "rstrip": false,
      "normalized": false,
      "special": true
    },
    {
      "id": 2,
      "content": "[CLS]",
      "single_word": false,
      "lstrip": false,
      "rstrip": false,
      "normalized": false,
      "special": true
    },
    {
      "id": 3,
      "content": "[SEP]",
      "single_word": false,
      "lstrip": false,
      "rstrip": false,
      "normalized": false,
      "special": true
    },
    {
      "id": 4,
      "content": "[MASK]",
      "single_word": false,
      "lstrip": false,
      "rstrip": false,
      "normalized": false,
      "special": true
    }
  ],
  "normalizer": {
    "type": "Sequence",
    "normalizers": [
      {
        "type": "NFD"
      },
      {
        "type": "Lowercase"
      },
      {
        "type": "StripAccents"
      }
    ]
  },
  "pre_tokenizer": {
    "type": "Whitespace"
  },
  "post_processor": {
    "type": "TemplateProcessing",
    "single": [
      {
        "SpecialToken": {
          "id": "[CLS]",
          "type_id": 0
        }
      },
      {
        "Sequence": {
          "id": "A",
          "type_id": 0
        }
      },
      {
        "SpecialToken": {
          "id": "[SEP]",
          "type_id": 0
        }
      }
    ],
    "pair": [
      {
        "SpecialToken": {
          "id": "[CLS]",
          "type_id": 0
        }
      },
      {
        "Sequence": {
          "id": "A",
          "type_id": 0
        }
      },
      {
        "SpecialToken": {
          "id": "[SEP]",
          "type_id": 0
        }
      },
      {
        "Sequence": {
          "id": "B",
          "type_id": 1
        }
      },
      {
        "SpecialToken": {
          "id": "[SEP]",
          "type_id": 1
        }
      }
    ],
    "special_tokens": {
      "[CLS]": {
        "id": "[CLS]",
        "ids": [
          2
        ],
        "tokens": [
          "[CLS]"
        ]
      },
      "[SEP]": {
        "id": "[SEP]",
        "ids": [
          3
        ],
        "tokens": [
          "[SEP]"
        ]
      }
    }
  },
  "decoder": null,
  "model": {
    "type": "WordPiece",
    "unk_token": "[UNK]",
    "continuing_subword_prefix": "##",
    "max_input_chars_per_word": 100,
    "vocab": {
      "[UNK]": 0,
      "[PAD]": 1,
      "[CLS]": 2,
      "[SEP]": 3,
      "[MASK]": 4,
      "\u001b": 5,
      "!": 6,
      "\"": 7,
      "#": 8,
      "$": 9,
      "%": 10,
      "&": 11,
      "'": 12,
      "(": 13,
      ")": 14,
      "*": 15,
      "+": 16,
      ",": 17,
      "-": 18,
      ".": 19,
      "/": 20,
      "0": 21,
      "1": 22,
      "2": 23,
      "3": 24,
      "4": 25,
      "5": 26,
      "6": 27,
      "7": 28,
      "8": 29,
      "9": 30,
      ":": 31,
      ";": 32,
      "<": 33,
      "=": 34,
      ">": 35,
      "?": 36,
      "@": 37,
      "[": 38,
      "\\": 39,
      "]": 40,
      "^": 41,
      "_": 42,
      "`": 43,
      "a": 44,
      "b": 45,
      "c": 46,
      "d": 47,
      "e": 48,
      "f": 49,
      "g": 50,
      "h": 51,
      "i": 52,
      "j": 53,
      "k": 54,
      "l": 55,
      "m": 56,
      "n": 57,
      "o": 58,
      "p": 59,
      "q": 60,
      "r": 61,
      "s": 62,
      "t": 63,
      "u": 64,
      "v": 65,
      "w": 66,
      "x": 67,
      "y": 68,
      "z": 69,
      "{": 70,
      "|": 71,
      "}": 72,
      "~": 73,
      "": 74,
      "": 75,
      "": 76,
      "": 77,
      "": 78,
      "": 79,
      "": 80,
      "": 81,
      "": 82,
      "": 83,
      "": 84,
      "": 85,
      "": 86,
      "": 87,
      "": 88,
      "": 89,
      "¡": 90,
      "£": 91,
      "¤": 92,
      "¥": 93,
      "§": 94,
      "¨": 95,
      "©": 96,
      "ª": 97,
      "«": 98,
      "¬": 99,
      "­": 100,
      "®": 101,
      "°": 102,
      "±": 103,
      "²": 104,
      "³": 105,
      "´": 106,
      "µ": 107,
      "·": 108,
      "¸": 109,
      "¹": 110,
      "º": 111,
      "»": 112,
      "¼": 113,
      "½": 114,
      "¾": 115,
      "¿": 116,
      "×": 117,
      "ß": 118,
      "æ": 119,
      "ð": 120,
      "÷": 121,
      "ø": 122,
      "đ": 123,
      "ı": 124,
      "ł": 125,
      "ǁ": 126,
      "ǆ": 127,
      "ə": 128,
      "ʿ": 129,
      "˘": 130,
      "˚": 131,
      "˛": 132,
      "α": 133,
      "β": 134,
      "γ": 135,
      "δ": 136,
      "ε": 137,
      "ζ": 138,
      "η": 139,
      "θ": 140,
      "ι": 141,
      "κ": 142,
      "λ": 143,
      "μ": 144,
      "ν": 145,
      "ο": 146,
      "π": 147,
      "ρ": 148,
      "σ": 149,
      "τ": 150,
      "φ": 151,
      "ω": 152,
      "а": 153,
      "б": 154,
      "в": 155,
      "г": 156,
      "д": 157,
      "е": 158,
      "ж": 159,
      "з": 160,
      "и": 161,
      "к": 162,
      "л": 163,
      "м": 164,
      "н": 165,
      "о": 166,
      "п": 167,
      "р": 168,
      "с": 169,
      "т": 170,
      "у": 171,
      "ф": 172,
      "х": 173,
      "ц": 174,
      "ч": 175,
      "ш": 176,
      "щ": 177,
      "ъ": 178,
      "ы": 179,
      "ь": 180,
      "э": 181,
      "ю": 182,
      "я": 183,
      "є": 184,
      "і": 185,
      "ғ": 186,
      "қ": 187,
      "ң": 188,
      "ү": 189,
      "ұ": 190,
      "ә": 191,
      "ө": 192,
      "ا": 193,
      "ة": 194,
      "ت": 195,
      "ح": 196,
      "د": 197,
      "ر": 198,
      "س": 199,
      "ك": 200,
      "ل": 201,
      "م": 202,
      "و": 203,
      "ي": 204,
      "अ": 205,
      "आ": 206,
      "इ": 207,
      "ई": 208,
      "उ": 209,
      "ऊ": 210,
      "ऋ": 211,
      "ऍ": 212,
      "ए": 213,
      "ऐ": 214,
      "ऑ": 215,
      "ऒ": 216,
      "ओ": 217,
      "औ": 218,
      "क": 219,
      "ख": 220,
      "ग": 221,
      "घ": 222,
      "च": 223,
      "छ": 224,
      "ज": 225,
      "झ": 226,
      "ञ": 227,
      "ट": 228,
      "ठ": 229,
      "ड": 230,
      "ढ": 231,
      "ण": 232,
      "त": 233,
      "थ": 234,
      "द": 235,
      "ध": 236,
      "न": 237,
      "प": 238,
      "फ": 239,
      "ब": 240,
      "भ": 241,
      "म": 242,
      "य": 243,
      "र": 244,
      "ल": 245,
      "व": 246,
      "श": 247,
      "ष": 248,
      "स": 249,
      "ह": 250,
      "।": 251,
      "०": 252,
      "१": 253,
      "२": 254,
      "३": 255,
      "४": 256,
      "५": 257,
      "६": 258,
      "७": 259,
      "८": 260,
      "९": 261,
      "॰": 262,
      "চ": 263,
      "দ": 264,
      "ন": 265,
      "ব": 266,
      "ভ": 267,
      "র": 268,
      "ষ": 269,
      "স": 270,
      "ᄍ": 271,
      "ᅢ": 272,
      "​": 273,
      "‌": 274,
      "‎": 275,
      "‏": 276,
      "‐": 277,
      "–": 278,
      "—": 279,
      "―": 280,
      "‘": 281,
      "’": 282,
      "“": 283,
      "”": 284,
      "„": 285,
      "†": 286,
      "•": 287,
      "…": 288,
      "‰": 289,
      "′": 290,
      "⁰": 291,
      "⁴": 292,
      "⁵": 293,
      "⁶": 294,
      "⁷": 295,
      "⁻": 296,
      "₀": 297,
      "₁": 298,
      "₂": 299,
      "€": 300,
      "₹": 301,
      "™": 302,
      "⅓": 303,
      "⅔": 304,
      "⅕": 305,
      "⅖": 306,
      "⅗": 307,
      "⅘": 308,
      "⅙": 309,
      "←": 310,
      "→": 311,
      "−": 312,
      "∕": 313,
      "√": 314,
      "∞": 315,
      "∣": 316,
      "∨": 317,
      "∶": 318,
      "≤": 319,
      "≥": 320,
      "⋯": 321,
      "⌈": 322,
      "⌉": 323,
      "⌊": 324,
      "⌋": 325,
      "⌘": 326,
      "─": 327,
      "☺": 328,
      "☻": 329,
      "♪": 330,
      "♫": 331,
      "➣": 332,
      "、": 333,
      "。": 334,
      "あ": 335,
      "い": 336,
      "う": 337,
      "え": 338,
      "か": 339,
      "き": 340,
      "く": 341,
      "け": 342,
      "こ": 343,
      "さ": 344,
      "し": 345,
      "す": 346,
      "せ": 347,
      "そ": 348,
      "た": 349,
      "ち": 350,
      "っ": 351,
      "つ": 352,
      "て": 353,
      "と": 354,
      "な": 355,
      "に": 356,
      "の": 357,
      "は": 358,
      "ひ": 359,
      "へ": 360,
      "ま": 361,
      "み": 362,
      "め": 363,
      "も": 364,
      "よ": 365,
      "ら": 366,
      "り": 367,
      "る": 368,
      "れ": 369,
      "を": 370,
      "ん": 371,
      "ァ": 372,
      "ア": 373,
      "ィ": 374,
      "イ": 375,
      "ウ": 376,
      "エ": 377,
      "ォ": 378,
      "オ": 379,
      "カ": 380,
      "ク": 381,
      "コ": 382,
      "サ": 383,
      "シ": 384,
      "ス": 385,
      "タ": 386,
      "ッ": 387,
      "テ": 388,
      "ト": 389,
      "ニ": 390,
      "ネ": 391,
      "ハ": 392,
      "ヒ": 393,
      "フ": 394,
      "ヘ": 395,
      "ホ": 396,
      "マ": 397,
      "ム": 398,
      "メ": 399,
      "モ": 400,
      "ョ": 401,
      "ラ": 402,
      "リ": 403,
      "ル": 404,
      "レ": 405,
      "ロ": 406,
      "ワ": 407,
      "ン": 408,
      "ー": 409,
      "一": 410,
      "上": 411,
      "下": 412,
      "不": 413,
      "両": 414,
      "並": 415,
      "了": 416,
      "他": 417,
      "付": 418,
      "作": 419,
      "使": 420,
      "保": 421,
      "信": 422,
      "傭": 423,
      "優": 424,
      "元": 425,
      "先": 426,
      "入": 427,
      "全": 428,
      "共": 429,
      "内": 430,
      "再": 431,
      "出": 432,
      "分": 433,
      "切": 434,
      "利": 435,
      "削": 436,
      "前": 437,
      "力": 438,
      "加": 439,
      "動": 440,
      "化": 441,
      "匿": 442,
      "参": 443,
      "可": 444,
      "同": 445,
      "名": 446,
      "否": 447,
      "含": 448,
      "員": 449,
      "報": 450,
      "境": 451,
      "変": 452,
      "外": 453,
      "大": 454,
      "失": 455,
      "妖": 456,
      "始": 457,
      "字": 458,
      "存": 459,
      "定": 460,
      "容": 461,
      "対": 462,
      "小": 463,
      "広": 464,
      "度": 465,
      "庸": 466,
      "当": 467,
      "待": 468,
      "後": 469,
      "従": 470,
      "必": 471,
      "悠": 472,
      "情": 473,
      "態": 474,
      "憂": 475,
      "成": 476,
      "戻": 477,
      "所": 478,
      "手": 479,
      "打": 480,
      "承": 481,
      "択": 482,
      "抹": 483,
      "拒": 484,
      "接": 485,
      "揺": 486,
      "擁": 487,
      "敗": 488,
      "数": 489,
      "断": 490,
      "新": 491,
      "方": 492,
      "既": 493,
      "明": 494,
      "時": 495,
      "曜": 496,
      "更": 497,
      "替": 498,
      "最": 499,
      "有": 500,
      "未": 501,
      "本": 502,
      "様": 503,
      "正": 504,
      "毎": 505,
      "求": 506,
      "洋": 507,
      "消": 508,
      "満": 509,
      "溶": 510,
      "漢": 511,
      "点": 512,
      "熔": 513,
      "版": 514,
      "状": 515,
      "環": 516,
      "用": 517,
      "由": 518,
      "病": 519,
      "登": 520,
      "直": 521,
      "知": 522,
      "短": 523,
      "確": 524,
      "示": 525,
      "秒": 526,
      "細": 527,
      "終": 528,
      "続": 529,
      "編": 530,
      "置": 531,
      "羊": 532,
      "耀": 533,
      "者": 534,
      "能": 535,
      "脱": 536,
      "自": 537,
      "致": 538,
      "般": 539,
      "色": 540,
      "葉": 541,
      "行": 542,
      "表": 543,
      "複": 544,
      "要": 545,
      "見": 546,
      "規": 547,
      "覧": 548,
      "設": 549,
      "詳": 550,
      "認": 551,
      "謡": 552,
      "象": 553,
      "起": 554,
      "越": 555,
      "追": 556,
      "送": 557,
      "通": 558,
      "連": 559,
      "遥": 560,
      "選": 561,
      "重": 562,
      "録": 563,
      "開": 564,
      "関": 565,
      "除": 566,
      "集": 567,
      "離": 568,
      "順": 569,
      "預": 570,
      "": 571,
      "ﬁ": 572,
      "ﬂ": 573,
      "﻿": 574,
      "：": 575,
      "？": 576,
      "�": 577,
      "##a": 578,
      "##n": 579,
      "##d": 580,
      "##k": 581,
      "##e": 582,
      "##r": 583,
      "##c": 584,
      "##h": 585,
      "##i": 586,
      "##f": 587,
      "##b": 588,
      "##j": 589,
      "##u": 590,
      "##s": 591,
      "##0": 592,
      "##8": 593,
      "##9": 594,
      "##1": 595,
      "##2": 596,
      "##_": 597,
      "##t": 598,
      "##l": 599,
      "##v": 600,
      "##g": 601,
      "##w": 602,
      "##o": 603,
      "##x": 604,
      "##7": 605,
      "##4": 606,
      "##y": 607,
      "##m": 608,
      "##p": 609,
      "##र": 610,
      "##प": 611,
      "##न": 612,
      "##5": 613,
      "##z": 614,
      "##फ": 615,
      "##.": 616,
      "##}": 617,
      "##知": 618,
      "##エ": 619,
      "##リ": 620,
      "##ア": 621,
      "##3": 622,
      "##ल": 623,
      "##ब": 624,
      "##म": 625,
      "##,": 626,
      "##\"": 627,
      "##6": 628,
      "##ө": 629,
      "##м": 630,
      "##е": 631,
      "##к": 632,
      "##q": 633,
      "##]": 634,
      "##य": 635,
      "##ए": 636,
      "##а": 637,
      "##ч": 638,
      "##и": 639,
      "##इ": 640,
      "##स": 641,
      "##*": 642,
      "##)": 643,
      "##औ": 644,
      "##त": 645,
      "##श": 646,
      "##व": 647,
      "##थ": 648,
      "##द": 649,
      "##[": 650,
      "##葉": 651,
      "##ъ": 652,
      "##з": 653,
      "##д": 654,
      "##в": 655,
      "##т": 656,
      "##マ": 657,
      "##ン": 658,
      "##ト": 659,
      "##:": 660,
      "##æ": 661,
      "##;": 662,
      "##р": 663,
      "##ж": 664,
      "##削": 665,
      "##除": 666,
      "##に": 667,
      "##失": 668,
      "##敗": 669,
      "##し": 670,
      "##ま": 671,
      "##た": 672,
      "##?": 673,
      "##आ": 674,
      "##च": 675,
      "##‘": 676,
      "##ड": 677,
      "##ह": 678,
      "##ट": 679,
      "##%": 680,
      "##ı": 681,
      "##”": 682,
      "##о": 683,
      "##с": 684,
      "##п": 685,
      "##н": 686,
      "##'": 687,
      "##у": 688,
      "##…": 689,
      "##ッ": 690,
      "##ク": 691,
      "##ネ": 692,
      "##ー": 693,
      "##ム": 694,
      "##を": 695,
      "##変": 696,
      "##更": 697,
      "##ग": 698,
      "##б": 699,
      "##л": 700,
      "##用": 701,
      "##ज": 702,
      "##悠": 703,
      "##-": 704,
      "##ष": 705,
      "##щ": 706,
      "##ұ": 707,
      "##ण": 708,
      "##ᄍ": 709,
      "##ᅢ": 710,
      "##様": 711,
      "##+": 712,
      "##¬": 713,
      "##—": 714,
      "##“": 715,
      "##<": 716,
      "##=": 717,
      "##ь": 718,
      "##容": 719,
      "##і": 720,
      "##!": 721,
      "##क": 722,
      "##ध": 723,
      "##७": 724,
      "##’": 725,
      "##ғ": 726,
      "##ы": 727,
      "##$": 728,
      "##{": 729,
      "##ł": 730,
      "##г": 731,
      "##(": 732,
      "##カ": 733,
      "##ウ": 734,
      "##か": 735,
      "##見": 736,
      "##つ": 737,
      "##り": 738,
      "##せ": 739,
      "##ん": 740,
      "##て": 741,
      "##ю": 742,
      "##当": 743,
      "##メ": 744,
      "##ハ": 745,
      "##अ": 746,
      "##ш": 747,
      "##я": 748,
      "##º": 749,
      "##х": 750,
      "##フ": 751,
      "##ら": 752,
      "##ス": 753,
      "##ү": 754,
      "###": 755,
      "##ф": 756,
      "##қ": 757,
      "##\\": 758,
      "##タ": 759,
      "##越": 760,
      "##の": 761,
      "##ロ": 762,
      "##ル": 763,
      "##ワ": 764,
      "##作": 765,
      "##っ": 766,
      "##参": 767,
      "##加": 768,
      "##み": 769,
      "##よ": 770,
      "##う": 771,
      "##定": 772,
      "##コ": 773,
      "##さ": 774,
      "##れ": 775,
      "##す": 776,
      "##/": 777,
      "##–": 778,
      "##२": 779,
      "##१": 780,
      "##": 781,
      "##ठ": 782,
      "##भ": 783,
      "##接": 784,
      "##続": 785,
      "##ञ": 786,
      "##​": 787,
      "##可": 788,
      "##能": 789,
      "##な": 790,
      "##९": 791,
      "##µ": 792,
      "##ø": 793,
      "##>": 794,
      "##": 795,
      "##ढ": 796,
      "##«": 797,
      "##名": 798,
      "##短": 799,
      "##き": 800,
      "##オ": 801,
      "##ラ": 802,
      "##イ": 803,
      "##є": 804,
      "##&": 805,
      "##ل": 806,
      "##م": 807,
      "##ت": 808,
      "##ح": 809,
      "##د": 810,
      "##ة": 811,
      "##複": 812,
      "##レ": 813,
      "##": 814,
      "##ख": 815,
      "##ә": 816,
      "##未": 817,
      "##設": 818,
      "##大": 819,
      "##同": 820,
      "##時": 821,
      "##数": 822,
      "##ओ": 823,
      "##る": 824,
      "##前": 825,
      "##„": 826,
      "##ц": 827,
      "##ﬂ": 828,
      "##ई": 829,
      "##い": 830,
      "##選": 831,
      "##択": 832,
      "##了": 833,
      "##切": 834,
      "##も": 835,
      "##再": 836,
      "##こ": 837,
      "##と": 838,
      "##ə": 839,
      "##正": 840,
      "##く": 841,
      "##あ": 842,
      "##ニ": 843,
      "##‌": 844,
      "##झ": 845,
      "##預": 846,
      "##☻": 847,
      "##☺": 848,
      "##有": 849,
      "##ィ": 850,
      "##そ": 851,
      "##他": 852,
      "##¹": 853,
      "##⁰": 854,
      "##溶": 855,
      "##₹": 856,
      "##へ": 857,
      "##揺": 858,
      "##字": 859,
      "##先": 860,
      "##度": 861,
      "##छ": 862,
      "##成": 863,
      "##": 864,
      "##え": 865,
      "##उ": 866,
      "##離": 867,
      "##脱": 868,
      "##動": 869,
      "##ң": 870,
      "##~": 871,
      "##`": 872,
      "##τ": 873,
      "##傭": 874,
      "##६": 875,
      "##०": 876,
      "##८": 877,
      "##ऍ": 878,
      "##明": 879,
      "##३": 880,
      "##シ": 881,
      "##ョ": 882,
      "##|": 883,
      "##ª": 884,
      "##は": 885,
      "##後": 886,
      "##⌘": 887,
      "##要": 888,
      "##一": 889,
      "##致": 890,
      "##関": 891,
      "##連": 892,
      "##付": 893,
      "##け": 894,
      "##羊": 895,
      "##必": 896,
      "##^": 897,
      "##示": 898,
      "##境": 899,
      "##点": 900,
      "##元": 901,
      "##戻": 902,
      "##規": 903,
      "##承": 904,
      "##認": 905,
      "##既": 906,
      "##使": 907,
      "##新": 908,
      "##テ": 909,
      "##ا": 910,
      "##س": 911,
      "##ي": 912,
      "##ন": 913,
      "##দ": 914,
      "##র": 915,
      "##»": 916,
      "##本": 917,
      "##·": 918,
      "##@": 919,
      "##妖": 920,
      "##満": 921,
      "##員": 922,
      "##状": 923,
      "##態": 924,
      "##全": 925,
      "##含": 926,
      "##め": 927,
      "##入": 928,
      "##力": 929,
      "##不": 930,
      "##細": 931,
      "##出": 932,
      "##確": 933,
      "##耀": 934,
      "##否": 935,
      "##♪": 936,
      "##打": 937,
      "##ヒ": 938,
      "##و": 939,
      "##般": 940,
      "##†": 941,
      "##庸": 942,
      "##洋": 943,
      "##通": 944,
      "##表": 945,
      "##モ": 946,
      "##開": 947,
      "##毎": 948,
      "##覧": 949,
      "##√": 950,
      "##ر": 951,
      "##ك": 952,
      "##¡": 953,
      "##手": 954,
      "##順": 955,
      "##従": 956,
      "##由": 957,
      "##擁": 958,
      "##謡": 959,
      "##並": 960,
      "##ひ": 961,
      "##替": 962,
      "##曜": 963,
      "##°": 964,
      "##分": 965,
      "##ホ": 966,
      "##÷": 967,
      "##行": 968,
      "##置": 969,
      "##色": 970,
      "##£": 971,
      "##घ": 972,
      "##追": 973,
      "##ß": 974,
      "##": 975,
      "##": 976,
      "##�": 977,
      "##ð": 978,
      "##ऊ": 979,
      "##サ": 980,
      "##対": 981,
      "##象": 982,
      "##外": 983,
      "##¨": 984,
      "##±": 985,
      "##両": 986,
      "##方": 987,
      "##内": 988,
      "##最": 989,
      "##小": 990,
      "##化": 991,
      "##登": 992,
      "##録": 993,
      "##抹": 994,
      "##消": 995,
      "##স": 996,
      "##ऑ": 997,
      "##": 998,
      "##४": 999,
      "##ヘ": 1000,
      "##¾": 1001,
      "##α": 1002,
      "##σ": 1003,
      "##ε": 1004,
      "##λ": 1005,
      "##ο": 1006,
      "##ρ": 1007,
      "##ι": 1008,
      "##ζ": 1009,
      "##保": 1010,
      "##存": 1011,
      "##集": 1012,
      "##ʿ": 1013,
      "##熔": 1014,
      "##²": 1015,
      "##ভ": 1016,
      "##ষ": 1017,
      "##५": 1018,
      "##自": 1019,
      "##始": 1020,
      "##μ": 1021,
      "##€": 1022,
      "##送": 1023,
      "##信": 1024,
      "##γ": 1025,
      "##η": 1026,
      "##ォ": 1027,
      "##報": 1028,
      "##ァ": 1029,
      "##˘": 1030,
      "##¤": 1031,
      "##遥": 1032,
      "##待": 1033,
      "##ち": 1034,
      "##編": 1035,
      "##‏": 1036,
      "##版": 1037,
      "##断": 1038,
      "##": 1039,
      "##憂": 1040,
      "##者": 1041,
      "th": 1042,
      "the": 1043,
      "##er": 1044,
      "##nd": 1045,
      "##at": 1046,
      "##in": 1047,
      "##on": 1048,
      "##es": 1049,
      "##en": 1050,
      "##or": 1051,
      "of": 1052,
      "##ed": 1053,
      "##ou": 1054,
      "and": 1055,
      "##ar": 1056,
      "in": 1057,
      "##an": 1058,
      "##is": 1059,
      "##al": 1060,
      "##it": 1061,
      "to": 1062,
      "##ing": 1063,
      "##re": 1064,
      "##ion": 1065,
      "##as": 1066,
      "##ic": 1067,
      "##ll": 1068,
      "##om": 1069,
      "##ent": 1070,
      "be": 1071,
      "wh": 1072,
      "is": 1073,
      "##le": 1074,
      "##ve": 1075,
      "##ct": 1076,
      "re": 1077,
      "##ot": 1078,
      "for": 1079,
      "pr": 1080,
      "##st": 1081,
      "you": 1082,
      "##ut": 1083,
      "##ur": 1084,
      "##se": 1085,
      "##id": 1086,
      "##ly": 1087,
      "##ay": 1088,
      "##ce": 1089,
      "##ow": 1090,
      "##ation": 1091,
      "he": 1092,
      "##ad": 1093,
      "on": 1094,
      "##et": 1095,
      "it": 1096,
      "##ir": 1097,
      "##ver": 1098,
      "that": 1099,
      "##ch": 1100,
      "##am": 1101,
      "##im": 1102,
      "as": 1103,
      "##ig": 1104,
      "##il": 1105,
      "an": 1106,
      "##od": 1107,
      "st": 1108,
      "##ess": 1109,
      "##ith": 1110,
      "##th": 1111,
      "de": 1112,
      "or": 1113,
      "##ter": 1114,
      "not": 1115,
      "all": 1116,
      "sh": 1117,
      "we": 1118,
      "##ment": 1119,
      "##ill": 1120,
      "su": 1121,
      "se": 1122,
      "##ol": 1123,
      "with": 1124,
      "ha": 1125,
      "##op": 1126,
      "con": 1127,
      "are": 1128,
      "they": 1129,
      "##ul": 1130,
      "##ers": 1131,
      "fr": 1132,
      "com": 1133,
      "##ge": 1134,
      "##ld": 1135,
      "##ab": 1136,
      "##ate": 1137,
      "##ain": 1138,
      "this": 1139,
      "ind": 1140,
      "ex": 1141,
      "##est": 1142,
      "by": 1143,
      "##ak": 1144,
      "who": 1145,
      "ch": 1146,
      "##if": 1147,
      "them": 1148,
      "have": 1149,
      "##iv": 1150,
      "##ah": 1151,
      "was": 1152,
      "his": 1153,
      "from": 1154,
      "pro": 1155,
      "##ht": 1156,
      "will": 1157,
      "##ie": 1158,
      "tr": 1159,
      "##em": 1160,
      "##all": 1161,
      "##pe": 1162,
      "##us": 1163,
      "##ity": 1164,
      "##and": 1165,
      "##ere": 1166,
      "##ist": 1167,
      "##ich": 1168,
      "##ive": 1169,
      "##os": 1170,
      "at": 1171,
      "un": 1172,
      "##ies": 1173,
      "so": 1174,
      "ne": 1175,
      "do": 1176,
      "which": 1177,
      "##ant": 1178,
      "has": 1179,
      "their": 1180,
      "##um": 1181,
      "##ra": 1182,
      "go": 1183,
      "en": 1184,
      "al": 1185,
      "##art": 1186,
      "##un": 1187,
      "but": 1188,
      "##ction": 1189,
      "##ould": 1190,
      "##pp": 1191,
      "##ac": 1192,
      "##ight": 1193,
      "wor": 1194,
      "##ard": 1195,
      "##ia": 1196,
      "##ore": 1197,
      "##ose": 1198,
      "there": 1199,
      "allah": 1200,
      "##ci": 1201,
      "##ind": 1202,
      "##ort": 1203,
      "##our": 1204,
      "##ous": 1205,
      "him": 1206,
      "##ust": 1207,
      "##ure": 1208,
      "le": 1209,
      "your": 1210,
      "##pt": 1211,
      "##ish": 1212,
      "sa": 1213,
      "##ri": 1214,
      "me": 1215,
      "ab": 1216,
      "##oun": 1217,
      "##ord": 1218,
      "##her": 1219,
      "##ome": 1220,
      "##el": 1221,
      "pl": 1222,
      "##ong": 1223,
      "##ud": 1224,
      "man": 1225,
      "dis": 1226,
      "pe": 1227,
      "us": 1228,
      "ad": 1229,
      "if": 1230,
      "##ect": 1231,
      "##ag": 1232,
      "##qu": 1233,
      "ac": 1234,
      "when": 1235,
      "can": 1236,
      "res": 1237,
      "co": 1238,
      "##ast": 1239,
      "one": 1240,
      "##ated": 1241,
      "no": 1242,
      "lo": 1243,
      "am": 1244,
      "ar": 1245,
      "##ance": 1246,
      "im": 1247,
      "comp": 1248,
      "up": 1249,
      "##age": 1250,
      "##ount": 1251,
      "br": 1252,
      "those": 1253,
      "##ear": 1254,
      "any": 1255,
      "##ence": 1256,
      "kn": 1257,
      "##ans": 1258,
      "##av": 1259,
      "what": 1260,
      "gr": 1261,
      "##oug": 1262,
      "##ame": 1263,
      "##so": 1264,
      "our": 1265,
      "##ok": 1266,
      "##able": 1267,
      "##nder": 1268,
      "##ap": 1269,
      "comm": 1270,
      "per": 1271,
      "god": 1272,
      "##ther": 1273,
      "had": 1274,
      "know": 1275,
      "ag": 1276,
      "int": 1277,
      "india": 1278,
      "peop": 1279,
      "##ip": 1280,
      "were": 1281,
      "mo": 1282,
      "##ach": 1283,
      "people": 1284,
      "##ry": 1285,
      "af": 1286,
      "##out": 1287,
      "cont": 1288,
      "been": 1289,
      "##ice": 1290,
      "##ib": 1291,
      "##ary": 1292,
      "##ik": 1293,
      "##fer": 1294,
      "##one": 1295,
      "bel": 1296,
      "ev": 1297,
      "cl": 1298,
      "then": 1299,
      "##ath": 1300,
      "##ical": 1301,
      "##pl": 1302,
      "##ult": 1303,
      "te": 1304,
      "shall": 1305,
      "##ake": 1306,
      "part": 1307,
      "##au": 1308,
      "said": 1309,
      "inc": 1310,
      "out": 1311,
      "day": 1312,
      "##ens": 1313,
      "##ue": 1314,
      "##ions": 1315,
      "##og": 1316,
      "other": 1317,
      "##act": 1318,
      "##ire": 1319,
      "po": 1320,
      "its": 1321,
      "##ide": 1322,
      "may": 1323,
      "say": 1324,
      "pres": 1325,
      "tim": 1326,
      "under": 1327,
      "##iz": 1328,
      "##vel": 1329,
      "my": 1330,
      "##ations": 1331,
      "##ound": 1332,
      "##ual": 1333,
      "lord": 1334,
      "##ade": 1335,
      "##ine": 1336,
      "##ings": 1337,
      "##gr": 1338,
      "##ace": 1339,
      "##ase": 1340,
      "##ial": 1341,
      "##ign": 1342,
      "##pr": 1343,
      "##ail": 1344,
      "spe": 1345,
      "acc": 1346,
      "##ang": 1347,
      "also": 1348,
      "##ru": 1349,
      "app": 1350,
      "act": 1351,
      "19": 1352,
      "##orm": 1353,
      "##ise": 1354,
      "##ber": 1355,
      "##per": 1356,
      "##ough": 1357,
      "##reat": 1358,
      "bo": 1359,
      "##ass": 1360,
      "##vers": 1361,
      "##ile": 1362,
      "sub": 1363,
      "would": 1364,
      "##ian": 1365,
      "rel": 1366,
      "only": 1367,
      "bec": 1368,
      "##ack": 1369,
      "sp": 1370,
      "##00": 1371,
      "##fore": 1372,
      "fo": 1373,
      "such": 1374,
      "inter": 1375,
      "some": 1376,
      "pre": 1377,
      "ser": 1378,
      "belie": 1379,
      "##urn": 1380,
      "prov": 1381,
      "##ert": 1382,
      "tw": 1383,
      "ear": 1384,
      "##ree": 1385,
      "##sel": 1386,
      "##ike": 1387,
      "##ition": 1388,
      "over": 1389,
      "##lic": 1390,
      "rec": 1391,
      "these": 1392,
      "##vern": 1393,
      "govern": 1394,
      "year": 1395,
      "##are": 1396,
      "cr": 1397,
      "time": 1398,
      "new": 1399,
      "work": 1400,
      "##own": 1401,
      "ver": 1402,
      "##ite": 1403,
      "##ory": 1404,
      "##ee": 1405,
      "##cess": 1406,
      "##uc": 1407,
      "rem": 1408,
      "em": 1409,
      "##ious": 1410,
      "##oc": 1411,
      "like": 1412,
      "wr": 1413,
      "gu": 1414,
      "##ause": 1415,
      "##port": 1416,
      "##ub": 1417,
      "##itt": 1418,
      "ever": 1419,
      "more": 1420,
      "##ff": 1421,
      "about": 1422,
      "##ater": 1423,
      "off": 1424,
      "##ied": 1425,
      "inf": 1426,
      "after": 1427,
      "should": 1428,
      "made": 1429,
      "than": 1430,
      "##cial": 1431,
      "cons": 1432,
      "##uth": 1433,
      "into": 1434,
      "##ward": 1435,
      "##ife": 1436,
      "##eng": 1437,
      "fe": 1438,
      "##ident": 1439,
      "bet": 1440,
      "##ful": 1441,
      "##ild": 1442,
      "bl": 1443,
      "des": 1444,
      "inst": 1445,
      "mar": 1446,
      "reg": 1447,
      "##ational": 1448,
      "good": 1449,
      "##ro": 1450,
      "her": 1451,
      "##we": 1452,
      "##ject": 1453,
      "##old": 1454,
      "##ities": 1455,
      "cent": 1456,
      "inde": 1457,
      "ob": 1458,
      "two": 1459,
      "how": 1460,
      "##way": 1461,
      "##cept": 1462,
      "government": 1463,
      "pers": 1464,
      "##int": 1465,
      "##ness": 1466,
      "##ved": 1467,
      "right": 1468,
      "before": 1469,
      "fir": 1470,
      "thr": 1471,
      "see": 1472,
      "state": 1473,
      "sy": 1474,
      "par": 1475,
      "##ces": 1476,
      "count": 1477,
      "again": 1478,
      "##wn": 1479,
      "##ily": 1480,
      "##aj": 1481,
      "mu": 1482,
      "qu": 1483,
      "ass": 1484,
      "##ution": 1485,
      "where": 1486,
      "##oss": 1487,
      "##sh": 1488,
      "sc": 1489,
      "##iss": 1490,
      "##ph": 1491,
      "dec": 1492,
      "form": 1493,
      "min": 1494,
      "life": 1495,
      "##eth": 1496,
      "sec": 1497,
      "world": 1498,
      "##te": 1499,
      "##ower": 1500,
      "fl": 1501,
      "str": 1502,
      "##velop": 1503,
      "trans": 1504,
      "##oth": 1505,
      "most": 1506,
      "set": 1507,
      "##led": 1508,
      "prop": 1509,
      "##ates": 1510,
      "develop": 1511,
      "##ons": 1512,
      "##other": 1513,
      "every": 1514,
      "pol": 1515,
      "call": 1516,
      "ph": 1517,
      "##cy": 1518,
      "##ric": 1519,
      "great": 1520,
      "##ments": 1521,
      "##rib": 1522,
      "gen": 1523,
      "giv": 1524,
      "##aw": 1525,
      "##ves": 1526,
      "ter": 1527,
      "##llow": 1528,
      "##ink": 1529,
      "##ank": 1530,
      "way": 1531,
      "##ific": 1532,
      "##oy": 1533,
      "sch": 1534,
      "##ors": 1535,
      "mess": 1536,
      "##ever": 1537,
      "inv": 1538,
      "did": 1539,
      "even": 1540,
      "serv": 1541,
      "##igh": 1542,
      "unt": 1543,
      "down": 1544,
      "being": 1545,
      "dr": 1546,
      "##ents": 1547,
      "cre": 1548,
      "##ple": 1549,
      "president": 1550,
      "could": 1551,
      "prod": 1552,
      "##amm": 1553,
      "she": 1554,
      "make": 1555,
      "op": 1556,
      "ed": 1557,
      "through": 1558,
      "dif": 1559,
      "##ism": 1560,
      "section": 1561,
      "well": 1562,
      "indeed": 1563,
      "##ning": 1564,
      "fu": 1565,
      "att": 1566,
      "first": 1567,
      "##ally": 1568,
      "come": 1569,
      "sign": 1570,
      "earth": 1571,
      "indian": 1572,
      "##li": 1573,
      "##nds": 1574,
      "many": 1575,
      "##ave": 1576,
      "add": 1577,
      "##pect": 1578,
      "ap": 1579,
      "nor": 1580,
      "upon": 1581,
      "##ating": 1582,
      "ret": 1583,
      "20": 1584,
      "ro": 1585,
      "among": 1586,
      "##its": 1587,
      "##ween": 1588,
      "##lect": 1589,
      "between": 1590,
      "dist": 1591,
      "follow": 1592,
      "##ft": 1593,
      "pur": 1594,
      "##ative": 1595,
      "##ided": 1596,
      "##arm": 1597,
      "person": 1598,
      "sure": 1599,
      "back": 1600,
      "),": 1601,
      "book": 1602,
      "hel": 1603,
      "##uring": 1604,
      "ord": 1605,
      "##lish": 1606,
      "bh": 1607,
      "let": 1608,
      "##ati": 1609,
      "##ought": 1610,
      "##ange": 1611,
      "id": 1612,
      "##ular": 1613,
      "##ick": 1614,
      "cour": 1615,
      "now": 1616,
      "num": 1617,
      "child": 1618,
      "own": 1619,
      "gener": 1620,
      "just": 1621,
      "against": 1622,
      ").": 1623,
      "used": 1624,
      "##ised": 1625,
      "eff": 1626,
      "mem": 1627,
      "sm": 1628,
      "very": 1629,
      "##ax": 1630,
      "##ey": 1631,
      "here": 1632,
      "##ible": 1633,
      "supp": 1634,
      "take": 1635,
      "##atter": 1636,
      "##ble": 1637,
      "##olog": 1638,
      "pub": 1639,
      "char": 1640,
      "cert": 1641,
      "##gan": 1642,
      "##self": 1643,
      "##ving": 1644,
      "mus": 1645,
      "get": 1646,
      "because": 1647,
      "##red": 1648,
      "believe": 1649,
      "ye": 1650,
      "mon": 1651,
      "ins": 1652,
      "##air": 1653,
      "##stem": 1654,
      "years": 1655,
      "##ts": 1656,
      "##bel": 1657,
      "##als": 1658,
      "const": 1659,
      "sent": 1660,
      "##les": 1661,
      "fin": 1662,
      "country": 1663,
      "def": 1664,
      "turn": 1665,
      "bu": 1666,
      "bas": 1667,
      "progr": 1668,
      "help": 1669,
      "system": 1670,
      "##ood": 1671,
      "power": 1672,
      "high": 1673,
      "val": 1674,
      "##ited": 1675,
      "##ility": 1676,
      "##ond": 1677,
      "##ost": 1678,
      "national": 1679,
      "200": 1680,
      "##con": 1681,
      "need": 1682,
      "use": 1683,
      "##ural": 1684,
      "does": 1685,
      "hum": 1686,
      "##ob": 1687,
      "car": 1688,
      "tak": 1689,
      "produ": 1690,
      "mod": 1691,
      "##ature": 1692,
      "end": 1693,
      "##belie": 1694,
      "gl": 1695,
      "war": 1696,
      "##ene": 1697,
      "wom": 1698,
      "ref": 1699,
      "dire": 1700,
      "##ted": 1701,
      "given": 1702,
      "cle": 1703,
      "men": 1704,
      "##min": 1705,
      "##ices": 1706,
      "give": 1707,
      "inform": 1708,
      "mer": 1709,
      "##lud": 1710,
      "dep": 1711,
      "##end": 1712,
      "##ether": 1713,
      "##hi": 1714,
      "##ivers": 1715,
      "differ": 1716,
      "must": 1717,
      "##xt": 1718,
      "equ": 1719,
      "##ks": 1720,
      "import": 1721,
      "place": 1722,
      "sin": 1723,
      "truth": 1724,
      "pass": 1725,
      "pun": 1726,
      "##ants": 1727,
      "while": 1728,
      "##ced": 1729,
      "##ission": 1730,
      "##ather": 1731,
      "##ute": 1732,
      "long": 1733,
      "water": 1734,
      "surely": 1735,
      "##ives": 1736,
      "development": 1737,
      "conf": 1738,
      "201": 1739,
      "##ha": 1740,
      "sur": 1741,
      "cor": 1742,
      "prom": 1743,
      "av": 1744,
      "##ister": 1745,
      "##ures": 1746,
      "hind": 1747,
      "account": 1748,
      "var": 1749,
      "##ision": 1750,
      "##ms": 1751,
      "##tern": 1752,
      "heav": 1753,
      "during": 1754,
      "away": 1755,
      "##ren": 1756,
      "##selves": 1757,
      "cap": 1758,
      "##ouse": 1759,
      "##ages": 1760,
      "dev": 1761,
      "name": 1762,
      "eng": 1763,
      "cond": 1764,
      "##read": 1765,
      "forg": 1766,
      "det": 1767,
      "law": 1768,
      "##ides": 1769,
      "whom": 1770,
      "##cc": 1771,
      "requ": 1772,
      "auth": 1773,
      "##ty": 1774,
      "##ell": 1775,
      "compan": 1776,
      "number": 1777,
      "adv": 1778,
      "ple": 1779,
      "indust": 1780,
      "##ote": 1781,
      "ent": 1782,
      "##ove": 1783,
      "##alth": 1784,
      "each": 1785,
      "art": 1786,
      "##ict": 1787,
      "show": 1788,
      "sou": 1789,
      ".\"": 1790,
      "order": 1791,
      "public": 1792,
      "##ash": 1793,
      "rep": 1794,
      "lar": 1795,
      "##chn": 1796,
      "educ": 1797,
      "##ck": 1798,
      "ask": 1799,
      "bank": 1800,
      "found": 1801,
      "open": 1802,
      "lead": 1803,
      "##man": 1804,
      "heart": 1805,
      "##ep": 1806,
      "word": 1807,
      "another": 1808,
      "conc": 1809,
      "##ained": 1810,
      "organ": 1811,
      "##ship": 1812,
      "both": 1813,
      "est": 1814,
      "land": 1815,
      "##ital": 1816,
      "fam": 1817,
      "fear": 1818,
      "##ix": 1819,
      "unto": 1820,
      "aff": 1821,
      "certain": 1822,
      "##iew": 1823,
      "##iness": 1824,
      "##ider": 1825,
      "cur": 1826,
      "includ": 1827,
      "dem": 1828,
      "fa": 1829,
      "instit": 1830,
      "##pend": 1831,
      "beh": 1832,
      "techn": 1833,
      "##ledge": 1834,
      "main": 1835,
      "best": 1836,
      "##ting": 1837,
      "things": 1838,
      "##ains": 1839,
      "pay": 1840,
      "som": 1841,
      "disc": 1842,
      "except": 1843,
      "information": 1844,
      "med": 1845,
      "same": 1846,
      "##lim": 1847,
      "list": 1848,
      "bus": 1849,
      "return": 1850,
      "process": 1851,
      "##esh": 1852,
      "stud": 1853,
      "##ror": 1854,
      "##ale": 1855,
      "present": 1856,
      "div": 1857,
      "##ody": 1858,
      "##ety": 1859,
      "sl": 1860,
      "knowledge": 1861,
      "##ress": 1862,
      "mak": 1863,
      "sing": 1864,
      "resp": 1865,
      "messeng": 1866,
      "coll": 1867,
      "##ner": 1868,
      "author": 1869,
      "enter": 1870,
      "sw": 1871,
      "direct": 1872,
      "start": 1873,
      "##ries": 1874,
      "##ya": 1875,
      "##conom": 1876,
      "look": 1877,
      "commun": 1878,
      "rece": 1879,
      "##oup": 1880,
      "##par": 1881,
      "econom": 1882,
      "##ified": 1883,
      "find": 1884,
      "##ral": 1885,
      "spec": 1886,
      "case": 1887,
      "called": 1888,
      "##less": 1889,
      "offic": 1890,
      "relig": 1891,
      "fact": 1892,
      "et": 1893,
      "came": 1894,
      "house": 1895,
      "want": 1896,
      "##ern": 1897,
      "sim": 1898,
      "ext": 1899,
      "##ctions": 1900,
      "without": 1901,
      "##..": 1902,
      "##rb": 1903,
      "##day": 1904,
      "##ived": 1905,
      "##gg": 1906,
      "##af": 1907,
      "mark": 1908,
      "prof": 1909,
      "occ": 1910,
      "##angu": 1911,
      "jud": 1912,
      "##iving": 1913,
      "##wards": 1914,
      "might": 1915,
      "##ata": 1916,
      "loc": 1917,
      "stand": 1918,
      "clear": 1919,
      "comple": 1920,
      "##not": 1921,
      "col": 1922,
      "play": 1923,
      "poss": 1924,
      "disbelie": 1925,
      "tax": 1926,
      "##ists": 1927,
      "##eep": 1928,
      "three": 1929,
      "fac": 1930,
      "ty": 1931,
      "wind": 1932,
      "##ruct": 1933,
      "matter": 1934,
      "group": 1935,
      "langu": 1936,
      "##ession": 1937,
      "##oint": 1938,
      "read": 1939,
      "women": 1940,
      "etc": 1941,
      "##iod": 1942,
      "##ics": 1943,
      "children": 1944,
      "hand": 1945,
      "partic": 1946,
      "punish": 1947,
      "vis": 1948,
      "leg": 1949,
      "prev": 1950,
      "del": 1951,
      "last": 1952,
      "##ven": 1953,
      "fil": 1954,
      "##ention": 1955,
      "much": 1956,
      "different": 1957,
      "tem": 1958,
      "period": 1959,
      "sk": 1960,
      "oper": 1961,
      "##ana": 1962,
      "human": 1963,
      "##ys": 1964,
      "consider": 1965,
      "small": 1966,
      "interest": 1967,
      "appe": 1968,
      "es": 1969,
      "##bers": 1970,
      "real": 1971,
      "##ize": 1972,
      "##iter": 1973,
      "grow": 1974,
      "ca": 1975,
      "full": 1976,
      "##ired": 1977,
      "##lf": 1978,
      "##aining": 1979,
      "thou": 1980,
      "##ars": 1981,
      "never": 1982,
      "##ient": 1983,
      "mah": 1984,
      "##ology": 1985,
      "cannot": 1986,
      "##ope": 1987,
      "##ense": 1988,
      "##oses": 1989,
      "##eds": 1990,
      "bring": 1991,
      "think": 1992,
      "intern": 1993,
      "exp": 1994,
      "er": 1995,
      "##ament": 1996,
      "means": 1997,
      "##aug": 1998,
      "ele": 1999,
      "opp": 2000,
      "##ug": 2001,
      "income": 2002,
      "suc": 2003,
      "##ues": 2004,
      "##stand": 2005,
      "##up": 2006,
      "incre": 2007,
      "isl": 2008,
      "contin": 2009,
      "cal": 2010,
      "##ually": 2011,
      "exam": 2012,
      "##form": 2013,
      "arr": 2014,
      "evil": 2015,
      "##ret": 2016,
      "##ark": 2017,
      "red": 2018,
      "polic": 2019,
      "##ither": 2020,
      "rest": 2021,
      "support": 2022,
      "##thing": 2023,
      "faith": 2024,
      "wrong": 2025,
      "created": 2026,
      "sat": 2027,
      "bene": 2028,
      "##of": 2029,
      "iss": 2030,
      "avail": 2031,
      "education": 2032,
      "bre": 2033,
      "##ploy": 2034,
      "##rit": 2035,
      "effect": 2036,
      "file": 2037,
      "court": 2038,
      "verily": 2039,
      "social": 2040,
      "univers": 2041,
      "muslim": 2042,
      "move": 2043,
      "##ief": 2044,
      "##ency": 2045,
      "accord": 2046,
      "imp": 2047,
      "##ock": 2048,
      "ra": 2049,
      "constit": 2050,
      "put": 2051,
      "contr": 2052,
      "fire": 2053,
      "meet": 2054,
      "happ": 2055,
      "respect": 2056,
      "##crib": 2057,
      "##wor": 2058,
      "plan": 2059,
      "become": 2060,
      "##ection": 2061,
      "net": 2062,
      "business": 2063,
      "dest": 2064,
      "##atch": 2065,
      "themselves": 2066,
      "applic": 2067,
      "sci": 2068,
      "##ara": 2069,
      "##ized": 2070,
      "##ten": 2071,
      "accept": 2072,
      "cult": 2073,
      "light": 2074,
      "company": 2075,
      "service": 2076,
      "keep": 2077,
      "18": 2078,
      "##ield": 2079,
      "frie": 2080,
      "oth": 2081,
      "##ls": 2082,
      "fun": 2083,
      "den": 2084,
      "##ablish": 2085,
      "others": 2086,
      "thus": 2087,
      "times": 2088,
      "...": 2089,
      "point": 2090,
      "##ined": 2091,
      "establish": 2092,
      "view": 2093,
      "four": 2094,
      "##hing": 2095,
      "##str": 2096,
      "##ption": 2097,
      "important": 2098,
      "project": 2099,
      "central": 2100,
      "known": 2101,
      "head": 2102,
      "ht": 2103,
      "sol": 2104,
      "mind": 2105,
      "old": 2106,
      "within": 2107,
      "free": 2108,
      "##aid": 2109,
      "today": 2110,
      "taken": 2111,
      "##den": 2112,
      "##iver": 2113,
      "lim": 2114,
      "days": 2115,
      "##iting": 2116,
      "schem": 2117,
      "##ari": 2118,
      "therefore": 2119,
      "quest": 2120,
      "allow": 2121,
      "rev": 2122,
      "soci": 2123,
      "polit": 2124,
      "##erg": 2125,
      "amount": 2126,
      "better": 2127,
      "employ": 2128,
      "##ething": 2129,
      "proble": 2130,
      "left": 2131,
      "near": 2132,
      "expl": 2133,
      "something": 2134,
      "states": 2135,
      "body": 2136,
      "##ines": 2137,
      "yet": 2138,
      "ide": 2139,
      "language": 2140,
      "going": 2141,
      "imm": 2142,
      "##arn": 2143,
      "##ased": 2144,
      "##ify": 2145,
      "tre": 2146,
      "month": 2147,
      "kind": 2148,
      "signs": 2149,
      "sever": 2150,
      "##ets": 2151,
      "##osition": 2152,
      "##han": 2153,
      "dra": 2154,
      "##ember": 2155,
      "##ases": 2156,
      "command": 2157,
      "large": 2158,
      "gra": 2159,
      "##hip": 2160,
      "committ": 2161,
      "10": 2162,
      "##ai": 2163,
      "done": 2164,
      "##ength": 2165,
      "##ium": 2166,
      "level": 2167,
      "prin": 2168,
      "##ways": 2169,
      "##eness": 2170,
      "##ared": 2171,
      "health": 2172,
      "hist": 2173,
      "punishment": 2174,
      "benef": 2175,
      "sect": 2176,
      "##ool": 2177,
      "fore": 2178,
      "impr": 2179,
      "far": 2180,
      "heavens": 2181,
      "activ": 2182,
      "success": 2183,
      "too": 2184,
      "maj": 2185,
      "appro": 2186,
      "window": 2187,
      "programm": 2188,
      "self": 2189,
      "however": 2190,
      "due": 2191,
      "ut": 2192,
      "ann": 2193,
      "though": 2194,
      "##soci": 2195,
      "##ont": 2196,
      "special": 2197,
      "##ters": 2198,
      "##ull": 2199,
      "provided": 2200,
      "purp": 2201,
      "ir": 2202,
      "less": 2203,
      "met": 2204,
      "air": 2205,
      "##istr": 2206,
      "cause": 2207,
      "refer": 2208,
      "prot": 2209,
      "##osed": 2210,
      "non": 2211,
      "##ime": 2212,
      "change": 2213,
      "conn": 2214,
      "exper": 2215,
      "various": 2216,
      "pop": 2217,
      "repr": 2218,
      "death": 2219,
      "associ": 2220,
      "select": 2221,
      "asse": 2222,
      "aw": 2223,
      "##mb": 2224,
      "minister": 2225,
      "true": 2226,
      "himself": 2227,
      "##ination": 2228,
      "##ently": 2229,
      "why": 2230,
      "food": 2231,
      "path": 2232,
      "sit": 2233,
      "raj": 2234,
      "##ences": 2235,
      "##ior": 2236,
      "gre": 2237,
      "islam": 2238,
      "ve": 2239,
      "class": 2240,
      "coun": 2241,
      "invest": 2242,
      "depart": 2243,
      "##gress": 2244,
      "policy": 2245,
      "##ract": 2246,
      "product": 2247,
      "##me": 2248,
      "believers": 2249,
      "understand": 2250,
      "ru": 2251,
      "##gin": 2252,
      "##asht": 2253,
      "che": 2254,
      "##ov": 2255,
      "messenger": 2256,
      "##orn": 2257,
      "##por": 2258,
      "towards": 2259,
      "general": 2260,
      "##hamm": 2261,
      "members": 2262,
      "love": 2263,
      "##br": 2264,
      "ram": 2265,
      "pray": 2266,
      "run": 2267,
      "family": 2268,
      "fail": 2269,
      "##ued": 2270,
      "brought": 2271,
      "##iful": 2272,
      "services": 2273,
      "ey": 2274,
      "##ead": 2275,
      "result": 2276,
      "hard": 2277,
      "qual": 2278,
      "whether": 2279,
      "##az": 2280,
      "shri": 2281,
      "worship": 2282,
      "night": 2283,
      "enc": 2284,
      "comput": 2285,
      "##ger": 2286,
      "speak": 2287,
      "build": 2288,
      "elect": 2289,
      "##ically": 2290,
      "##att": 2291,
      "vi": 2292,
      "bir": 2293,
      "##ason": 2294,
      "web": 2295,
      "eas": 2296,
      "##alk": 2297,
      "common": 2298,
      "##und": 2299,
      "##ulation": 2300,
      "bar": 2301,
      "##rap": 2302,
      "reach": 2303,
      "##amp": 2304,
      "second": 2305,
      "##ittle": 2306,
      "##work": 2307,
      "peace": 2308,
      "##na": 2309,
      "test": 2310,
      "spir": 2311,
      "economic": 2312,
      "##itions": 2313,
      "##utions": 2314,
      "chang": 2315,
      "##ode": 2316,
      "##ization": 2317,
      "king": 2318,
      "little": 2319,
      "##avan": 2320,
      "##atic": 2321,
      "hy": 2322,
      "message": 2323,
      "sal": 2324,
      "control": 2325,
      "equal": 2326,
      "##aim": 2327,
      "home": 2328,
      "rul": 2329,
      "##ator": 2330,
      "address": 2331,
      "##uty": 2332,
      "##cu": 2333,
      "value": 2334,
      "##used": 2335,
      "exist": 2336,
      "el": 2337,
      "secur": 2338,
      "finan": 2339,
      "nothing": 2340,
      "trad": 2341,
      "subject": 2342,
      "fre": 2343,
      "##ately": 2344,
      "15": 2345,
      "dou": 2346,
      "school": 2347,
      "##inal": 2348,
      "until": 2349,
      "wish": 2350,
      "199": 2351,
      "##tend": 2352,
      "thee": 2353,
      "data": 2354,
      "##gn": 2355,
      "rele": 2356,
      "##ury": 2357,
      "guid": 2358,
      "proph": 2359,
      "gave": 2360,
      "post": 2361,
      "12": 2362,
      "area": 2363,
      "report": 2364,
      "port": 2365,
      "exce": 2366,
      "hold": 2367,
      "liter": 2368,
      "pal": 2369,
      "date": 2370,
      "whole": 2371,
      "##earch": 2372,
      "available": 2373,
      "##ried": 2374,
      "vill": 2375,
      "##ising": 2376,
      "reve": 2377,
      "poet": 2378,
      "research": 2379,
      "commission": 2380,
      "having": 2381,
      "##alf": 2382,
      "tot": 2383,
      "appoint": 2384,
      "object": 2385,
      "action": 2386,
      "according": 2387,
      "tog": 2388,
      "##jee": 2389,
      "##ential": 2390,
      "charact": 2391,
      "brit": 2392,
      "ill": 2393,
      "regard": 2394,
      "few": 2395,
      "age": 2396,
      "creat": 2397,
      "capital": 2398,
      "wit": 2399,
      "society": 2400,
      "##eous": 2401,
      "##uss": 2402,
      "able": 2403,
      "together": 2404,
      "teach": 2405,
      "fur": 2406,
      "##ged": 2407,
      "hear": 2408,
      "spirit": 2409,
      "still": 2410,
      "words": 2411,
      "pract": 2412,
      "##ances": 2413,
      "thought": 2414,
      "error": 2415,
      "rs": 2416,
      "key": 2417,
      "nation": 2418,
      "mil": 2419,
      "mag": 2420,
      "##ser": 2421,
      "above": 2422,
      "nature": 2423,
      "press": 2424,
      "mult": 2425,
      "gand": 2426,
      "##oney": 2427,
      "env": 2428,
      "##ready": 2429,
      "major": 2430,
      "##uct": 2431,
      "already": 2432,
      "##aled": 2433,
      "technology": 2434,
      "##ng": 2435,
      "##cut": 2436,
      "tell": 2437,
      "seek": 2438,
      "particular": 2439,
      "##ected": 2440,
      "##ivid": 2441,
      "care": 2442,
      "##res": 2443,
      "mor": 2444,
      "whose": 2445,
      "##ew": 2446,
      "certainly": 2447,
      "religion": 2448,
      "11": 2449,
      "##ges": 2450,
      "belong": 2451,
      "lab": 2452,
      "fav": 2453,
      "##put": 2454,
      "record": 2455,
      "##ners": 2456,
      "market": 2457,
      "ur": 2458,
      "remember": 2459,
      "hearts": 2460,
      "ach": 2461,
      "thir": 2462,
      "deeds": 2463,
      "leave": 2464,
      "respons": 2465,
      "parli": 2466,
      "##ternal": 2467,
      "adm": 2468,
      "five": 2469,
      "send": 2470,
      "witness": 2471,
      "##ians": 2472,
      "orig": 2473,
      "based": 2474,
      "gard": 2475,
      "always": 2476,
      "political": 2477,
      "dom": 2478,
      "##ery": 2479,
      "##cl": 2480,
      "##hammad": 2481,
      "##ured": 2482,
      "mill": 2483,
      "plac": 2484,
      "meas": 2485,
      "parliament": 2486,
      "##ability": 2487,
      "countries": 2488,
      "international": 2489,
      "type": 2490,
      "init": 2491,
      "field": 2492,
      "later": 2493,
      "son": 2494,
      "took": 2495,
      "##isions": 2496,
      "bi": 2497,
      "making": 2498,
      "cost": 2499,
      "##ortun": 2500,
      "##kher": 2501,
      "question": 2502,
      "##ened": 2503,
      "##essed": 2504,
      "short": 2505,
      "bes": 2506,
      "cir": 2507,
      "individ": 2508,
      "##kherjee": 2509,
      "please": 2510,
      "##isation": 2511,
      "##olution": 2512,
      "##otion": 2513,
      "##ification": 2514,
      "##oh": 2515,
      "##over": 2516,
      "##ma": 2517,
      "propert": 2518,
      "perform": 2519,
      "areas": 2520,
      "detail": 2521,
      "term": 2522,
      "authority": 2523,
      "feel": 2524,
      "##ying": 2525,
      "thing": 2526,
      "scheme": 2527,
      "don": 2528,
      "manage": 2529,
      "##ructure": 2530,
      "pain": 2531,
      "further": 2532,
      "##ateg": 2533,
      "mis": 2534,
      "##ling": 2535,
      "bill": 2536,
      "strength": 2537,
      "bal": 2538,
      "seen": 2539,
      "muhammad": 2540,
      "necess": 2541,
      "region": 2542,
      "provide": 2543,
      "sector": 2544,
      "##eric": 2545,
      "##iqu": 2546,
      "around": 2547,
      "mercy": 2548,
      "pran": 2549,
      "artic": 2550,
      "mount": 2551,
      "chr": 2552,
      "bhavan": 2553,
      "vers": 2554,
      "##anch": 2555,
      "har": 2556,
      "aut": 2557,
      "admin": 2558,
      "mean": 2559,
      "individual": 2560,
      "financial": 2561,
      "##ems": 2562,
      "nat": 2563,
      "money": 2564,
      "##uced": 2565,
      "##har": 2566,
      "##icult": 2567,
      "rasht": 2568,
      "saw": 2569,
      "local": 2570,
      "foreign": 2571,
      "constitution": 2572,
      "##idence": 2573,
      "cover": 2574,
      "mid": 2575,
      "british": 2576,
      "##rael": 2577,
      "live": 2578,
      "reward": 2579,
      "cred": 2580,
      "##arch": 2581,
      "##atever": 2582,
      "whatever": 2583,
      "##ala": 2584,
      "industry": 2585,
      "##ript": 2586,
      "total": 2587,
      "since": 2588,
      "friend": 2589,
      "ce": 2590,
      "fund": 2591,
      "sett": 2592,
      "priv": 2593,
      "ii": 2594,
      "##edi": 2595,
      "##bt": 2596,
      "knows": 2597,
      "repres": 2598,
      "save": 2599,
      "israel": 2600,
      "father": 2601,
      "##reme": 2602,
      "application": 2603,
      "stor": 2604,
      "agric": 2605,
      "once": 2606,
      "create": 2607,
      "pranab": 2608,
      "forth": 2609,
      "growth": 2610,
      "trib": 2611,
      "agricult": 2612,
      "expr": 2613,
      "##ats": 2614,
      "cast": 2615,
      "##oph": 2616,
      "##ises": 2617,
      "along": 2618,
      "following": 2619,
      "text": 2620,
      "party": 2621,
      "##row": 2622,
      "inn": 2623,
      "##raph": 2624,
      "##rapati": 2625,
      "ans": 2626,
      "sum": 2627,
      "##ouch": 2628,
      "next": 2629,
      "including": 2630,
      "sun": 2631,
      "##cil": 2632,
      "complete": 2633,
      "##iding": 2634,
      "##after": 2635,
      "hour": 2636,
      "gandhi": 2637,
      "hon": 2638,
      "##rict": 2639,
      "became": 2640,
      "mother": 2641,
      "arm": 2642,
      "##ples": 2643,
      "mater": 2644,
      "rashtrapati": 2645,
      "##omes": 2646,
      "strong": 2647,
      "function": 2648,
      "university": 2649,
      "curr": 2650,
      "##ands": 2651,
      "##ilities": 2652,
      "diff": 2653,
      "merc": 2654,
      "dise": 2655,
      "flow": 2656,
      "young": 2657,
      "thy": 2658,
      "pati": 2659,
      "history": 2660,
      "hindi": 2661,
      "english": 2662,
      "achie": 2663,
      "tor": 2664,
      "moses": 2665,
      "##ource": 2666,
      "##cious": 2667,
      "##ished": 2668,
      "decl": 2669,
      "nam": 2670,
      "relations": 2671,
      "##ier": 2672,
      "cop": 2673,
      "hands": 2674,
      "##omp": 2675,
      "reason": 2676,
      "americ": 2677,
      "pen": 2678,
      "hath": 2679,
      "beng": 2680,
      "therein": 2681,
      "##ann": 2682,
      "news": 2683,
      "##get": 2684,
      "trust": 2685,
      "face": 2686,
      "network": 2687,
      "anything": 2688,
      "civ": 2689,
      "security": 2690,
      "cust": 2691,
      "##onment": 2692,
      "bengal": 2693,
      "delhi": 2694,
      "possible": 2695,
      "di": 2696,
      "##tp": 2697,
      "##illed": 2698,
      "assess": 2699,
      "office": 2700,
      "position": 2701,
      "clause": 2702,
      "soul": 2703,
      "department": 2704,
      "rad": 2705,
      "##ins": 2706,
      "several": 2707,
      "##dom": 2708,
      "##oud": 2709,
      "fall": 2710,
      "side": 2711,
      "secret": 2712,
      "##ude": 2713,
      "effort": 2714,
      "city": 2715,
      "went": 2716,
      "offer": 2717,
      "##wer": 2718,
      "plant": 2719,
      "##ogn": 2720,
      "##just": 2721,
      "##ream": 2722,
      "occas": 2723,
      "top": 2724,
      "##cribed": 2725,
      "inte": 2726,
      "quality": 2727,
      "enj": 2728,
      "soon": 2729,
      "character": 2730,
      "princi": 2731,
      "lib": 2732,
      "prophet": 2733,
      "anim": 2734,
      "begin": 2735,
      "external": 2736,
      "instru": 2737,
      "perm": 2738,
      "##umb": 2739,
      "mad": 2740,
      "congress": 2741,
      "mal": 2742,
      "##ards": 2743,
      "line": 2744,
      "force": 2745,
      "hindu": 2746,
      "docu": 2747,
      "000": 2748,
      "deli": 2749,
      "rate": 2750,
      "stat": 2751,
      "share": 2752,
      "management": 2753,
      "related": 2754,
      "guidance": 2755,
      "##uly": 2756,
      "works": 2757,
      "administr": 2758,
      "grant": 2759,
      "link": 2760,
      "circ": 2761,
      "civil": 2762,
      "cell": 2763,
      "hell": 2764,
      "none": 2765,
      "alm": 2766,
      "##oad": 2767,
      "contrib": 2768,
      "la": 2769,
      "deal": 2770,
      "production": 2771,
      "independ": 2772,
      "##ait": 2773,
      "bear": 2774,
      "course": 2775,
      "wise": 2776,
      "abs": 2777,
      "harm": 2778,
      "##adesh": 2779,
      "##ned": 2780,
      "singh": 2781,
      "lot": 2782,
      "union": 2783,
      "ange": 2784,
      "assist": 2785,
      "itself": 2786,
      "either": 2787,
      "infl": 2788,
      "learn": 2789,
      "working": 2790,
      "san": 2791,
      "recogn": 2792,
      "subm": 2793,
      "merciful": 2794,
      "ten": 2795,
      "revealed": 2796,
      "##ech": 2797,
      "ke": 2798,
      "prepar": 2799,
      "##soever": 2800,
      "difficult": 2801,
      "ant": 2802,
      "progress": 2803,
      "agree": 2804,
      "##rial": 2805,
      "phys": 2806,
      "past": 2807,
      "##eration": 2808,
      "righteous": 2809,
      "property": 2810,
      "##ources": 2811,
      "rrb": 2812,
      "##itor": 2813,
      "exch": 2814,
      "close": 2815,
      "##itted": 2816,
      "deliver": 2817,
      "treat": 2818,
      "greater": 2819,
      "webs": 2820,
      "received": 2821,
      "vir": 2822,
      "##aster": 2823,
      "access": 2824,
      "##ceed": 2825,
      "##ably": 2826,
      "envir": 2827,
      "example": 2828,
      "ge": 2829,
      "hig": 2830,
      "pet": 2831,
      "computer": 2832,
      "behind": 2833,
      "aud": 2834,
      "fight": 2835,
      "six": 2836,
      "fut": 2837,
      "##ication": 2838,
      "required": 2839,
      "living": 2840,
      "south": 2841,
      "super": 2842,
      "##ony": 2843,
      "obser": 2844,
      "asked": 2845,
      "committee": 2846,
      "held": 2847,
      "concern": 2848,
      "higher": 2849,
      "deter": 2850,
      "personal": 2851,
      "muslims": 2852,
      "ident": 2853,
      "qur": 2854,
      "##aps": 2855,
      "situ": 2856,
      "chief": 2857,
      "jo": 2858,
      "fold": 2859,
      "##itation": 2860,
      "##itten": 2861,
      "sac": 2862,
      "##ama": 2863,
      "energ": 2864,
      ":%": 2865,
      "custom": 2866,
      "judge": 2867,
      "material": 2868,
      "##edom": 2869,
      "##ibility": 2870,
      "ho": 2871,
      "till": 2872,
      "saying": 2873,
      "council": 2874,
      "##isl": 2875,
      "blood": 2876,
      "##ively": 2877,
      "##akh": 2878,
      "vol": 2879,
      "opportun": 2880,
      "industrial": 2881,
      "goods": 2882,
      "http": 2883,
      "cho": 2884,
      "lay": 2885,
      "repl": 2886,
      "trade": 2887,
      "##io": 2888,
      "institutions": 2889,
      "purpose": 2890,
      "comes": 2891,
      "represent": 2892,
      "big": 2893,
      "occasion": 2894,
      "##well": 2895,
      "terror": 2896,
      "legisl": 2897,
      "simil": 2898,
      "meth": 2899,
      "ones": 2900,
      "##ron": 2901,
      "farm": 2902,
      "got": 2903,
      "experi": 2904,
      "##bo": 2905,
      "lrb": 2906,
      "##els": 2907,
      "activities": 2908,
      "##uted": 2909,
      "##wh": 2910,
      "environment": 2911,
      "conv": 2912,
      "whoever": 2913,
      "saf": 2914,
      "##ees": 2915,
      "necessary": 2916,
      "integr": 2917,
      "imple": 2918,
      "eyes": 2919,
      "hous": 2920,
      "destro": 2921,
      "##icient": 2922,
      "west": 2923,
      "##ta": 2924,
      "##gu": 2925,
      "suf": 2926,
      "claim": 2927,
      "besides": 2928,
      "neither": 2929,
      "##ension": 2930,
      "##ourn": 2931,
      "told": 2932,
      "transfer": 2933,
      "norm": 2934,
      "provisions": 2935,
      "##ush": 2936,
      "glob": 2937,
      "website": 2938,
      "east": 2939,
      "written": 2940,
      "disp": 2941,
      "##augh": 2942,
      "##oura": 2943,
      "alone": 2944,
      "movement": 2945,
      "##ully": 2946,
      "search": 2947,
      "district": 2948,
      "wealth": 2949,
      "16": 2950,
      "programme": 2951,
      "protect": 2952,
      "turned": 2953,
      "started": 2954,
      "modern": 2955,
      "established": 2956,
      "forward": 2957,
      "story": 2958,
      "##itional": 2959,
      "future": 2960,
      "##ograph": 2961,
      "196": 2962,
      "leaders": 2963,
      "##aged": 2964,
      "design": 2965,
      "sup": 2966,
      "##oke": 2967,
      "officer": 2968,
      "unbelie": 2969,
      "previous": 2970,
      "kh": 2971,
      "step": 2972,
      "sab": 2973,
      "##ival": 2974,
      "official": 2975,
      "nic": 2976,
      "displ": 2977,
      "method": 2978,
      "bur": 2979,
      "training": 2980,
      "believed": 2981,
      "speech": 2982,
      "north": 2983,
      "ess": 2984,
      "loss": 2985,
      "community": 2986,
      "problem": 2987,
      "##ening": 2988,
      "doing": 2989,
      "eat": 2990,
      "astr": 2991,
      "energy": 2992,
      "persons": 2993,
      "pot": 2994,
      "##ones": 2995,
      "bud": 2996,
      "months": 2997,
      "##ape": 2998,
      "##line": 2999,
      "minist": 3000,
      "answer": 3001,
      "implement": 3002,
      "check": 3003,
      "cit": 3004,
      "everything": 3005,
      "bea": 3006,
      "nar": 3007,
      "tra": 3008,
      "messengers": 3009,
      "separ": 3010,
      "14": 3011,
      "science": 3012,
      "excell": 3013,
      "host": 3014,
      "##cent": 3015,
      "export": 3016,
      "meeting": 3017,
      "deep": 3018,
      "25": 3019,
      "mach": 3020,
      "##cing": 3021,
      "subst": 3022,
      "member": 3023,
      "appointed": 3024,
      "consum": 3025,
      "using": 3026,
      "ground": 3027,
      "##hood": 3028,
      "fru": 3029,
      "##ilt": 3030,
      "##airs": 3031,
      "shar": 3032,
      "credit": 3033,
      "squ": 3034,
      "):": 3035,
      "entire": 3036,
      "favour": 3037,
      "destroy": 3038,
      "democ": 3039,
      "often": 3040,
      "freedom": 3041,
      "##land": 3042,
      "##oid": 3043,
      "##rop": 3044,
      "##ware": 3045,
      "##acity": 3046,
      "guard": 3047,
      "confer": 3048,
      "ens": 3049,
      "mr": 3050,
      "soft": 3051,
      "vari": 3052,
      "##uction": 3053,
      "single": 3054,
      "pap": 3055,
      "initi": 3056,
      "tree": 3057,
      "bad": 3058,
      "##fully": 3059,
      "##action": 3060,
      "intr": 3061,
      "viol": 3062,
      "pat": 3063,
      "##kind": 3064,
      "students": 3065,
      "##ipp": 3066,
      "##istan": 3067,
      "sil": 3068,
      "firm": 3069,
      "sense": 3070,
      "board": 3071,
      "river": 3072,
      "acqu": 3073,
      "failed": 3074,
      "'%": 3075,
      "problems": 3076,
      "##unch": 3077,
      "village": 3078,
      "##imum": 3079,
      "invol": 3080,
      "intell": 3081,
      "sea": 3082,
      "ded": 3083,
      "mention": 3084,
      "194": 3085,
      "##bar": 3086,
      "similar": 3087,
      "current": 3088,
      "##ung": 3089,
      "display": 3090,
      "mankind": 3091,
      "##uf": 3092,
      "198": 3093,
      "neg": 3094,
      "duty": 3095,
      "knowing": 3096,
      "suffer": 3097,
      "##ental": 3098,
      "dece": 3099,
      "pan": 3100,
      "##ask": 3101,
      "script": 3102,
      "##aves": 3103,
      "##ton": 3104,
      "poor": 3105,
      "paid": 3106,
      "da": 3107,
      "considered": 3108,
      "htm": 3109,
      "low": 3110,
      "reject": 3111,
      "enjoy": 3112,
      "role": 3113,
      "##men": 3114,
      "?\"": 3115,
      "earli": 3116,
      "ign": 3117,
      "sn": 3118,
      "13": 3119,
      "##bit": 3120,
      "mukherjee": 3121,
      "says": 3122,
      "##itude": 3123,
      "passed": 3124,
      "religious": 3125,
      "dead": 3126,
      "arab": 3127,
      "fel": 3128,
      "eur": 3129,
      "##itive": 3130,
      "exe": 3131,
      "gives": 3132,
      "justice": 3133,
      "approach": 3134,
      "innov": 3135,
      "197": 3136,
      "##pal": 3137,
      "suff": 3138,
      "##acy": 3139,
      "makes": 3140,
      "angels": 3141,
      "visit": 3142,
      "scient": 3143,
      "##omm": 3144,
      "really": 3145,
      "fast": 3146,
      "rich": 3147,
      "##atives": 3148,
      "##aries": 3149,
      "partners": 3150,
      "rights": 3151,
      "##ji": 3152,
      "parts": 3153,
      "spread": 3154,
      "##istic": 3155,
      "creation": 3156,
      "##ires": 3157,
      "natural": 3158,
      "##go": 3159,
      "195": 3160,
      "brother": 3161,
      "building": 3162,
      "cut": 3163,
      "image": 3164,
      "journ": 3165,
      "##ops": 3166,
      "pra": 3167,
      "demand": 3168,
      "li": 3169,
      "conduct": 3170,
      "carry": 3171,
      "manner": 3172,
      "talk": 3173,
      "discuss": 3174,
      "referred": 3175,
      "corpor": 3176,
      "opens": 3177,
      "exchange": 3178,
      "sam": 3179,
      "doubt": 3180,
      "revel": 3181,
      "taking": 3182,
      "early": 3183,
      "terms": 3184,
      "##mber": 3185,
      "centre": 3186,
      "rules": 3187,
      "contact": 3188,
      "##hold": 3189,
      "provision": 3190,
      "##ek": 3191,
      "matters": 3192,
      "tele": 3193,
      "books": 3194,
      "##aint": 3195,
      "##side": 3196,
      "##imate": 3197,
      "stay": 3198,
      "citiz": 3199,
      "##ison": 3200,
      "publish": 3201,
      "rule": 3202,
      "fal": 3203,
      "pradesh": 3204,
      "increase": 3205,
      "##aught": 3206,
      "job": 3207,
      "chand": 3208,
      "##idden": 3209,
      "half": 3210,
      "basis": 3211,
      "maint": 3212,
      "##iveness": 3213,
      "##ulf": 3214,
      "disease": 3215,
      "rural": 3216,
      "##erv": 3217,
      "##ested": 3218,
      "united": 3219,
      "needs": 3220,
      "town": 3221,
      "woman": 3222,
      "third": 3223,
      "##uk": 3224,
      "##ests": 3225,
      "##dle": 3226,
      "wo": 3227,
      "##ina": 3228,
      "disbelieve": 3229,
      "dele": 3230,
      "expect": 3231,
      "##ixed": 3232,
      "benefit": 3233,
      "hereafter": 3234,
      "##rish": 3235,
      "conditions": 3236,
      "supreme": 3237,
      "article": 3238,
      "##olk": 3239,
      "##ruction": 3240,
      "colle": 3241,
      "##rah": 3242,
      "torment": 3243,
      "##asing": 3244,
      "resur": 3245,
      "global": 3246,
      "##ering": 3247,
      "extend": 3248,
      "mass": 3249,
      "forgiving": 3250,
      "million": 3251,
      "drink": 3252,
      "##attle": 3253,
      "size": 3254,
      "break": 3255,
      "particip": 3256,
      "specified": 3257,
      "europe": 3258,
      "unbelievers": 3259,
      ".)": 3260,
      "wife": 3261,
      "try": 3262,
      "##uses": 3263,
      "bab": 3264,
      "##ift": 3265,
      "color": 3266,
      "##vey": 3267,
      "century": 3268,
      "##ots": 3269,
      "##der": 3270,
      "literature": 3271,
      "write": 3272,
      "##ows": 3273,
      "ministry": 3274,
      "rain": 3275,
      "fem": 3276,
      "##iction": 3277,
      "17": 3278,
      "##sequ": 3279,
      "prayer": 3280,
      "assemb": 3281,
      "##ani": 3282,
      "writing": 3283,
      "guide": 3284,
      "categ": 3285,
      "30": 3286,
      "almost": 3287,
      "compet": 3288,
      "tur": 3289,
      "##itable": 3290,
      "transl": 3291,
      "##ault": 3292,
      "crit": 3293,
      "payment": 3294,
      "selected": 3295,
      "draw": 3296,
      "'.": 3297,
      "##by": 3298,
      "undert": 3299,
      "culture": 3300,
      "followed": 3301,
      "thous": 3302,
      "forb": 3303,
      "least": 3304,
      "touch": 3305,
      "##orrow": 3306,
      "##ological": 3307,
      "private": 3308,
      "##erve": 3309,
      "coop": 3310,
      "gardens": 3311,
      "false": 3312,
      "sound": 3313,
      "resurre": 3314,
      "apost": 3315,
      "march": 3316,
      "mighty": 3317,
      "exc": 3318,
      "stra": 3319,
      "prote": 3320,
      "prime": 3321,
      "sust": 3322,
      "##see": 3323,
      "price": 3324,
      "birth": 3325,
      "enem": 3326,
      "##ublic": 3327,
      "multip": 3328,
      "##urs": 3329,
      "changes": 3330,
      "hope": 3331,
      "dark": 3332,
      "wide": 3333,
      "pros": 3334,
      "ah": 3335,
      "disbelievers": 3336,
      "##ria": 3337,
      "republic": 3338,
      "adop": 3339,
      "##arat": 3340,
      "arch": 3341,
      "front": 3342,
      "stru": 3343,
      "##utes": 3344,
      "##usion": 3345,
      "source": 3346,
      "phil": 3347,
      "astray": 3348,
      "##une": 3349,
      "institution": 3350,
      "##kn": 3351,
      "resources": 3352,
      "“”": 3353,
      "operation": 3354,
      "population": 3355,
      "vide": 3356,
      "assessment": 3357,
      "determin": 3358,
      "developed": 3359,
      "seven": 3360,
      "##inary": 3361,
      "##lled": 3362,
      "actually": 3363,
      "promise": 3364,
      "immedi": 3365,
      "road": 3366,
      "##atory": 3367,
      "allowed": 3368,
      "],": 3369,
      "capacity": 3370,
      "emb": 3371,
      "condition": 3372,
      "aware": 3373,
      "vict": 3374,
      "tour": 3375,
      "earlier": 3376,
      "receive": 3377,
      "temple": 3378,
      "brah": 3379,
      "sud": 3380,
      "aug": 3381,
      "user": 3382,
      "gir": 3383,
      "install": 3384,
      "lost": 3385,
      "desire": 3386,
      "##cies": 3387,
      "##pur": 3388,
      "##ler": 3389,
      "charge": 3390,
      "guided": 3391,
      "##uge": 3392,
      "##ram": 3393,
      "certific": 3394,
      "pow": 3395,
      "insp": 3396,
      "space": 3397,
      "deny": 3398,
      "kept": 3399,
      "enough": 3400,
      "proper": 3401,
      ":/": 3402,
      "##omb": 3403,
      "##rik": 3404,
      "://": 3405,
      "files": 3406,
      "typ": 3407,
      "ll": 3408,
      "white": 3409,
      "rather": 3410,
      "fig": 3411,
      "copy": 3412,
      "attack": 3413,
      "note": 3414,
      "fair": 3415,
      "gur": 3416,
      "##ump": 3417,
      "achieve": 3418,
      "sabha": 3419,
      "sugg": 3420,
      "raised": 3421,
      "##etic": 3422,
      "eight": 3423,
      "grie": 3424,
      "tool": 3425,
      "issue": 3426,
      "page": 3427,
      "bound": 3428,
      "distrib": 3429,
      "manif": 3430,
      "subs": 3431,
      "##ita": 3432,
      "emp": 3433,
      "mail": 3434,
      "aver": 3435,
      "asses": 3436,
      "labour": 3437,
      "continue": 3438,
      "jan": 3439,
      "##haps": 3440,
      "##uous": 3441,
      "##ali": 3442,
      "##enty": 3443,
      "hund": 3444,
      "dam": 3445,
      "study": 3446,
      "aim": 3447,
      "cases": 3448,
      "##empt": 3449,
      "mut": 3450,
      "chall": 3451,
      "original": 3452,
      "honour": 3453,
      "tar": 3454,
      "##isf": 3455,
      "weak": 3456,
      "##ories": 3457,
      "stop": 3458,
      "engine": 3459,
      "introd": 3460,
      "sans": 3461,
      "perhaps": 3462,
      "##itch": 3463,
      "middle": 3464,
      "purposes": 3465,
      "physical": 3466,
      "##ili": 3467,
      "chast": 3468,
      "hundred": 3469,
      "limited": 3470,
      "program": 3471,
      "experience": 3472,
      "prim": 3473,
      "100": 3474,
      "influ": 3475,
      "mic": 3476,
      "##imes": 3477,
      "##owed": 3478,
      "led": 3479,
      "feed": 3480,
      "products": 3481,
      "houses": 3482,
      "##cul": 3483,
      "mand": 3484,
      "##emed": 3485,
      "investment": 3486,
      "structure": 3487,
      "gold": 3488,
      "##wise": 3489,
      "deb": 3490,
      "tast": 3491,
      "oil": 3492,
      "decision": 3493,
      "opt": 3494,
      "##gar": 3495,
      "dig": 3496,
      "depos": 3497,
      "##ites": 3498,
      "efforts": 3499,
      "print": 3500,
      "obey": 3501,
      "fulf": 3502,
      "commer": 3503,
      "instead": 3504,
      "anci": 3505,
      "require": 3506,
      "##oved": 3507,
      "die": 3508,
      "##inion": 3509,
      "assessee": 3510,
      "folder": 3511,
      "outside": 3512,
      "register": 3513,
      "##ici": 3514,
      "launch": 3515,
      "sched": 3516,
      "institute": 3517,
      "fort": 3518,
      "##lt": 3519,
      "##lling": 3520,
      "born": 3521,
      "ak": 3522,
      "letter": 3523,
      "summ": 3524,
      "appear": 3525,
      "remain": 3526,
      "lower": 3527,
      "ste": 3528,
      "divine": 3529,
      "include": 3530,
      "black": 3531,
      "document": 3532,
      "kill": 3533,
      "unless": 3534,
      "apply": 3535,
      "award": 3536,
      "##ds": 3537,
      "conscious": 3538,
      "friends": 3539,
      "mot": 3540,
      "##ule": 3541,
      "pleas": 3542,
      "christ": 3543,
      "wes": 3544,
      "relating": 3545,
      "code": 3546,
      "decided": 3547,
      "sansk": 3548,
      "groups": 3549,
      "unit": 3550,
      "##va": 3551,
      "grad": 3552,
      "perf": 3553,
      "remove": 3554,
      "joint": 3555,
      "sky": 3556,
      "event": 3557,
      "prepared": 3558,
      "cy": 3559,
      "gather": 3560,
      "proceed": 3561,
      "reform": 3562,
      "essential": 3563,
      "unc": 3564,
      "rail": 3565,
      "chair": 3566,
      "infr": 3567,
      "watch": 3568,
      "sanskrit": 3569,
      "branch": 3570,
      "improve": 3571,
      "max": 3572,
      "sens": 3573,
      "green": 3574,
      "attach": 3575,
      "dwell": 3576,
      "##irm": 3577,
      "apr": 3578,
      "banks": 3579,
      "remind": 3580,
      "places": 3581,
      "signific": 3582,
      "resurrection": 3583,
      "##rect": 3584,
      "proced": 3585,
      "##come": 3586,
      "yourselves": 3587,
      "##igation": 3588,
      "heaven": 3589,
      "##cially": 3590,
      "und": 3591,
      "easy": 3592,
      "win": 3593,
      "mere": 3594,
      "evidence": 3595,
      "ma": 3596,
      "nations": 3597,
      "indic": 3598,
      "provides": 3599,
      "legal": 3600,
      "caused": 3601,
      "##face": 3602,
      "measure": 3603,
      "western": 3604,
      "default": 3605,
      "hor": 3606,
      "acr": 3607,
      "accepted": 3608,
      "round": 3609,
      "task": 3610,
      "##ada": 3611,
      "##nam": 3612,
      "##abad": 3613,
      "##ensive": 3614,
      "##ique": 3615,
      "##gment": 3616,
      "police": 3617,
      "carried": 3618,
      "prem": 3619,
      "moon": 3620,
      "verses": 3621,
      "depend": 3622,
      "prefer": 3623,
      "ep": 3624,
      "##uary": 3625,
      "24": 3626,
      "##ining": 3627,
      "##estic": 3628,
      "193": 3629,
      "##amb": 3630,
      "##ufact": 3631,
      "manufact": 3632,
      "contract": 3633,
      "produce": 3634,
      "spend": 3635,
      "wrote": 3636,
      "industries": 3637,
      "satisf": 3638,
      "stage": 3639,
      "tal": 3640,
      "coming": 3641,
      "unf": 3642,
      "##de": 3643,
      "economy": 3644,
      "anal": 3645,
      "loan": 3646,
      "bit": 3647,
      "bey": 3648,
      "##ables": 3649,
      "inse": 3650,
      "##athers": 3651,
      "morning": 3652,
      "##itting": 3653,
      "tag": 3654,
      "wall": 3655,
      "regular": 3656,
      "prevent": 3657,
      "##val": 3658,
      "mahar": 3659,
      "##vi": 3660,
      "bomb": 3661,
      "##he": 3662,
      "basic": 3663,
      "giving": 3664,
      "agreement": 3665,
      "ban": 3666,
      "##pecially": 3667,
      "film": 3668,
      "happy": 3669,
      "autom": 3670,
      "quran": 3671,
      "amend": 3672,
      "##anda": 3673,
      "profession": 3674,
      "##be": 3675,
      "beyond": 3676,
      "situation": 3677,
      "rivers": 3678,
      "forms": 3679,
      "hus": 3680,
      "server": 3681,
      "especially": 3682,
      "foc": 3683,
      "lie": 3684,
      "fif": 3685,
      ".'": 3686,
      "pak": 3687,
      "becomes": 3688,
      "somet": 3689,
      "##erc": 3690,
      "encoura": 3691,
      "lives": 3692,
      "##aff": 3693,
      "##ration": 3694,
      "issued": 3695,
      "desp": 3696,
      "parad": 3697,
      "servants": 3698,
      "ways": 3699,
      "device": 3700,
      "##urance": 3701,
      "april": 3702,
      "philos": 3703,
      "der": 3704,
      "##unt": 3705,
      "release": 3706,
      "popular": 3707,
      "deg": 3708,
      "below": 3709,
      "sar": 3710,
      "wid": 3711,
      "##ators": 3712,
      "patient": 3713,
      "comb": 3714,
      "specific": 3715,
      "dh": 3716,
      "generally": 3717,
      "agricultural": 3718,
      "began": 3719,
      "across": 3720,
      "##aya": 3721,
      "spr": 3722,
      "obt": 3723,
      "status": 3724,
      "50": 3725,
      "clean": 3726,
      "manifest": 3727,
      "enable": 3728,
      "cele": 3729,
      "camp": 3730,
      "infrast": 3731,
      "emerg": 3732,
      "##erning": 3733,
      "conver": 3734,
      "quite": 3735,
      "##itary": 3736,
      "plus": 3737,
      "meaning": 3738,
      "##adem": 3739,
      "certificate": 3740,
      "celebr": 3741,
      "independence": 3742,
      "##que": 3743,
      "details": 3744,
      "notice": 3745,
      "lakh": 3746,
      "##eral": 3747,
      "yes": 3748,
      "phara": 3749,
      "percent": 3750,
      "unjust": 3751,
      "sty": 3752,
      "##co": 3753,
      "mode": 3754,
      "sex": 3755,
      "accounts": 3756,
      "load": 3757,
      "powers": 3758,
      "pharaoh": 3759,
      "ris": 3760,
      "belongs": 3761,
      "gang": 3762,
      "##osp": 3763,
      "expend": 3764,
      "thereof": 3765,
      "reached": 3766,
      "praise": 3767,
      "employment": 3768,
      "projects": 3769,
      "origin": 3770,
      "heard": 3771,
      "lear": 3772,
      "simple": 3773,
      "assembly": 3774,
      "undertak": 3775,
      "chap": 3776,
      "increased": 3777,
      "##jab": 3778,
      "idea": 3779,
      "room": 3780,
      "companies": 3781,
      "##cend": 3782,
      "##ills": 3783,
      "log": 3784,
      "behalf": 3785,
      "gone": 3786,
      "concerning": 3787,
      "krish": 3788,
      "poll": 3789,
      "##ott": 3790,
      "forces": 3791,
      "concerned": 3792,
      "poly": 3793,
      "ignor": 3794,
      "takes": 3795,
      "published": 3796,
      "issues": 3797,
      "lies": 3798,
      "##for": 3799,
      "execut": 3800,
      "##gest": 3801,
      "parents": 3802,
      "sle": 3803,
      "virt": 3804,
      "##ns": 3805,
      "##chan": 3806,
      "boy": 3807,
      "master": 3808,
      "proof": 3809,
      "commissioner": 3810,
      "html": 3811,
      "burn": 3812,
      "##ume": 3813,
      "apart": 3814,
      "returned": 3815,
      "programmes": 3816,
      "video": 3817,
      "music": 3818,
      "understanding": 3819,
      "attend": 3820,
      "medical": 3821,
      "cam": 3822,
      "ship": 3823,
      "paper": 3824,
      "pack": 3825,
      "statement": 3826,
      "##though": 3827,
      "2014": 3828,
      "hearing": 3829,
      "##uration": 3830,
      "else": 3831,
      "agriculture": 3832,
      "setting": 3833,
      "although": 3834,
      "software": 3835,
      "straight": 3836,
      "built": 3837,
      "amb": 3838,
      "forgiveness": 3839,
      "sufficient": 3840,
      "usually": 3841,
      "ancient": 3842,
      "prior": 3843,
      "truly": 3844,
      "knew": 3845,
      "collect": 3846,
      "jew": 3847,
      "wa": 3848,
      ".,": 3849,
      "administration": 3850,
      "taste": 3851,
      "config": 3852,
      "gh": 3853,
      "abrah": 3854,
      "placed": 3855,
      "schol": 3856,
      "opportunity": 3857,
      "existence": 3858,
      "blind": 3859,
      "normal": 3860,
      "tam": 3861,
      "afric": 3862,
      "abraham": 3863,
      "##vant": 3864,
      "satan": 3865,
      "parties": 3866,
      "daugh": 3867,
      "cross": 3868,
      "pakistan": 3869,
      "territ": 3870,
      "protection": 3871,
      "##iture": 3872,
      "spiritual": 3873,
      "mom": 3874,
      "##gs": 3875,
      "mental": 3876,
      "novel": 3877,
      "effective": 3878,
      "##encies": 3879,
      "commit": 3880,
      "compl": 3881,
      "anyone": 3882,
      "scale": 3883,
      "ensure": 3884,
      "ay": 3885,
      "cultural": 3886,
      "responsible": 3887,
      "song": 3888,
      "exerc": 3889,
      "gods": 3890,
      "prescribed": 3891,
      "##lict": 3892,
      "importance": 3893,
      "connect": 3894,
      "treatment": 3895,
      "occur": 3896,
      "values": 3897,
      "learning": 3898,
      "##with": 3899,
      "memory": 3900,
      "citizens": 3901,
      "sight": 3902,
      "final": 3903,
      "fixed": 3904,
      "finance": 3905,
      "sad": 3906,
      "conference": 3907,
      "systems": 3908,
      "21": 3909,
      "providing": 3910,
      "islamic": 3911,
      "##let": 3912,
      "##do": 3913,
      "insect": 3914,
      "sometimes": 3915,
      "goes": 3916,
      "23": 3917,
      "##app": 3918,
      "repe": 3919,
      "transport": 3920,
      "director": 3921,
      "garden": 3922,
      "strugg": 3923,
      "##ps": 3924,
      "##ivity": 3925,
      "revelations": 3926,
      "painful": 3927,
      "##riage": 3928,
      "vision": 3929,
      "active": 3930,
      "].": 3931,
      "activity": 3932,
      "##body": 3933,
      "affairs": 3934,
      "destroyed": 3935,
      "academ": 3936,
      "laws": 3937,
      "connection": 3938,
      "infrastructure": 3939,
      "prob": 3940,
      "felt": 3941,
      "category": 3942,
      "roy": 3943,
      "philosoph": 3944,
      "##ids": 3945,
      "##ava": 3946,
      "##ging": 3947,
      "##ane": 3948,
      "##oice": 3949,
      "scre": 3950,
      "wanted": 3951,
      "##ager": 3952,
      "histor": 3953,
      "##ench": 3954,
      "##oted": 3955,
      "##uce": 3956,
      "inj": 3957,
      "regul": 3958,
      "purs": 3959,
      "walk": 3960,
      "poetry": 3961,
      "bow": 3962,
      "ren": 3963,
      "table": 3964,
      "facilities": 3965,
      "beginning": 3966,
      "bra": 3967,
      "pos": 3968,
      "obl": 3969,
      "ved": 3970,
      "mission": 3971,
      "practice": 3972,
      "##word": 3973,
      "governor": 3974,
      "beaut": 3975,
      "dru": 3976,
      "##racy": 3977,
      "doct": 3978,
      "chastise": 3979,
      "fish": 3980,
      "##gh": 3981,
      "severe": 3982,
      "##band": 3983,
      "tit": 3984,
      "imag": 3985,
      "warm": 3986,
      "provin": 3987,
      "names": 3988,
      "26": 3989,
      "forgive": 3990,
      "plants": 3991,
      "phot": 3992,
      "##agar": 3993,
      "bless": 3994,
      "running": 3995,
      ");": 3996,
      "##uck": 3997,
      "female": 3998,
      "standard": 3999,
      "budd": 4000,
      "base": 4001,
      "##ook": 4002,
      "conce": 4003,
      "army": 4004,
      "##ancy": 4005,
      "##aka": 4006,
      "animals": 4007,
      "##others": 4008,
      "looking": 4009,
      "potential": 4010,
      "appre": 4011,
      "quick": 4012,
      "22": 4013,
      "weight": 4014,
      "eye": 4015,
      "tried": 4016,
      "presence": 4017,
      "colour": 4018,
      "dy": 4019,
      "mir": 4020,
      "assistance": 4021,
      "##ores": 4022,
      "##cribe": 4023,
      "##enth": 4024,
      "broad": 4025,
      "languages": 4026,
      "mountains": 4027,
      "milk": 4028,
      "safe": 4029,
      "lat": 4030,
      "##antly": 4031,
      "sen": 4032,
      "paradise": 4033,
      "##ring": 4034,
      "sah": 4035,
      "##thern": 4036,
      "team": 4037,
      "lad": 4038,
      "american": 4039,
      "##use": 4040,
      "pure": 4041,
      "medic": 4042,
      "sudden": 4043,
      "##hib": 4044,
      "##kar": 4045,
      "direction": 4046,
      "petition": 4047,
      "##ingu": 4048,
      "kingdom": 4049,
      "kal": 4050,
      "chann": 4051,
      "getting": 4052,
      "immediately": 4053,
      "former": 4054,
      "week": 4055,
      "mob": 4056,
      "repent": 4057,
      "pie": 4058,
      "unable": 4059,
      "##cri": 4060,
      "sym": 4061,
      "serve": 4062,
      "produced": 4063,
      "2015": 4064,
      "purch": 4065,
      "travel": 4066,
      "pict": 4067,
      "thousand": 4068,
      "officers": 4069,
      "folk": 4070,
      "##ley": 4071,
      "punjab": 4072,
      "##ropri": 4073,
      "##reed": 4074,
      "serious": 4075,
      "limit": 4076,
      "revolution": 4077,
      "nay": 4078,
      "hyp": 4079,
      "america": 4080,
      "card": 4081,
      "oct": 4082,
      "ideas": 4083,
      "advance": 4084,
      "sacr": 4085,
      "pil": 4086,
      "content": 4087,
      "strik": 4088,
      "##osis": 4089,
      "association": 4090,
      "grace": 4091,
      "units": 4092,
      "##ades": 4093,
      "##sc": 4094,
      "##reg": 4095,
      "whosoever": 4096,
      "supply": 4097,
      "##mu": 4098,
      "sons": 4099,
      "dream": 4100,
      "aspect": 4101,
      "regarding": 4102,
      "',": 4103,
      "responsibility": 4104,
      "workers": 4105,
      "choose": 4106,
      "192": 4107,
      "crore": 4108,
      "##war": 4109,
      "formed": 4110,
      "produc": 4111,
      "ger": 4112,
      "youth": 4113,
      "##uls": 4114,
      "##iva": 4115,
      "prosper": 4116,
      "strateg": 4117,
      "kash": 4118,
      "opinion": 4119,
      "respond": 4120,
      "foot": 4121,
      "continued": 4122,
      "cry": 4123,
      "mos": 4124,
      "trial": 4125,
      "syn": 4126,
      "presented": 4127,
      "possess": 4128,
      "annual": 4129,
      "particularly": 4130,
      "##ils": 4131,
      "generation": 4132,
      "dut": 4133,
      "##ply": 4134,
      "##the": 4135,
      "##oken": 4136,
      "judgment": 4137,
      "shown": 4138,
      "##lement": 4139,
      "mentioned": 4140,
      "31": 4141,
      "hur": 4142,
      "range": 4143,
      "##ended": 4144,
      "##ground": 4145,
      "gar": 4146,
      "male": 4147,
      "addition": 4148,
      "greet": 4149,
      "journey": 4150,
      "bang": 4151,
      "circum": 4152,
      "##cutta": 4153,
      "worth": 4154,
      "##iff": 4155,
      "fully": 4156,
      "bod": 4157,
      "calcutta": 4158,
      "sold": 4159,
      "click": 4160,
      "##ikh": 4161,
      "someone": 4162,
      "##abled": 4163,
      "promised": 4164,
      "##yan": 4165,
      "increasing": 4166,
      "\".": 4167,
      "fest": 4168,
      "game": 4169,
      "##icial": 4170,
      "##oming": 4171,
      "wills": 4172,
      "session": 4173,
      "resident": 4174,
      "esc": 4175,
      "hot": 4176,
      "attempt": 4177,
      "explan": 4178,
      "bount": 4179,
      "##erous": 4180,
      "##ateful": 4181,
      "imper": 4182,
      "writ": 4183,
      "democracy": 4184,
      "concept": 4185,
      "symb": 4186,
      "existing": 4187,
      "correct": 4188,
      "violence": 4189,
      "exal": 4190,
      "upd": 4191,
      "fruit": 4192,
      "##ne": 4193,
      "chastisement": 4194,
      "sept": 4195,
      "twenty": 4196,
      "consequ": 4197,
      "feet": 4198,
      "balance": 4199,
      "style": 4200,
      "##arily": 4201,
      "warn": 4202,
      "extra": 4203,
      "jin": 4204,
      "ps": 4205,
      "sus": 4206,
      "cloud": 4207,
      "sins": 4208,
      "appeal": 4209,
      "recomp": 4210,
      "##osing": 4211,
      "2000": 4212,
      "granted": 4213,
      "apostle": 4214,
      "enemy": 4215,
      "reflect": 4216,
      "27": 4217,
      "##ese": 4218,
      "contro": 4219,
      "##iation": 4220,
      "hosp": 4221,
      "mumb": 4222,
      "appl": 4223,
      "successful": 4224,
      "##load": 4225,
      "##raft": 4226,
      "disci": 4227,
      "famous": 4228,
      "##char": 4229,
      "recomm": 4230,
      "added": 4231,
      "numbers": 4232,
      "frame": 4233,
      "measures": 4234,
      "intellect": 4235,
      "threat": 4236,
      "##ran": 4237,
      "idol": 4238,
      "powerful": 4239,
      "assign": 4240,
      "##where": 4241,
      "match": 4242,
      "##ti": 4243,
      "ham": 4244,
      "rank": 4245,
      "doers": 4246,
      "##icket": 4247,
      "occup": 4248,
      "heavy": 4249,
      "technical": 4250,
      "media": 4251,
      "moment": 4252,
      "##mir": 4253,
      "standards": 4254,
      "beautiful": 4255,
      "minus": 4256,
      "college": 4257,
      "##atures": 4258,
      "##ays": 4259,
      "##ulate": 4260,
      "nav": 4261,
      "patter": 4262,
      "##anced": 4263,
      "expenditure": 4264,
      "##oting": 4265,
      "division": 4266,
      "governments": 4267,
      "permission": 4268,
      "##inite": 4269,
      "##cription": 4270,
      "magn": 4271,
      "attract": 4272,
      "insurance": 4273,
      "##icit": 4274,
      "shah": 4275,
      "distin": 4276,
      "##standing": 4277,
      "graph": 4278,
      "relationship": 4279,
      "instrument": 4280,
      "scientific": 4281,
      "##abh": 4282,
      "attention": 4283,
      "denied": 4284,
      "length": 4285,
      "ash": 4286,
      "##light": 4287,
      "prostr": 4288,
      "cooperation": 4289,
      "option": 4290,
      "capt": 4291,
      "marriage": 4292,
      "advice": 4293,
      "highest": 4294,
      "faces": 4295,
      "cloth": 4296,
      "pleasure": 4297,
      "recover": 4298,
      "chapter": 4299,
      "symbol": 4300,
      "terrorism": 4301,
      "appropri": 4302,
      "complex": 4303,
      "mumbai": 4304,
      "wis": 4305,
      "##iverse": 4306,
      "january": 4307,
      "##ulated": 4308,
      "penal": 4309,
      "leader": 4310,
      "associated": 4311,
      "regional": 4312,
      "sri": 4313,
      "ine": 4314,
      "##ucle": 4315,
      "benefits": 4316,
      "chem": 4317,
      "transform": 4318,
      "fathers": 4319,
      "belief": 4320,
      "behold": 4321,
      "separate": 4322,
      "28": 4323,
      "##amental": 4324,
      "kashmir": 4325,
      "inher": 4326,
      "##ami": 4327,
      "mechan": 4328,
      "arrange": 4329,
      "wel": 4330,
      "temper": 4331,
      "mou": 4332,
      "types": 4333,
      "disob": 4334,
      "procedure": 4335,
      "inside": 4336,
      "corru": 4337,
      "##inate": 4338,
      "review": 4339,
      "commercial": 4340,
      "stream": 4341,
      "neh": 4342,
      "ton": 4343,
      "##cer": 4344,
      "password": 4345,
      "speed": 4346,
      "organisation": 4347,
      "processing": 4348,
      "announ": 4349,
      "##ipur": 4350,
      "employees": 4351,
      "consist": 4352,
      "listen": 4353,
      "questions": 4354,
      "wishes": 4355,
      "corporation": 4356,
      "bond": 4357,
      "otherwise": 4358,
      "standing": 4359,
      "struggle": 4360,
      "ball": 4361,
      "hours": 4362,
      "2013": 4363,
      "explanation": 4364,
      "##tar": 4365,
      "ang": 4366,
      "lok": 4367,
      "wait": 4368,
      "##gy": 4369,
      "##iment": 4370,
      "educational": 4371,
      "performance": 4372,
      "stories": 4373,
      "military": 4374,
      "!\"": 4375,
      "grand": 4376,
      "implementation": 4377,
      "##ored": 4378,
      "ago": 4379,
      "nucle": 4380,
      "laid": 4381,
      "farmers": 4382,
      "longer": 4383,
      "africa": 4384,
      "##iers": 4385,
      "##fall": 4386,
      "pranabmu": 4387,
      "pranabmukherjee": 4388,
      "tid": 4389,
      "guj": 4390,
      "quar": 4391,
      "ker": 4392,
      "messages": 4393,
      "dial": 4394,
      "##ox": 4395,
      "item": 4396,
      "schemes": 4397,
      "funds": 4398,
      "enterpr": 4399,
      "expression": 4400,
      "assets": 4401,
      "staff": 4402,
      "courts": 4403,
      "tradition": 4404,
      "principal": 4405,
      "mat": 4406,
      "##bs": 4407,
      "animal": 4408,
      "innovation": 4409,
      "##ini": 4410,
      "termin": 4411,
      "shows": 4412,
      "election": 4413,
      "cash": 4414,
      "nehru": 4415,
      "star": 4416,
      "settings": 4417,
      "asia": 4418,
      "additional": 4419,
      "##ality": 4420,
      "recent": 4421,
      "##cle": 4422,
      "convey": 4423,
      "consult": 4424,
      ",\"": 4425,
      "registr": 4426,
      "model": 4427,
      "##rew": 4428,
      "species": 4429,
      "cells": 4430,
      "lic": 4431,
      "miss": 4432,
      "##set": 4433,
      "##order": 4434,
      "drive": 4435,
      "wisdom": 4436,
      "extent": 4437,
      "##akes": 4438,
      "domestic": 4439,
      "machine": 4440,
      "##hab": 4441,
      "governance": 4442,
      "express": 4443,
      "sort": 4444,
      "forest": 4445,
      "acts": 4446,
      "profit": 4447,
      "mur": 4448,
      "functions": 4449,
      "##eding": 4450,
      "##ilit": 4451,
      "cities": 4452,
      "causes": 4453,
      "leaves": 4454,
      "communic": 4455,
      "ready": 4456,
      "internet": 4457,
      "krishna": 4458,
      "refuge": 4459,
      "hide": 4460,
      "trees": 4461,
      "shr": 4462,
      "suggest": 4463,
      "medium": 4464,
      "results": 4465,
      "yog": 4466,
      "version": 4467,
      "magic": 4468,
      "covered": 4469,
      "##la": 4470,
      "relation": 4471,
      "transgress": 4472,
      "rise": 4473,
      "##umn": 4474,
      "pand": 4475,
      "steps": 4476,
      "december": 4477,
      "##izing": 4478,
      "june": 4479,
      "##asa": 4480,
      "##asc": 4481,
      "incl": 4482,
      "secure": 4483,
      "##ratic": 4484,
      "interp": 4485,
      "##aksh": 4486,
      "organization": 4487,
      "argu": 4488,
      "mun": 4489,
      "furn": 4490,
      "includes": 4491,
      "maximum": 4492,
      "chairman": 4493,
      "##avi": 4494,
      "reb": 4495,
      "noble": 4496,
      "husband": 4497,
      "documents": 4498,
      "average": 4499,
      "universities": 4500,
      "leading": 4501,
      "reading": 4502,
      "cat": 4503,
      "online": 4504,
      "china": 4505,
      "##iling": 4506,
      "circumst": 4507,
      "##ober": 4508,
      "compass": 4509,
      "wives": 4510,
      "##lection": 4511,
      "##pper": 4512,
      "palest": 4513,
      "station": 4514,
      "entered": 4515,
      "##hy": 4516,
      "##under": 4517,
      "reference": 4518,
      "rout": 4519,
      "##ae": 4520,
      "directly": 4521,
      "electron": 4522,
      "independent": 4523,
      "august": 4524,
      "transm": 4525,
      "egg": 4526,
      "##eless": 4527,
      "sacred": 4528,
      "useful": 4529,
      "traditional": 4530,
      "speaking": 4531,
      "##abor": 4532,
      "discover": 4533,
      "swe": 4534,
      "sister": 4535,
      "desires": 4536,
      "consciousness": 4537,
      "changed": 4538,
      "relevant": 4539,
      "september": 4540,
      "sale": 4541,
      "amongst": 4542,
      "extreme": 4543,
      "october": 4544,
      "lived": 4545,
      "indians": 4546,
      "fruits": 4547,
      "focus": 4548,
      "##iration": 4549,
      "prose": 4550,
      "minimum": 4551,
      "entry": 4552,
      "growing": 4553,
      "storage": 4554,
      "seem": 4555,
      "largest": 4556,
      "opportunities": 4557,
      "2016": 4558,
      "initial": 4559,
      "electric": 4560,
      "##olute": 4561,
      "quant": 4562,
      "box": 4563,
      "primary": 4564,
      "ms": 4565,
      "##ered": 4566,
      "crim": 4567,
      "stock": 4568,
      "saved": 4569,
      "comment": 4570,
      "utter": 4571,
      "email": 4572,
      "studies": 4573,
      "connected": 4574,
      "bed": 4575,
      "welf": 4576,
      "##porary": 4577,
      "##ww": 4578,
      "included": 4579,
      "contribution": 4580,
      "welfare": 4581,
      "asset": 4582,
      "wild": 4583,
      "uns": 4584,
      "helped": 4585,
      "tamil": 4586,
      "40": 4587,
      "flag": 4588,
      "operations": 4589,
      "bombay": 4590,
      "sides": 4591,
      "fat": 4592,
      "format": 4593,
      "##eg": 4594,
      "##enced": 4595,
      "excl": 4596,
      "appreci": 4597,
      "gain": 4598,
      "deemed": 4599,
      "portion": 4600,
      "##ocks": 4601,
      "policies": 4602,
      "intellig": 4603,
      "promotion": 4604,
      "thinking": 4605,
      "challeng": 4606,
      "cattle": 4607,
      "ali": 4608,
      "iii": 4609,
      "fed": 4610,
      "km": 4611,
      "##bi": 4612,
      "stone": 4613,
      "diss": 4614,
      "divided": 4615,
      "dang": 4616,
      "##ras": 4617,
      "##ames": 4618,
      "accordance": 4619,
      "output": 4620,
      "avoid": 4621,
      "legislative": 4622,
      "square": 4623,
      "bin": 4624,
      "tidings": 4625,
      "ult": 4626,
      "resource": 4627,
      "glad": 4628,
      "named": 4629,
      "site": 4630,
      "voice": 4631,
      "soil": 4632,
      "risk": 4633,
      "perman": 4634,
      "defence": 4635,
      "griev": 4636,
      "distribution": 4637,
      "joy": 4638,
      "withd": 4639,
      "nove": 4640,
      "refers": 4641,
      "util": 4642,
      "##shipp": 4643,
      "##oom": 4644,
      "items": 4645,
      "worshipp": 4646,
      "join": 4647,
      "input": 4648,
      "##rate": 4649,
      "##has": 4650,
      "rejected": 4651,
      "height": 4652,
      "thank": 4653,
      "communication": 4654,
      "tom": 4655,
      "www": 4656,
      "skin": 4657,
      "associate": 4658,
      "gandhiji": 4659,
      "influence": 4660,
      "ka": 4661,
      "killed": 4662,
      "lines": 4663,
      "seems": 4664,
      "planning": 4665,
      "dust": 4666,
      "fle": 4667,
      "distance": 4668,
      "significant": 4669,
      "hidden": 4670,
      "adopted": 4671,
      "##ography": 4672,
      "rap": 4673,
      "##osen": 4674,
      "committed": 4675,
      "involved": 4676,
      "guru": 4677,
      "won": 4678,
      "pad": 4679,
      "shape": 4680,
      "seeing": 4681,
      "oce": 4682,
      "contains": 4683,
      "pred": 4684,
      "surface": 4685,
      "eastern": 4686,
      "mouth": 4687,
      "seed": 4688,
      "sleep": 4689,
      "unl": 4690,
      "developing": 4691,
      "##verty": 4692,
      "flo": 4693,
      "confirm": 4694,
      "##aters": 4695,
      "##atha": 4696,
      "affect": 4697,
      "mort": 4698,
      "reven": 4699,
      "appropriate": 4700,
      "sir": 4701,
      "##to": 4702,
      "poverty": 4703,
      "coven": 4704,
      "raise": 4705,
      "declared": 4706,
      "##osph": 4707,
      "root": 4708,
      "collection": 4709,
      "truthful": 4710,
      "##uation": 4711,
      "##ora": 4712,
      "safety": 4713,
      "lack": 4714,
      "##hra": 4715,
      "##inent": 4716,
      "##ula": 4717,
      "difference": 4718,
      "stated": 4719,
      "recompense": 4720,
      "##ifying": 4721,
      "##asth": 4722,
      "centres": 4723,
      "##omet": 4724,
      "veget": 4725,
      "procl": 4726,
      "remained": 4727,
      "holy": 4728,
      "rupe": 4729,
      "articles": 4730,
      "breast": 4731,
      "supported": 4732,
      "##iring": 4733,
      "clearly": 4734,
      "gas": 4735,
      "##oon": 4736,
      "prec": 4737,
      "35": 4738,
      "urb": 4739,
      "hindus": 4740,
      "stre": 4741,
      "ourselves": 4742,
      "schedul": 4743,
      "##verse": 4744,
      "drop": 4745,
      "##aging": 4746,
      "opened": 4747,
      "scripture": 4748,
      "delete": 4749,
      "brings": 4750,
      "likely": 4751,
      "##ateral": 4752,
      "interests": 4753,
      "maintain": 4754,
      "november": 4755,
      "engineering": 4756,
      "title": 4757,
      "##ih": 4758,
      "##rant": 4759,
      "##iry": 4760,
      "completed": 4761,
      "hospital": 4762,
      "circumstances": 4763,
      "majority": 4764,
      "fert": 4765,
      "construction": 4766,
      "extended": 4767,
      "##ped": 4768,
      "stead": 4769,
      "mutual": 4770,
      "philosophy": 4771,
      "minor": 4772,
      "kar": 4773,
      "taught": 4774,
      "##ented": 4775,
      "tab": 4776,
      "neigh": 4777,
      "##icked": 4778,
      "reality": 4779,
      "forbidden": 4780,
      "atm": 4781,
      "whenever": 4782,
      "##iy": 4783,
      "##ishn": 4784,
      "compr": 4785,
      "earned": 4786,
      "valid": 4787,
      "needed": 4788,
      "unkn": 4789,
      "altern": 4790,
      "feb": 4791,
      "july": 4792,
      "propos": 4793,
      "bag": 4794,
      "emph": 4795,
      "urban": 4796,
      "dry": 4797,
      "vac": 4798,
      "##asons": 4799,
      "frequ": 4800,
      "mary": 4801,
      "advant": 4802,
      "neighb": 4803,
      "lest": 4804,
      "##ych": 4805,
      "##lly": 4806,
      "track": 4807,
      "compon": 4808,
      "universal": 4809,
      "exercise": 4810,
      "om": 4811,
      "calls": 4812,
      "opening": 4813,
      "temples": 4814,
      "birds": 4815,
      "fields": 4816,
      "dim": 4817,
      "unity": 4818,
      "series": 4819,
      "evening": 4820,
      "villages": 4821,
      "proud": 4822,
      "disbelieved": 4823,
      "##ayan": 4824,
      "described": 4825,
      "looked": 4826,
      "poems": 4827,
      "earn": 4828,
      "late": 4829,
      "##equ": 4830,
      "block": 4831,
      "located": 4832,
      "partnership": 4833,
      "turk": 4834,
      "trying": 4835,
      "larger": 4836,
      "element": 4837,
      "succeed": 4838,
      "uttar": 4839,
      "##iny": 4840,
      "##itis": 4841,
      "2007": 4842,
      "tagore": 4843,
      "promote": 4844,
      "construct": 4845,
      "fine": 4846,
      "rid": 4847,
      "waste": 4848,
      "consideration": 4849,
      "sand": 4850,
      "wood": 4851,
      "render": 4852,
      "tend": 4853,
      "lik": 4854,
      "remote": 4855,
      "beauty": 4856,
      "covenant": 4857,
      "died": 4858,
      "facilit": 4859,
      "wherein": 4860,
      "unique": 4861,
      "80": 4862,
      "examination": 4863,
      "plain": 4864,
      "background": 4865,
      "teachers": 4866,
      "dan": 4867,
      "crop": 4868,
      "observed": 4869,
      "##uff": 4870,
      "##ze": 4871,
      "expected": 4872,
      "monitor": 4873,
      "famil": 4874,
      "points": 4875,
      "plug": 4876,
      "fill": 4877,
      "jur": 4878,
      "heed": 4879,
      "throughout": 4880,
      "played": 4881,
      "elements": 4882,
      "friendly": 4883,
      "daily": 4884,
      "chosen": 4885,
      "engaged": 4886,
      "foundation": 4887,
      "anti": 4888,
      "burden": 4889,
      "##ex": 4890,
      "##ero": 4891,
      "##oles": 4892,
      "screen": 4893,
      "vast": 4894,
      "absolute": 4895,
      "##iciency": 4896,
      "##bed": 4897,
      "excess": 4898,
      "contain": 4899,
      "secretary": 4900,
      "oath": 4901,
      "##nes": 4902,
      "##raw": 4903,
      "internal": 4904,
      "calcul": 4905,
      "compassion": 4906,
      "191": 4907,
      "distingu": 4908,
      "glor": 4909,
      "##ales": 4910,
      "prison": 4911,
      "seeking": 4912,
      "homes": 4913,
      "equip": 4914,
      "debt": 4915,
      "trou": 4916,
      "deposit": 4917,
      "hypoc": 4918,
      "##ube": 4919,
      "bhag": 4920,
      "##ga": 4921,
      "##inery": 4922,
      "warning": 4923,
      "##right": 4924,
      "everyone": 4925,
      "souls": 4926,
      "shares": 4927,
      "##rated": 4928,
      "##ocation": 4929,
      "blessings": 4930,
      "##enn": 4931,
      "cultiv": 4932,
      "awards": 4933,
      "location": 4934,
      "dat": 4935,
      "##ague": 4936,
      "applications": 4937,
      "replied": 4938,
      "excellent": 4939,
      "wonder": 4940,
      "chance": 4941,
      "schools": 4942,
      "##repr": 4943,
      "gets": 4944,
      "divide": 4945,
      "academic": 4946,
      "hall": 4947,
      "##adi": 4948,
      "merely": 4949,
      "channel": 4950,
      "levels": 4951,
      "disput": 4952,
      "fellow": 4953,
      "sick": 4954,
      "yield": 4955,
      "##aring": 4956,
      "##reh": 4957,
      "resol": 4958,
      "##board": 4959,
      "chemical": 4960,
      "exalted": 4961,
      "1st": 4962,
      "registered": 4963,
      "##enge": 4964,
      "events": 4965,
      "##grat": 4966,
      "pleased": 4967,
      "german": 4968,
      "families": 4969,
      "##ipt": 4970,
      "##usive": 4971,
      "##ortion": 4972,
      "ideal": 4973,
      "objective": 4974,
      "##gen": 4975,
      "rej": 4976,
      "##aving": 4977,
      "inval": 4978,
      "surr": 4979,
      "greatest": 4980,
      "returns": 4981,
      "##osh": 4982,
      "chandra": 4983,
      "thereafter": 4984,
      "payable": 4985,
      "expand": 4986,
      "ministers": 4987,
      "fresh": 4988,
      "solar": 4989,
      "dispute": 4990,
      "##oms": 4991,
      "forget": 4992,
      "wrongdo": 4993,
      "perfect": 4994,
      "hun": 4995,
      "##ifice": 4996,
      "variety": 4997,
      "convers": 4998,
      "gov": 4999,
      "crops": 5000,
      "park": 5001,
      "spent": 5002,
      "turns": 5003,
      "feeling": 5004,
      "delivered": 5005,
      "fit": 5006,
      "cold": 5007,
      "panch": 5008,
      "manager": 5009,
      "##road": 5010,
      "nuclear": 5011,
      "door": 5012,
      "battle": 5013,
      "moving": 5014,
      "contained": 5015,
      "sections": 5016,
      "29": 5017,
      "dear": 5018,
      "easily": 5019,
      "60": 5020,
      "mist": 5021,
      "slow": 5022,
      "aid": 5023,
      "tong": 5024,
      "##aces": 5025,
      "remains": 5026,
      "kinds": 5027,
      "band": 5028,
      "##tion": 5029,
      "sport": 5030,
      "keeping": 5031,
      "descend": 5032,
      "entr": 5033,
      "darkness": 5034,
      "mobile": 5035,
      "##ervation": 5036,
      "determined": 5037,
      "teacher": 5038,
      "request": 5039,
      "surround": 5040,
      "##iled": 5041,
      "banking": 5042,
      "authorities": 5043,
      "amendment": 5044,
      "hill": 5045,
      "entit": 5046,
      "ble": 5047,
      "brothers": 5048,
      "registration": 5049,
      "##ogle": 5050,
      "attrib": 5051,
      "##retch": 5052,
      "##ruary": 5053,
      "resolution": 5054,
      "noah": 5055,
      "2005": 5056,
      "railway": 5057,
      "reck": 5058,
      "vital": 5059,
      "literary": 5060,
      "nut": 5061,
      "believing": 5062,
      "unknown": 5063,
      "february": 5064,
      "##ius": 5065,
      "rapid": 5066,
      "forever": 5067,
      "##aja": 5068,
      "degree": 5069,
      "rom": 5070,
      "vent": 5071,
      "assam": 5072,
      "integral": 5073,
      "iran": 5074,
      "bott": 5075,
      "charges": 5076,
      "divers": 5077,
      "guil": 5078,
      "passing": 5079,
      "tribun": 5080,
      "pattern": 5081,
      "worked": 5082,
      "##cast": 5083,
      "reserve": 5084,
      "##kt": 5085,
      "flu": 5086,
      "glory": 5087,
      "jose": 5088,
      "##ysis": 5089,
      "probably": 5090,
      "##ixt": 5091,
      "conte": 5092,
      "2008": 5093,
      "admon": 5094,
      "offered": 5095,
      "##onse": 5096,
      "inner": 5097,
      "##ilateral": 5098,
      "assured": 5099,
      "creating": 5100,
      "principles": 5101,
      "nine": 5102,
      "”.": 5103,
      "woe": 5104,
      "critic": 5105,
      "bounty": 5106,
      "season": 5107,
      "google": 5108,
      "relief": 5109,
      "views": 5110,
      "reminder": 5111,
      "##omy": 5112,
      "cook": 5113,
      "contem": 5114,
      "emphas": 5115,
      "store": 5116,
      "directory": 5117,
      "##inet": 5118,
      "whereas": 5119,
      "jews": 5120,
      "tiss": 5121,
      "##apan": 5122,
      "buy": 5123,
      "festival": 5124,
      "defe": 5125,
      "evolution": 5126,
      "desert": 5127,
      "2012": 5128,
      "knower": 5129,
      "finally": 5130,
      "learned": 5131,
      "volume": 5132,
      "victory": 5133,
      "penalty": 5134,
      "entrepr": 5135,
      "delight": 5136,
      "whe": 5137,
      "response": 5138,
      "##atically": 5139,
      "interv": 5140,
      "##chand": 5141,
      "agency": 5142,
      "##idy": 5143,
      "moral": 5144,
      "yoga": 5145,
      "worlds": 5146,
      "##arma": 5147,
      "executive": 5148,
      "mas": 5149,
      "##esty": 5150,
      "sav": 5151,
      "libr": 5152,
      "##pap": 5153,
      "impact": 5154,
      "entreprene": 5155,
      "##iance": 5156,
      "##oning": 5157,
      "removed": 5158,
      "wronged": 5159,
      "wants": 5160,
      "blessed": 5161,
      "2006": 5162,
      "pressure": 5163,
      "guilty": 5164,
      "url": 5165,
      "cer": 5166,
      "cand": 5167,
      "unse": 5168,
      "reply": 5169,
      "girl": 5170,
      "yourself": 5171,
      "empt": 5172,
      "##aji": 5173,
      "happened": 5174,
      "jaw": 5175,
      "##inated": 5176,
      "##avour": 5177,
      "akbar": 5178,
      "##aling": 5179,
      "##icated": 5180,
      "##iles": 5181,
      "bodies": 5182,
      "##teen": 5183,
      "estim": 5184,
      "mahat": 5185,
      "thanks": 5186,
      "##actions": 5187,
      "##eties": 5188,
      "nepal": 5189,
      "establishment": 5190,
      "rama": 5191,
      "administrative": 5192,
      "fab": 5193,
      "rock": 5194,
      "##com": 5195,
      "##resp": 5196,
      "##vert": 5197,
      "orient": 5198,
      "##tered": 5199,
      "devotion": 5200,
      "math": 5201,
      "compens": 5202,
      "waiting": 5203,
      "myself": 5204,
      "mountain": 5205,
      "judgement": 5206,
      "happen": 5207,
      "insert": 5208,
      "pa": 5209,
      "sought": 5210,
      "seized": 5211,
      "songs": 5212,
      "thereby": 5213,
      "intellectual": 5214,
      "goal": 5215,
      "expressed": 5216,
      "edit": 5217,
      "follows": 5218,
      "mainly": 5219,
      "greetings": 5220,
      "madh": 5221,
      "1961": 5222,
      "##ashtra": 5223,
      "democratic": 5224,
      "gaz": 5225,
      "##ception": 5226,
      "##know": 5227,
      "##athy": 5228,
      "territory": 5229,
      "psych": 5230,
      "receipt": 5231,
      "##rim": 5232,
      "##erate": 5233,
      "##ips": 5234,
      "characters": 5235,
      "##uries": 5236,
      "##olid": 5237,
      "obst": 5238,
      "context": 5239,
      "selection": 5240,
      "plat": 5241,
      "teaching": 5242,
      "##fort": 5243,
      "exact": 5244,
      "swear": 5245,
      "diseases": 5246,
      "inspired": 5247,
      "description": 5248,
      "insects": 5249,
      "jinn": 5250,
      "juris": 5251,
      "notes": 5252,
      "double": 5253,
      "cave": 5254,
      "eth": 5255,
      "karn": 5256,
      "compreh": 5257,
      "orders": 5258,
      "generations": 5259,
      "##enses": 5260,
      "england": 5261,
      "european": 5262,
      "invalid": 5263,
      "##istics": 5264,
      "##ogen": 5265,
      "affected": 5266,
      "bestowed": 5267,
      "joined": 5268,
      "kerala": 5269,
      "cru": 5270,
      "sor": 5271,
      "adequ": 5272,
      "rab": 5273,
      "##ahar": 5274,
      "completely": 5275,
      "japan": 5276,
      "##vious": 5277,
      "##nding": 5278,
      "pill": 5279,
      "upper": 5280,
      "phase": 5281,
      "dip": 5282,
      "je": 5283,
      "##iet": 5284,
      "nom": 5285,
      "breath": 5286,
      "failure": 5287,
      "deduction": 5288,
      "sustain": 5289,
      "sell": 5290,
      "congrat": 5291,
      "joseph": 5292,
      "reasons": 5293,
      "sev": 5294,
      "individuals": 5295,
      "center": 5296,
      "highly": 5297,
      "latter": 5298,
      "liqu": 5299,
      "##pted": 5300,
      "impl": 5301,
      "introduced": 5302,
      "scheduled": 5303,
      "subt": 5304,
      "extension": 5305,
      "organiz": 5306,
      "defined": 5307,
      "drawn": 5308,
      "iron": 5309,
      "counter": 5310,
      "recommend": 5311,
      "spl": 5312,
      "treas": 5313,
      "suddenly": 5314,
      "himal": 5315,
      "bharat": 5316,
      "##rible": 5317,
      "practices": 5318,
      "fundamental": 5319,
      "##icip": 5320,
      "theme": 5321,
      "partner": 5322,
      "hero": 5323,
      "falsehood": 5324,
      "picture": 5325,
      "dialog": 5326,
      "que": 5327,
      "download": 5328,
      "archit": 5329,
      "micro": 5330,
      "positive": 5331,
      "##urate": 5332,
      "2001": 5333,
      "demon": 5334,
      "doctor": 5335,
      "recall": 5336,
      "nearly": 5337,
      "param": 5338,
      "parliamentary": 5339,
      "hence": 5340,
      "od": 5341,
      "warner": 5342,
      "reduced": 5343,
      "kum": 5344,
      "abroad": 5345,
      "users": 5346,
      "submit": 5347,
      "architect": 5348,
      "advanced": 5349,
      "bengali": 5350,
      "petitioner": 5351,
      "mahatma": 5352,
      "khan": 5353,
      "##cution": 5354,
      "actual": 5355,
      "household": 5356,
      "incident": 5357,
      "sectors": 5358,
      "delivery": 5359,
      "figure": 5360,
      "abode": 5361,
      "doub": 5362,
      "abd": 5363,
      "190": 5364,
      "profits": 5365,
      "ran": 5366,
      "##mi": 5367,
      "carrying": 5368,
      "plot": 5369,
      "survey": 5370,
      "consumer": 5371,
      "guides": 5372,
      "confident": 5373,
      "machinery": 5374,
      "32": 5375,
      "grass": 5376,
      "agencies": 5377,
      "confidence": 5378,
      "inaug": 5379,
      "limits": 5380,
      "sacrifice": 5381,
      "palestin": 5382,
      "##osphere": 5383,
      "fly": 5384,
      "fell": 5385,
      "obvious": 5386,
      "shap": 5387,
      "methods": 5388,
      "prices": 5389,
      "meant": 5390,
      "01": 5391,
      "exists": 5392,
      "witnesses": 5393,
      "curren": 5394,
      "eleph": 5395,
      "00": 5396,
      "delay": 5397,
      "caste": 5398,
      "guar": 5399,
      "beings": 5400,
      "audio": 5401,
      "encourage": 5402,
      "russ": 5403,
      "train": 5404,
      "##amed": 5405,
      "##abilities": 5406,
      "trave": 5407,
      "assum": 5408,
      "windows": 5409,
      "ip": 5410,
      "##fr": 5411,
      "##una": 5412,
      "2002": 5413,
      "privile": 5414,
      "duties": 5415,
      "dated": 5416,
      "rang": 5417,
      "ly": 5418,
      "switch": 5419,
      "##aign": 5420,
      "leaf": 5421,
      "discipl": 5422,
      "leadership": 5423,
      "target": 5424,
      "options": 5425,
      "daughter": 5426,
      "jes": 5427,
      "##vere": 5428,
      "##ourage": 5429,
      "lif": 5430,
      "##ster": 5431,
      "commanded": 5432,
      "dia": 5433,
      "##oned": 5434,
      "defend": 5435,
      "valley": 5436,
      "purchase": 5437,
      "visible": 5438,
      "##erved": 5439,
      "appell": 5440,
      "bah": 5441,
      "excellency": 5442,
      "speaker": 5443,
      "pi": 5444,
      "vig": 5445,
      "overt": 5446,
      "rob": 5447,
      "newspap": 5448,
      ")?": 5449,
      "dur": 5450,
      "##ii": 5451,
      "changing": 5452,
      "rare": 5453,
      "##aud": 5454,
      "dischar": 5455,
      "critical": 5456,
      "welcome": 5457,
      "iv": 5458,
      "sikh": 5459,
      "vert": 5460,
      "##aneous": 5461,
      "compar": 5462,
      "faithful": 5463,
      "adjust": 5464,
      "guardian": 5465,
      "destination": 5466,
      "##india": 5467,
      "multiple": 5468,
      "##gypt": 5469,
      "guarant": 5470,
      "##xy": 5471,
      "blue": 5472,
      "tribunal": 5473,
      "sanct": 5474,
      "mac": 5475,
      "calend": 5476,
      "fourth": 5477,
      "initiatives": 5478,
      "cab": 5479,
      "los": 5480,
      "agreed": 5481,
      "ira": 5482,
      "whatsoever": 5483,
      "##ros": 5484,
      "relative": 5485,
      "campaign": 5486,
      "hyd": 5487,
      "##rees": 5488,
      "bright": 5489,
      "deskt": 5490,
      "letters": 5491,
      "suffering": 5492,
      "permanent": 5493,
      "bc": 5494,
      "egypt": 5495,
      "##iya": 5496,
      "heat": 5497,
      "arg": 5498,
      "regions": 5499,
      "maharashtra": 5500,
      "van": 5501,
      "alt": 5502,
      "editor": 5503,
      "launched": 5504,
      "polythe": 5505,
      "##ika": 5506,
      "marketing": 5507,
      "entitled": 5508,
      "fabric": 5509,
      "filled": 5510,
      "stood": 5511,
      "depr": 5512,
      "moved": 5513,
      "features": 5514,
      "fighting": 5515,
      "negative": 5516,
      "##oving": 5517,
      "toward": 5518,
      "##adu": 5519,
      "asp": 5520,
      "materials": 5521,
      "profess": 5522,
      "rajasth": 5523,
      "atom": 5524,
      "corresp": 5525,
      "substant": 5526,
      "phone": 5527,
      "gujarat": 5528,
      "gate": 5529,
      "##ja": 5530,
      "##eter": 5531,
      "##imately": 5532,
      "##race": 5533,
      "adult": 5534,
      "audit": 5535,
      "throne": 5536,
      "ocean": 5537,
      "historical": 5538,
      "motion": 5539,
      "cance": 5540,
      "lawful": 5541,
      "nan": 5542,
      "schedule": 5543,
      "##idge": 5544,
      "pu": 5545,
      "disk": 5546,
      "irr": 5547,
      "requirements": 5548,
      "aust": 5549,
      "hop": 5550,
      "##odes": 5551,
      "##ologies": 5552,
      "priority": 5553,
      "unseen": 5554,
      "offices": 5555,
      "reports": 5556,
      "factors": 5557,
      "veh": 5558,
      "replace": 5559,
      "prosperity": 5560,
      "##enance": 5561,
      "hair": 5562,
      "habit": 5563,
      "##grim": 5564,
      "pip": 5565,
      "sources": 5566,
      "senior": 5567,
      "iraq": 5568,
      "##iven": 5569,
      "cricket": 5570,
      "actions": 5571,
      "ability": 5572,
      "appar": 5573,
      "fault": 5574,
      "ganga": 5575,
      "latest": 5576,
      "hypocrit": 5577,
      "##kh": 5578,
      "elections": 5579,
      "sitting": 5580,
      "##mar": 5581,
      "submitted": 5582,
      "translation": 5583,
      "strike": 5584,
      "jurisd": 5585,
      "##arian": 5586,
      "##raid": 5587,
      "poem": 5588,
      "namely": 5589,
      "datab": 5590,
      "##uing": 5591,
      "notification": 5592,
      "hast": 5593,
      "##astic": 5594,
      "facility": 5595,
      "rajya": 5596,
      "gains": 5597,
      "conflict": 5598,
      "pilgrim": 5599,
      "rupees": 5600,
      "##rain": 5601,
      "proved": 5602,
      "font": 5603,
      "##cript": 5604,
      "beg": 5605,
      "politics": 5606,
      "recorded": 5607,
      "jesus": 5608,
      "hasten": 5609,
      "remark": 5610,
      "##isms": 5611,
      "column": 5612,
      "settlement": 5613,
      "musa": 5614,
      "proceedings": 5615,
      "vice": 5616,
      "ende": 5617,
      "favor": 5618,
      "vehic": 5619,
      "36": 5620,
      "##ocol": 5621,
      "throw": 5622,
      "terrible": 5623,
      "aspects": 5624,
      "climate": 5625,
      "##med": 5626,
      "adam": 5627,
      "2018": 5628,
      "pollution": 5629,
      "empty": 5630,
      "##using": 5631,
      "bind": 5632,
      "interesting": 5633,
      "radio": 5634,
      "principle": 5635,
      "professional": 5636,
      "images": 5637,
      "##ira": 5638,
      "recently": 5639,
      "effects": 5640,
      "bird": 5641,
      "tea": 5642,
      "concent": 5643,
      "buddh": 5644,
      "weather": 5645,
      "reduce": 5646,
      "holding": 5647,
      "participation": 5648,
      "scholar": 5649,
      "“%": 5650,
      "followers": 5651,
      "subsequ": 5652,
      "teleph": 5653,
      "struct": 5654,
      "wee": 5655,
      "coast": 5656,
      "memor": 5657,
      "surpr": 5658,
      "sanction": 5659,
      "revenue": 5660,
      "abund": 5661,
      "coal": 5662,
      "continuous": 5663,
      "escape": 5664,
      "recon": 5665,
      "jurisdiction": 5666,
      "lit": 5667,
      "spot": 5668,
      "remem": 5669,
      "publication": 5670,
      "arrog": 5671,
      "destruction": 5672,
      "departments": 5673,
      "empower": 5674,
      "province": 5675,
      "advantage": 5676,
      "cow": 5677,
      "kan": 5678,
      "##dy": 5679,
      "##iel": 5680,
      "friendship": 5681,
      "rub": 5682,
      "##mark": 5683,
      "filter": 5684,
      "patience": 5685,
      "abide": 5686,
      "va": 5687,
      "choice": 5688,
      "##nel": 5689,
      "writer": 5690,
      "released": 5691,
      "convention": 5692,
      "journal": 5693,
      "weap": 5694,
      "drugs": 5695,
      "pension": 5696,
      "suitable": 5697,
      "rajasthan": 5698,
      "nag": 5699,
      "bull": 5700,
      "student": 5701,
      "thirty": 5702,
      "inherit": 5703,
      "##da": 5704,
      "##areness": 5705,
      "tender": 5706,
      "surv": 5707,
      "desktop": 5708,
      ".—": 5709,
      "rates": 5710,
      "##lal": 5711,
      "budget": 5712,
      "sho": 5713,
      "button": 5714,
      "didn": 5715,
      "mainten": 5716,
      "undertaking": 5717,
      "500": 5718,
      "wage": 5719,
      "bhar": 5720,
      "approved": 5721,
      "interpret": 5722,
      "currency": 5723,
      "bose": 5724,
      "##bal": 5725,
      "sugar": 5726,
      "communities": 5727,
      "##iant": 5728,
      "##ena": 5729,
      "accident": 5730,
      "owner": 5731,
      "constant": 5732,
      "discussion": 5733,
      "##force": 5734,
      "treated": 5735,
      "tomorrow": 5736,
      "courage": 5737,
      "##era": 5738,
      "classes": 5739,
      "maintenance": 5740,
      "decide": 5741,
      "\",": 5742,
      "charged": 5743,
      "##anas": 5744,
      "##otic": 5745,
      "preced": 5746,
      "twel": 5747,
      "plays": 5748,
      "opposition": 5749,
      "cou": 5750,
      "ic": 5751,
      "shared": 5752,
      "##pel": 5753,
      "##ifies": 5754,
      "theirs": 5755,
      "awareness": 5756,
      "admit": 5757,
      "medicine": 5758,
      "sind": 5759,
      "shad": 5760,
      "sends": 5761,
      "huge": 5762,
      "theory": 5763,
      "grown": 5764,
      "starting": 5765,
      "##11": 5766,
      "##ping": 5767,
      "sole": 5768,
      "integrated": 5769,
      "challenge": 5770,
      "cerem": 5771,
      "showed": 5772,
      "achieved": 5773,
      "##aitan": 5774,
      "electricity": 5775,
      "map": 5776,
      "##ndon": 5777,
      "##ishing": 5778,
      "ahead": 5779,
      "assigned": 5780,
      "universe": 5781,
      "ax": 5782,
      "stars": 5783,
      "brain": 5784,
      "married": 5785,
      "efficient": 5786,
      "curs": 5787,
      "allowance": 5788,
      "correspond": 5789,
      "08": 5790,
      "##ux": 5791,
      "ears": 5792,
      "prayers": 5793,
      "##ompan": 5794,
      "##ously": 5795,
      "bills": 5796,
      "installed": 5797,
      "piece": 5798,
      "constitu": 5799,
      "##aram": 5800,
      "outl": 5801,
      "approval": 5802,
      "elig": 5803,
      "empire": 5804,
      "gathered": 5805,
      "##hammed": 5806,
      "##ofindia": 5807,
      "1999": 5808,
      "damage": 5809,
      "##oj": 5810,
      "willed": 5811,
      "afraid": 5812,
      "factor": 5813,
      "manufacturing": 5814,
      "eld": 5815,
      "##cip": 5816,
      "appears": 5817,
      "configuration": 5818,
      "-.": 5819,
      "gn": 5820,
      "lock": 5821,
      "presidentofindia": 5822,
      "subjects": 5823,
      "corruption": 5824,
      "##aced": 5825,
      "examples": 5826,
      "situated": 5827,
      "neighbour": 5828,
      "cd": 5829,
      "peoples": 5830,
      "islands": 5831,
      "explo": 5832,
      "fertil": 5833,
      "whome": 5834,
      "whomever": 5835,
      "\"%": 5836,
      "margin": 5837,
      "electr": 5838,
      "andhra": 5839,
      "##emat": 5840,
      "(%": 5841,
      "sard": 5842,
      "reforms": 5843,
      "tonnes": 5844,
      "london": 5845,
      "skill": 5846,
      "analysis": 5847,
      "calendar": 5848,
      "##ander": 5849,
      "##iders": 5850,
      "resist": 5851,
      "substance": 5852,
      "proclaim": 5853,
      "##edient": 5854,
      "marry": 5855,
      "discl": 5856,
      "assistant": 5857,
      "enemies": 5858,
      "update": 5859,
      "prostrate": 5860,
      "rice": 5861,
      "attain": 5862,
      "attached": 5863,
      "kil": 5864,
      "##apur": 5865,
      "appeared": 5866,
      "rebell": 5867,
      "jail": 5868,
      "comfort": 5869,
      "blame": 5870,
      "judges": 5871,
      "bringing": 5872,
      "oppress": 5873,
      "equipment": 5874,
      "shel": 5875,
      "operating": 5876,
      "adequate": 5877,
      "az": 5878,
      "##ios": 5879,
      "##wa": 5880,
      "uses": 5881,
      "grateful": 5882,
      "bihar": 5883,
      "scientists": 5884,
      "distinct": 5885,
      "eve": 5886,
      "commod": 5887,
      "housing": 5888,
      "disg": 5889,
      "brow": 5890,
      "##brance": 5891,
      "branches": 5892,
      "scholars": 5893,
      "ec": 5894,
      "fee": 5895,
      "accompan": 5896,
      "collabor": 5897,
      "draft": 5898,
      "criminal": 5899,
      "library": 5900,
      "hypocrites": 5901,
      "arbit": 5902,
      "span": 5903,
      "turning": 5904,
      "smaller": 5905,
      "marked": 5906,
      "elected": 5907,
      "withdraw": 5908,
      "jag": 5909,
      "joh": 5910,
      "##aur": 5911,
      "##oo": 5912,
      "##owned": 5913,
      "ordinary": 5914,
      "weeks": 5915,
      "##ayana": 5916,
      "mohammed": 5917,
      "arabic": 5918,
      "zero": 5919,
      "helps": 5920,
      "solution": 5921,
      "healthy": 5922,
      "##greg": 5923,
      "##pic": 5924,
      "##anged": 5925,
      "looks": 5926,
      "facts": 5927,
      "bul": 5928,
      "distress": 5929,
      "##asm": 5930,
      "##pped": 5931,
      "wherever": 5932,
      "strengthen": 5933,
      "intelligence": 5934,
      "hit": 5935,
      "surre": 5936,
      "citizen": 5937,
      "rot": 5938,
      "labor": 5939,
      "enhan": 5940,
      "records": 5941,
      "challenges": 5942,
      "tel": 5943,
      "organis": 5944,
      "mock": 5945,
      "minutes": 5946,
      "authent": 5947,
      "settled": 5948,
      "##idd": 5949,
      "##amin": 5950,
      "enabled": 5951,
      "atmosphere": 5952,
      "##itage": 5953,
      "##imb": 5954,
      "willing": 5955,
      "instance": 5956,
      "minds": 5957,
      "shak": 5958,
      "demonstr": 5959,
      "75": 5960,
      "##inity": 5961,
      "revelation": 5962,
      "database": 5963,
      "backs": 5964,
      "capable": 5965,
      "daughters": 5966,
      "oblig": 5967,
      "communications": 5968,
      "##thy": 5969,
      "disbelief": 5970,
      "christian": 5971,
      "aur": 5972,
      "judicial": 5973,
      "applied": 5974,
      "brief": 5975,
      "mahab": 5976,
      "committees": 5977,
      "dri": 5978,
      "kor": 5979,
      "raw": 5980,
      "squared": 5981,
      "apostles": 5982,
      "compensation": 5983,
      "requires": 5984,
      "identity": 5985,
      "##isc": 5986,
      "currently": 5987,
      "##athi": 5988,
      "palm": 5989,
      "corporate": 5990,
      "sexual": 5991,
      "dign": 5992,
      "rene": 5993,
      "royal": 5994,
      "arms": 5995,
      "appointment": 5996,
      "remembrance": 5997,
      "mig": 5998,
      "coord": 5999,
      "##ections": 6000,
      "served": 6001,
      "crow": 6002,
      "advis": 6003,
      "das": 6004,
      "##ams": 6005,
      "northern": 6006,
      "##du": 6007,
      "paral": 6008,
      "dynam": 6009,
      "airport": 6010,
      "##achal": 6011,
      "colon": 6012,
      "heads": 6013,
      "chrom": 6014,
      "felicit": 6015,
      "##unk": 6016,
      "girls": 6017,
      "ib": 6018,
      "org": 6019,
      "indig": 6020,
      "##ourse": 6021,
      "plans": 6022,
      "harv": 6023,
      "##ricts": 6024,
      "objectives": 6025,
      "assessing": 6026,
      "sustenance": 6027,
      "liquid": 6028,
      "##iced": 6029,
      "sending": 6030,
      "platform": 6031,
      "##ataka": 6032,
      "##isition": 6033,
      "multi": 6034,
      "obtained": 6035,
      ")]": 6036,
      "border": 6037,
      "index": 6038,
      "dance": 6039,
      "kab": 6040,
      "##tes": 6041,
      "simpl": 6042,
      "candid": 6043,
      "lose": 6044,
      "##eb": 6045,
      "becoming": 6046,
      "attitude": 6047,
      "prevail": 6048,
      "prince": 6049,
      "##vation": 6050,
      "containing": 6051,
      "fuel": 6052,
      "dav": 6053,
      "ves": 6054,
      "##fast": 6055,
      "orph": 6056,
      "pled": 6057,
      "happiness": 6058,
      "properties": 6059,
      "thousands": 6060,
      "digital": 6061,
      "bilateral": 6062,
      "##lies": 6063,
      "incor": 6064,
      "engage": 6065,
      "reveal": 6066,
      "zone": 6067,
      "##name": 6068,
      "##ience": 6069,
      "grieve": 6070,
      "despite": 6071,
      "##ithm": 6072,
      "protocol": 6073,
      "temperature": 6074,
      "oh": 6075,
      "cool": 6076,
      "forgot": 6077,
      "initiative": 6078,
      "##ghal": 6079,
      "endeavour": 6080,
      "sorrow": 6081,
      "##ghan": 6082,
      "afford": 6083,
      "visited": 6084,
      "thoughts": 6085,
      "string": 6086,
      ")!": 6087,
      "vit": 6088,
      "##icate": 6089,
      "##pta": 6090,
      "clos": 6091,
      "pregn": 6092,
      "humili": 6093,
      "bottom": 6094,
      "##iments": 6095,
      "informed": 6096,
      "costs": 6097,
      "enjo": 6098,
      "cham": 6099,
      "dog": 6100,
      "flowers": 6101,
      "nur": 6102,
      "##cks": 6103,
      "##imal": 6104,
      "seemed": 6105,
      "proportion": 6106,
      "losers": 6107,
      "cot": 6108,
      "poets": 6109,
      "gan": 6110,
      "dram": 6111,
      "recite": 6112,
      "proofs": 6113,
      "##ses": 6114,
      "officials": 6115,
      "kde": 6116,
      "laugh": 6117,
      "upgr": 6118,
      "menu": 6119,
      "objects": 6120,
      "armed": 6121,
      "cup": 6122,
      "fing": 6123,
      "lect": 6124,
      "##udd": 6125,
      "compared": 6126,
      "deleg": 6127,
      "imperial": 6128,
      "accused": 6129,
      "icon": 6130,
      "##usted": 6131,
      "prophets": 6132,
      "customer": 6133,
      "pages": 6134,
      "loans": 6135,
      "consists": 6136,
      "expenses": 6137,
      "##ankar": 6138,
      "explain": 6139,
      "45": 6140,
      "differences": 6141,
      "closed": 6142,
      "concl": 6143,
      "cooper": 6144,
      "afghan": 6145,
      "dar": 6146,
      "hom": 6147,
      "aside": 6148,
      "33": 6149,
      "##ensions": 6150,
      "horse": 6151,
      "recovery": 6152,
      "wrongdoers": 6153,
      "du": 6154,
      "##cere": 6155,
      "announced": 6156,
      "doom": 6157,
      "##umin": 6158,
      "babu": 6159,
      "sweet": 6160,
      "##och": 6161,
      "sovere": 6162,
      "subhas": 6163,
      "burning": 6164,
      "hurt": 6165,
      "sovereign": 6166,
      "cart": 6167,
      "##issa": 6168,
      "horiz": 6169,
      "telephone": 6170,
      "race": 6171,
      "##last": 6172,
      "##oti": 6173,
      "heritage": 6174,
      "02": 6175,
      "##hu": 6176,
      "performed": 6177,
      "absence": 6178,
      "designed": 6179,
      "charity": 6180,
      "secondary": 6181,
      "tribes": 6182,
      "steel": 6183,
      "argument": 6184,
      "bone": 6185,
      "##bon": 6186,
      "doll": 6187,
      "advoc": 6188,
      "fifty": 6189,
      "##most": 6190,
      "decisions": 6191,
      "proposed": 6192,
      "constituted": 6193,
      "cra": 6194,
      "southern": 6195,
      "technologies": 6196,
      "observe": 6197,
      "silver": 6198,
      "2004": 6199,
      "saty": 6200,
      "covering": 6201,
      "pull": 6202,
      "processes": 6203,
      "hal": 6204,
      "##osite": 6205,
      "leaving": 6206,
      "creatures": 6207,
      "entirely": 6208,
      "surrender": 6209,
      "beneath": 6210,
      "equality": 6211,
      "deed": 6212,
      "calling": 6213,
      "deputy": 6214,
      "layer": 6215,
      "maintained": 6216,
      "commitment": 6217,
      "tissue": 6218,
      "fib": 6219,
      "##oration": 6220,
      "outstanding": 6221,
      "emotion": 6222,
      "distinguished": 6223,
      "wicked": 6224,
      "inhab": 6225,
      "evol": 6226,
      "recognised": 6227,
      "jawahar": 6228,
      "polytheists": 6229,
      "##back": 6230,
      "declar": 6231,
      "acquired": 6232,
      "plugin": 6233,
      "adj": 6234,
      "flood": 6235,
      "legislature": 6236,
      "eternal": 6237,
      "playing": 6238,
      "possession": 6239,
      "automatically": 6240,
      "expert": 6241,
      "domain": 6242,
      "##esis": 6243,
      "##luded": 6244,
      "sincere": 6245,
      "environmental": 6246,
      "clouds": 6247,
      "suit": 6248,
      "substantial": 6249,
      "decades": 6250,
      "formation": 6251,
      "counsel": 6252,
      "mart": 6253,
      "##ller": 6254,
      "##ibilities": 6255,
      "operative": 6256,
      "exports": 6257,
      "fulfil": 6258,
      "tools": 6259,
      "drug": 6260,
      "disobey": 6261,
      "maybe": 6262,
      "##edience": 6263,
      "substit": 6264,
      "rit": 6265,
      "sequ": 6266,
      "perce": 6267,
      "leads": 6268,
      "runs": 6269,
      "karnataka": 6270,
      "french": 6271,
      "mandap": 6272,
      "bones": 6273,
      "pert": 6274,
      "transaction": 6275,
      "##pective": 6276,
      "alarm": 6277,
      "formal": 6278,
      "absor": 6279,
      ",'": 6280,
      "hills": 6281,
      "py": 6282,
      "befall": 6283,
      "reported": 6284,
      "orissa": 6285,
      "companions": 6286,
      "extremely": 6287,
      "##ni": 6288,
      "sees": 6289,
      "street": 6290,
      "##rier": 6291,
      "cris": 6292,
      "skills": 6293,
      "admitted": 6294,
      "organizations": 6295,
      "borrow": 6296,
      "core": 6297,
      "naught": 6298,
      "##zz": 6299,
      "prep": 6300,
      "communal": 6301,
      "twelve": 6302,
      "strive": 6303,
      "mostly": 6304,
      "signed": 6305,
      "gall": 6306,
      "##entions": 6307,
      "christians": 6308,
      "mosque": 6309,
      "simply": 6310,
      "instruments": 6311,
      "vic": 6312,
      "flower": 6313,
      "owners": 6314,
      "2003": 6315,
      "doesn": 6316,
      "functioning": 6317,
      "sardar": 6318,
      "##onds": 6319,
      "##izes": 6320,
      "pard": 6321,
      "conducted": 6322,
      "fulfilled": 6323,
      "2009": 6324,
      "trading": 6325,
      "spring": 6326,
      "repentance": 6327,
      "similarly": 6328,
      "bell": 6329,
      "movements": 6330,
      "symp": 6331,
      "pious": 6332,
      "##mo": 6333,
      "##oral": 6334,
      "stands": 6335,
      "renew": 6336,
      "oft": 6337,
      "##aded": 6338,
      "infinite": 6339,
      "90": 6340,
      "nab": 6341,
      "exceed": 6342,
      "lt": 6343,
      "recited": 6344,
      "centuries": 6345,
      "decree": 6346,
      "markets": 6347,
      "israeli": 6348,
      "gent": 6349,
      "os": 6350,
      "equally": 6351,
      "detailed": 6352,
      "##ranath": 6353,
      "ast": 6354,
      "##erves": 6355,
      "##issions": 6356,
      "answered": 6357,
      "trouble": 6358,
      "neck": 6359,
      "quickly": 6360,
      "##stood": 6361,
      "spect": 6362,
      "servant": 6363,
      "arrived": 6364,
      "exhib": 6365,
      "player": 6366,
      "protector": 6367,
      "fix": 6368,
      "believes": 6369,
      "twice": 6370,
      "yellow": 6371,
      "excellence": 6372,
      "##ahim": 6373,
      "securities": 6374,
      "proposal": 6375,
      "cabinet": 6376,
      "09": 6377,
      "##lom": 6378,
      "pride": 6379,
      "career": 6380,
      "billion": 6381,
      "189": 6382,
      "convin": 6383,
      "improvement": 6384,
      "jamm": 6385,
      "ven": 6386,
      "dealing": 6387,
      "personality": 6388,
      "towns": 6389,
      "tourism": 6390,
      "godd": 6391,
      "agent": 6392,
      "##aviour": 6393,
      "##mp": 6394,
      "##udi": 6395,
      "incur": 6396,
      "represents": 6397,
      "aims": 6398,
      "##antic": 6399,
      "organized": 6400,
      "imposs": 6401,
      "john": 6402,
      "##ca": 6403,
      "prohib": 6404,
      "##rav": 6405,
      "evident": 6406,
      "afflict": 6407,
      "framework": 6408,
      "rati": 6409,
      "spoke": 6410,
      "persist": 6411,
      "helper": 6412,
      "successfully": 6413,
      "##ole": 6414,
      "##ette": 6415,
      "dism": 6416,
      "kir": 6417,
      "##hance": 6418,
      "alg": 6419,
      "explained": 6420,
      "bangl": 6421,
      "lamp": 6422,
      "##ila": 6423,
      "enhance": 6424,
      "affair": 6425,
      "hardly": 6426,
      "##ushed": 6427,
      "golden": 6428,
      "kumar": 6429,
      "##iger": 6430,
      "deity": 6431,
      "prove": 6432,
      "##quiry": 6433,
      "grain": 6434,
      "refused": 6435,
      "properly": 6436,
      "eggs": 6437,
      "”;": 6438,
      "clay": 6439,
      "##ifications": 6440,
      "devi": 6441,
      "shop": 6442,
      "partition": 6443,
      "fet": 6444,
      "lying": 6445,
      "##ache": 6446,
      "volunt": 6447,
      "pursu": 6448,
      "##01": 6449,
      "mel": 6450,
      "jammu": 6451,
      "gracious": 6452,
      "creative": 6453,
      "##otes": 6454,
      "depth": 6455,
      "conceal": 6456,
      "fought": 6457,
      "thor": 6458,
      "outer": 6459,
      "muse": 6460,
      "districts": 6461,
      "solid": 6462,
      "hyder": 6463,
      "enterprises": 6464,
      "tongue": 6465,
      "eligible": 6466,
      "happens": 6467,
      "accordingly": 6468,
      "baby": 6469,
      "sed": 6470,
      "##urb": 6471,
      "verse": 6472,
      "links": 6473,
      "complain": 6474,
      "goddess": 6475,
      "lal": 6476,
      "##ka": 6477,
      "broken": 6478,
      "accom": 6479,
      "snow": 6480,
      "electronic": 6481,
      "##ork": 6482,
      "##iform": 6483,
      "facult": 6484,
      "na": 6485,
      "rising": 6486,
      "stamp": 6487,
      "stones": 6488,
      "normally": 6489,
      "neglect": 6490,
      "##oll": 6491,
      "tribal": 6492,
      "deeply": 6493,
      "stayed": 6494,
      "immediate": 6495,
      "reckoning": 6496,
      "waters": 6497,
      "eval": 6498,
      "hardship": 6499,
      "implemented": 6500,
      "mixed": 6501,
      "wear": 6502,
      "employee": 6503,
      "composed": 6504,
      "narrow": 6505,
      "traff": 6506,
      "voc": 6507,
      "##ucing": 6508,
      "sets": 6509,
      "curse": 6510,
      "trem": 6511,
      "printer": 6512,
      "palace": 6513,
      "##vision": 6514,
      "##onic": 6515,
      "##pends": 6516,
      "offers": 6517,
      "scatter": 6518,
      "##anta": 6519,
      "drama": 6520,
      "recognition": 6521,
      "customers": 6522,
      "ray": 6523,
      "whomsoever": 6524,
      "religions": 6525,
      "instructions": 6526,
      "rent": 6527,
      "disabled": 6528,
      "flat": 6529,
      "stick": 6530,
      "##acter": 6531,
      "behaviour": 6532,
      "identified": 6533,
      "palestinian": 6534,
      "##odh": 6535,
      "sympt": 6536,
      "strategy": 6537,
      "mahabhar": 6538,
      "pick": 6539,
      "##owing": 6540,
      "difficulty": 6541,
      "compassionate": 6542,
      "pipes": 6543,
      "##cs": 6544,
      "##xic": 6545,
      "##elines": 6546,
      "acknow": 6547,
      "edge": 6548,
      "brahmin": 6549,
      "obtain": 6550,
      "cos": 6551,
      "dal": 6552,
      "pour": 6553,
      "##pet": 6554,
      "computing": 6555,
      "liberal": 6556,
      "bath": 6557,
      "lake": 6558,
      "##head": 6559,
      "amp": 6560,
      "transferred": 6561,
      "victim": 6562,
      "tu": 6563,
      "##ray": 6564,
      "offering": 6565,
      "ignorance": 6566,
      "phen": 6567,
      "2011": 6568,
      "err": 6569,
      "municip": 6570,
      "##apt": 6571,
      "seeds": 6572,
      "abst": 6573,
      "worldly": 6574,
      "gop": 6575,
      "##mic": 6576,
      "clust": 6577,
      "client": 6578,
      "overall": 6579,
      "restrict": 6580,
      "ships": 6581,
      "cotton": 6582,
      "##othe": 6583,
      "diet": 6584,
      "customs": 6585,
      "firmly": 6586,
      "dedicated": 6587,
      "stretch": 6588,
      "entert": 6589,
      "profile": 6590,
      "urdu": 6591,
      "188": 6592,
      "##oval": 6593,
      "belonging": 6594,
      "regulations": 6595,
      "##inations": 6596,
      "##anth": 6597,
      "crime": 6598,
      "allows": 6599,
      "spoken": 6600,
      "preach": 6601,
      "remaining": 6602,
      "respite": 6603,
      "humanity": 6604,
      "pras": 6605,
      "personnel": 6606,
      "showing": 6607,
      "directed": 6608,
      "dw": 6609,
      "##anath": 6610,
      "enjoyment": 6611,
      "camel": 6612,
      "organised": 6613,
      "idols": 6614,
      "worshipped": 6615,
      "hat": 6616,
      "reader": 6617,
      "claims": 6618,
      "decre": 6619,
      "transpar": 6620,
      "rect": 6621,
      "conven": 6622,
      "swami": 6623,
      "holds": 6624,
      "accompl": 6625,
      "aband": 6626,
      "dawn": 6627,
      "drinking": 6628,
      "satisfied": 6629,
      "david": 6630,
      "acid": 6631,
      "wrath": 6632,
      "temporary": 6633,
      "convert": 6634,
      "##ura": 6635,
      "depends": 6636,
      "intended": 6637,
      "flight": 6638,
      "immense": 6639,
      "encomp": 6640,
      "figures": 6641,
      "professor": 6642,
      "tham": 6643,
      "##ola": 6644,
      "alive": 6645,
      "ben": 6646,
      "vishn": 6647,
      "toler": 6648,
      "driven": 6649,
      "roof": 6650,
      "promoting": 6651,
      "##holders": 6652,
      "irrigation": 6653,
      "##ris": 6654,
      "slight": 6655,
      "availability": 6656,
      "repeated": 6657,
      "pieces": 6658,
      "jawaharlal": 6659,
      "##uity": 6660,
      "##oz": 6661,
      "quantity": 6662,
      "comprehensive": 6663,
      "nadu": 6664,
      "##oe": 6665,
      "##ooth": 6666,
      "numerous": 6667,
      "impart": 6668,
      "illust": 6669,
      "submission": 6670,
      "violent": 6671,
      "describ": 6672,
      "grew": 6673,
      "##brahim": 6674,
      "panchay": 6675,
      "organisations": 6676,
      "felicitations": 6677,
      "##osure": 6678,
      "delib": 6679,
      "bangladesh": 6680,
      "desired": 6681,
      "island": 6682,
      "guidelines": 6683,
      "vessel": 6684,
      "gift": 6685,
      "club": 6686,
      "understood": 6687,
      "silk": 6688,
      "achievement": 6689,
      "writers": 6690,
      "wound": 6691,
      "##edd": 6692,
      "impossible": 6693,
      "##aly": 6694,
      "forests": 6695,
      "185": 6696,
      "reprod": 6697,
      "falls": 6698,
      "righteousness": 6699,
      "mov": 6700,
      "spite": 6701,
      "asking": 6702,
      "legs": 6703,
      "feature": 6704,
      "expans": 6705,
      "commerce": 6706,
      "motor": 6707,
      "steadfast": 6708,
      ",—": 6709,
      "ibrahim": 6710,
      "forty": 6711,
      "unfortun": 6712,
      "monitoring": 6713,
      "encompass": 6714,
      "interface": 6715,
      "equity": 6716,
      "demands": 6717,
      "appearance": 6718,
      "murder": 6719,
      "overcome": 6720,
      "offs": 6721,
      "defin": 6722,
      "considerable": 6723,
      "faithless": 6724,
      "##worthy": 6725,
      "atomic": 6726,
      "chain": 6727,
      "estimated": 6728,
      "07": 6729,
      "##earing": 6730,
      "scope": 6731,
      "transactions": 6732,
      "arrangement": 6733,
      "ritual": 6734,
      "upt": 6735,
      "specify": 6736,
      "enterprise": 6737,
      "tas": 6738,
      "##orter": 6739,
      "##irect": 6740,
      "bliss": 6741,
      "bush": 6742,
      "interested": 6743,
      "##ugg": 6744,
      "##icent": 6745,
      "salt": 6746,
      "terrorist": 6747,
      "ratio": 6748,
      "##asi": 6749,
      "##amation": 6750,
      "yours": 6751,
      "hyderabad": 6752,
      "##orr": 6753,
      "##alg": 6754,
      "##rem": 6755,
      "##ensity": 6756,
      "misch": 6757,
      "aught": 6758,
      "mirac": 6759,
      "ja": 6760,
      "haz": 6761,
      "warned": 6762,
      "rulers": 6763,
      "preferred": 6764,
      "sports": 6765,
      "kings": 6766,
      "##ches": 6767,
      "league": 6768,
      "employed": 6769,
      "haply": 6770,
      "partial": 6771,
      "offence": 6772,
      "applicable": 6773,
      "initiated": 6774,
      "gradually": 6775,
      "floor": 6776,
      "vain": 6777,
      "regarded": 6778,
      "width": 6779,
      "efficiency": 6780,
      "constitutional": 6781,
      "assuredly": 6782,
      "interpretation": 6783,
      "##abet": 6784,
      "admonition": 6785,
      "museum": 6786,
      "sang": 6787,
      "deaf": 6788,
      "definite": 6789,
      "thick": 6790,
      "##urally": 6791,
      "propag": 6792,
      "diplom": 6793,
      "fate": 6794,
      "##arya": 6795,
      "superior": 6796,
      "marks": 6797,
      "talking": 6798,
      "discharge": 6799,
      "enr": 6800,
      "acting": 6801,
      "300": 6802,
      "bold": 6803,
      "ease": 6804,
      "rose": 6805,
      "##osa": 6806,
      "contents": 6807,
      "##ificial": 6808,
      "masses": 6809,
      "austral": 6810,
      "34": 6811,
      "pul": 6812,
      "collected": 6813,
      "cried": 6814,
      "##lu": 6815,
      "quiet": 6816,
      "115": 6817,
      "pandit": 6818,
      "crisis": 6819,
      "##16": 6820,
      "suggested": 6821,
      "gradu": 6822,
      "##withstanding": 6823,
      "quarter": 6824,
      "noted": 6825,
      "meat": 6826,
      "ordin": 6827,
      "devices": 6828,
      "reasonable": 6829,
      "terminal": 6830,
      "sustainable": 6831,
      "couple": 6832,
      "##een": 6833,
      "notwithstanding": 6834,
      "facilitate": 6835,
      "##orous": 6836,
      "##agers": 6837,
      "roads": 6838,
      "mine": 6839,
      "injust": 6840,
      "improved": 6841,
      "touched": 6842,
      "##cession": 6843,
      "improving": 6844,
      "domin": 6845,
      "courses": 6846,
      "respective": 6847,
      "keyboard": 6848,
      "undertaken": 6849,
      "soldiers": 6850,
      "contemporary": 6851,
      "##appe": 6852,
      "honor": 6853,
      "deposits": 6854,
      "germany": 6855,
      "persian": 6856,
      "introduction": 6857,
      "bat": 6858,
      "unw": 6859,
      "enforce": 6860,
      "myth": 6861,
      "entrepreneur": 6862,
      "##ears": 6863,
      "component": 6864,
      "stages": 6865,
      "bacter": 6866,
      "tir": 6867,
      "##ota": 6868,
      "perse": 6869,
      "infection": 6870,
      "sales": 6871,
      "panel": 6872,
      "walls": 6873,
      "split": 6874,
      "##craft": 6875,
      "##inct": 6876,
      "anger": 6877,
      "condem": 6878,
      "ice": 6879,
      "kid": 6880,
      "”,": 6881,
      "forum": 6882,
      "##aman": 6883,
      "relatives": 6884,
      "sheet": 6885,
      "ego": 6886,
      "##rel": 6887,
      "neur": 6888,
      "##active": 6889,
      "strange": 6890,
      "creator": 6891,
      "beside": 6892,
      "consumption": 6893,
      "gentle": 6894,
      "##uch": 6895,
      "##uable": 6896,
      "herself": 6897,
      "innoc": 6898,
      "writings": 6899,
      "alternative": 6900,
      "row": 6901,
      "thread": 6902,
      "##plate": 6903,
      "##iliar": 6904,
      "degrees": 6905,
      "expansion": 6906,
      "##raction": 6907,
      "equals": 6908,
      "##inese": 6909,
      "castes": 6910,
      "representative": 6911,
      "1947": 6912,
      "comments": 6913,
      "##pring": 6914,
      "struck": 6915,
      "continues": 6916,
      "begins": 6917,
      "permitted": 6918,
      "##encing": 6919,
      "##ibly": 6920,
      "meetings": 6921,
      "buddha": 6922,
      "70": 6923,
      "kin": 6924,
      "auto": 6925,
      "geograph": 6926,
      "transmission": 6927,
      "wal": 6928,
      "wing": 6929,
      "multiply": 6930,
      "complaint": 6931,
      "elephant": 6932,
      "vishnu": 6933,
      "05": 6934,
      "fasc": 6935,
      "##pi": 6936,
      "beach": 6937,
      "##aming": 6938,
      "washing": 6939,
      "consolid": 6940,
      "filed": 6941,
      "?'": 6942,
      "ends": 6943,
      "rat": 6944,
      "saving": 6945,
      "creates": 6946,
      "contributions": 6947,
      "pig": 6948,
      "pair": 6949,
      "##mine": 6950,
      "acceptance": 6951,
      "millions": 6952,
      "acquisition": 6953,
      "occurred": 6954,
      "harvest": 6955,
      "injustice": 6956,
      "laksh": 6957,
      "##ribution": 6958,
      "ambed": 6959,
      "kap": 6960,
      "mant": 6961,
      "##jan": 6962,
      "conqu": 6963,
      "##rip": 6964,
      "acce": 6965,
      "paras": 6966,
      "legislation": 6967,
      "patri": 6968,
      "liars": 6969,
      "37": 6970,
      "era": 6971,
      "##20": 6972,
      "chh": 6973,
      "noise": 6974,
      "flesh": 6975,
      "glass": 6976,
      "ordered": 6977,
      "despair": 6978,
      ".%": 6979,
      "oneness": 6980,
      "sentence": 6981,
      "liability": 6982,
      "automatic": 6983,
      "ambedkar": 6984,
      "44": 6985,
      "sr": 6986,
      "##nal": 6987,
      "##norm": 6988,
      "stray": 6989,
      "divor": 6990,
      "addressed": 6991,
      "competition": 6992,
      "strategic": 6993,
      "luc": 6994,
      "##icing": 6995,
      "##urity": 6996,
      "regulation": 6997,
      "papers": 6998,
      "drawing": 6999,
      "railways": 7000,
      "imagine": 7001,
      "afghanistan": 7002,
      "elim": 7003,
      "##ba": 7004,
      "##bles": 7005,
      "boys": 7006,
      "48": 7007,
      "din": 7008,
      "tube": 7009,
      "breasts": 7010,
      "chinese": 7011,
      "affection": 7012,
      "fluid": 7013,
      "mm": 7014,
      "rav": 7015,
      "##ica": 7016,
      "##imony": 7017,
      "ungr": 7018,
      "invoke": 7019,
      "educated": 7020,
      "shaped": 7021,
      "##wan": 7022,
      "##ald": 7023,
      "lev": 7024,
      "##ading": 7025,
      "myst": 7026,
      "involve": 7027,
      "derived": 7028,
      "virtue": 7029,
      "guarantee": 7030,
      ".“": 7031,
      "productivity": 7032,
      "recognize": 7033,
      "uncle": 7034,
      "-,": 7035,
      "saint": 7036,
      "##14": 7037,
      "gross": 7038,
      "finds": 7039,
      "raja": 7040,
      "ties": 7041,
      "##itud": 7042,
      "##ads": 7043,
      "scr": 7044,
      "estate": 7045,
      "awa": 7046,
      "negoti": 7047,
      "architecture": 7048,
      "weapons": 7049,
      "upto": 7050,
      "tail": 7051,
      "##key": 7052,
      "##eries": 7053,
      "removal": 7054,
      "founded": 7055,
      "linked": 7056,
      "difficulties": 7057,
      "inev": 7058,
      "##jection": 7059,
      "##erable": 7060,
      "resort": 7061,
      "subjected": 7062,
      "radical": 7063,
      "suffered": 7064,
      "fifth": 7065,
      "faculty": 7066,
      "diverse": 7067,
      "il": 7068,
      "bridge": 7069,
      "lady": 7070,
      "mughal": 7071,
      "scen": 7072,
      "institutes": 7073,
      "increases": 7074,
      "geor": 7075,
      "kolk": 7076,
      "##lets": 7077,
      "chaitan": 7078,
      "##usal": 7079,
      "aggreg": 7080,
      "intention": 7081,
      "jobs": 7082,
      "determination": 7083,
      "inspiration": 7084,
      "venture": 7085,
      "koran": 7086,
      "pound": 7087,
      "visual": 7088,
      "instruction": 7089,
      "package": 7090,
      "node": 7091,
      "##pected": 7092,
      "humble": 7093,
      "approx": 7094,
      "##yas": 7095,
      "chat": 7096,
      "binoy": 7097,
      "phenom": 7098,
      "jer": 7099,
      "sake": 7100,
      "##alam": 7101,
      "pron": 7102,
      "invited": 7103,
      "directions": 7104,
      "harmony": 7105,
      "##while": 7106,
      "rig": 7107,
      "##ming": 7108,
      "commence": 7109,
      "exception": 7110,
      "societies": 7111,
      "distributed": 7112,
      "turkey": 7113,
      "theat": 7114,
      "adorn": 7115,
      "majesty": 7116,
      "illeg": 7117,
      "competent": 7118,
      "ignorant": 7119,
      "chaitanya": 7120,
      "enth": 7121,
      "worse": 7122,
      "##going": 7123,
      "abnorm": 7124,
      "assert": 7125,
      "vedic": 7126,
      "disputes": 7127,
      "inhabit": 7128,
      "alle": 7129,
      "accurate": 7130,
      "topics": 7131,
      "fulfill": 7132,
      "russia": 7133,
      "voluntary": 7134,
      "lin": 7135,
      "trium": 7136,
      "streams": 7137,
      "##atell": 7138,
      "slave": 7139,
      "exactly": 7140,
      "##rie": 7141,
      "##adh": 7142,
      "##pelled": 7143,
      "##ciation": 7144,
      "encoun": 7145,
      "celebrated": 7146,
      "photo": 7147,
      "diction": 7148,
      "ju": 7149,
      "##nan": 7150,
      "fever": 7151,
      "planned": 7152,
      "practical": 7153,
      "speeches": 7154,
      "oaths": 7155,
      "ok": 7156,
      "##asw": 7157,
      "scar": 7158,
      "2010": 7159,
      "advent": 7160,
      "slay": 7161,
      "slaves": 7162,
      "respectively": 7163,
      "revol": 7164,
      "investig": 7165,
      "contacts": 7166,
      "triumph": 7167,
      "knoweth": 7168,
      "dominion": 7169,
      "circu": 7170,
      "danger": 7171,
      "kam": 7172,
      "##gal": 7173,
      "finding": 7174,
      "displayed": 7175,
      "dwelling": 7176,
      "paralle": 7177,
      "sul": 7178,
      "usual": 7179,
      "needy": 7180,
      "sinners": 7181,
      "testing": 7182,
      "worthy": 7183,
      "bure": 7184,
      "dv": 7185,
      "”“": 7186,
      "##eal": 7187,
      "cancer": 7188,
      "starts": 7189,
      "specially": 7190,
      "encry": 7191,
      "buildings": 7192,
      "chrome": 7193,
      "madras": 7194,
      "components": 7195,
      "catch": 7196,
      "wages": 7197,
      "retribution": 7198,
      "prepare": 7199,
      "games": 7200,
      "fool": 7201,
      "##ught": 7202,
      "daniel": 7203,
      "offspring": 7204,
      "plaint": 7205,
      "disappe": 7206,
      "signal": 7207,
      "devoted": 7208,
      "occurs": 7209,
      "cycle": 7210,
      "yester": 7211,
      "##uv": 7212,
      "greatly": 7213,
      "killing": 7214,
      "perfection": 7215,
      "respondent": 7216,
      "03": 7217,
      "tok": 7218,
      "anc": 7219,
      "##aked": 7220,
      "worst": 7221,
      "scul": 7222,
      "advised": 7223,
      "facing": 7224,
      "ring": 7225,
      "##12": 7226,
      "##oked": 7227,
      "familiar": 7228,
      "narr": 7229,
      "stopped": 7230,
      "disgrace": 7231,
      "##sl": 7232,
      "sheep": 7233,
      "pointed": 7234,
      "commands": 7235,
      "symptoms": 7236,
      "lah": 7237,
      "mothers": 7238,
      "##oring": 7239,
      "residence": 7240,
      "carbon": 7241,
      "declaration": 7242,
      "dish": 7243,
      "eating": 7244,
      "sixt": 7245,
      "##wers": 7246,
      "react": 7247,
      "complic": 7248,
      "recru": 7249,
      "parent": 7250,
      "raising": 7251,
      "lesson": 7252,
      "discussions": 7253,
      "emergency": 7254,
      "configure": 7255,
      "queen": 7256,
      "##uddin": 7257,
      "hab": 7258,
      "emper": 7259,
      ").\"": 7260,
      "realize": 7261,
      "lessons": 7262,
      "forwarded": 7263,
      "ungrateful": 7264,
      "06": 7265,
      "cord": 7266,
      "lod": 7267,
      "##yr": 7268,
      "prak": 7269,
      "enact": 7270,
      "receiving": 7271,
      "contribute": 7272,
      "recognized": 7273,
      "arrangements": 7274,
      "remarkable": 7275,
      "cas": 7276,
      "jay": 7277,
      "##rd": 7278,
      "##gent": 7279,
      "##oli": 7280,
      "unaw": 7281,
      "satisfaction": 7282,
      "vehicle": 7283,
      "plate": 7284,
      "rightly": 7285,
      "1998": 7286,
      "mouse": 7287,
      "pin": 7288,
      "trained": 7289,
      "identify": 7290,
      "##ommod": 7291,
      "micros": 7292,
      "traffic": 7293,
      "tremend": 7294,
      "vib": 7295,
      "##yl": 7296,
      "infer": 7297,
      "ordained": 7298,
      "browser": 7299,
      "kolkata": 7300,
      "shame": 7301,
      "##acing": 7302,
      "monothe": 7303,
      "solutions": 7304,
      "inflamm": 7305,
      "arrogant": 7306,
      "cooperative": 7307,
      "ol": 7308,
      "##aran": 7309,
      "loves": 7310,
      "shell": 7311,
      "nin": 7312,
      "##abha": 7313,
      "champ": 7314,
      "females": 7315,
      "bitter": 7316,
      "##off": 7317,
      "lege": 7318,
      "clar": 7319,
      "##iously": 7320,
      "corner": 7321,
      "widely": 7322,
      "feeding": 7323,
      "producing": 7324,
      "bureau": 7325,
      "sculpt": 7326,
      "##orters": 7327,
      "grat": 7328,
      "accommod": 7329,
      "diam": 7330,
      "civilization": 7331,
      "weakness": 7332,
      "algor": 7333,
      "ber": 7334,
      "##irs": 7335,
      "allot": 7336,
      "##osy": 7337,
      "disable": 7338,
      "stress": 7339,
      "opposite": 7340,
      "stored": 7341,
      "consequences": 7342,
      "forced": 7343,
      "##olic": 7344,
      "alike": 7345,
      "backward": 7346,
      "adopt": 7347,
      "mechanism": 7348,
      "ward": 7349,
      "advert": 7350,
      "conservation": 7351,
      "insist": 7352,
      "extract": 7353,
      "preparation": 7354,
      "discussed": 7355,
      "##ban": 7356,
      "investors": 7357,
      "testimony": 7358,
      "mix": 7359,
      "##ona": 7360,
      "purity": 7361,
      "petro": 7362,
      "territories": 7363,
      "distinction": 7364,
      "pilgrimage": 7365,
      "bats": 7366,
      "dread": 7367,
      "duration": 7368,
      "fash": 7369,
      "asian": 7370,
      "goals": 7371,
      "compuls": 7372,
      "scene": 7373,
      "realise": 7374,
      "deriv": 7375,
      "emphasis": 7376,
      "ow": 7377,
      "tank": 7378,
      "wings": 7379,
      "##rat": 7380,
      "##omon": 7381,
      "##idences": 7382,
      "strict": 7383,
      "strengthening": 7384,
      "gos": 7385,
      "gree": 7386,
      "##sa": 7387,
      "##irt": 7388,
      "anx": 7389,
      "qualities": 7390,
      "chargeable": 7391,
      "injury": 7392,
      "controlled": 7393,
      "yesterday": 7394,
      "tun": 7395,
      "vary": 7396,
      "##ananda": 7397,
      "beat": 7398,
      "reaction": 7399,
      "trip": 7400,
      "resc": 7401,
      "##gression": 7402,
      "gupta": 7403,
      "carefully": 7404,
      "recommendations": 7405,
      "rand": 7406,
      "arising": 7407,
      "##endra": 7408,
      "pleases": 7409,
      "yus": 7410,
      "frag": 7411,
      "tro": 7412,
      "secular": 7413,
      "salary": 7414,
      "settle": 7415,
      "declare": 7416,
      "pictures": 7417,
      "##ulations": 7418,
      "roll": 7419,
      "restore": 7420,
      "investments": 7421,
      "ceremony": 7422,
      "tasks": 7423,
      "unp": 7424,
      "fearing": 7425,
      "##upon": 7426,
      "poetic": 7427,
      "naturally": 7428,
      "sharing": 7429,
      "##iciary": 7430,
      "jh": 7431,
      "##pers": 7432,
      "poison": 7433,
      "accum": 7434,
      "mit": 7435,
      "passeng": 7436,
      "grievous": 7437,
      "fertiliz": 7438,
      "municipal": 7439,
      "aer": 7440,
      "rag": 7441,
      "prol": 7442,
      "chur": 7443,
      "align": 7444,
      "owned": 7445,
      "smooth": 7446,
      "companion": 7447,
      "tourist": 7448,
      "beneficent": 7449,
      "prasad": 7450,
      "mud": 7451,
      "##iest": 7452,
      "grants": 7453,
      "prominent": 7454,
      "angel": 7455,
      "debate": 7456,
      "printed": 7457,
      "dil": 7458,
      "rhy": 7459,
      "##fl": 7460,
      "##ajp": 7461,
      "innovative": 7462,
      "mischief": 7463,
      "yusuf": 7464,
      "pac": 7465,
      "##here": 7466,
      "alter": 7467,
      "alph": 7468,
      "swift": 7469,
      "circle": 7470,
      "progressive": 7471,
      "incorpor": 7472,
      "sik": 7473,
      "satell": 7474,
      "##yal": 7475,
      "indirect": 7476,
      "technological": 7477,
      "186": 7478,
      "employer": 7479,
      "sita": 7480,
      "keys": 7481,
      "categories": 7482,
      "binding": 7483,
      "##edia": 7484,
      "shift": 7485,
      "minute": 7486,
      "equival": 7487,
      "causing": 7488,
      "effectively": 7489,
      "uk": 7490,
      "older": 7491,
      "ruler": 7492,
      "traditions": 7493,
      "midst": 7494,
      "##box": 7495,
      "claimed": 7496,
      "significance": 7497,
      "madhya": 7498,
      "discipline": 7499,
      "craft": 7500,
      "##ney": 7501,
      "grief": 7502,
      "discrim": 7503,
      "##gery": 7504,
      "viz": 7505,
      "##lied": 7506,
      "##eters": 7507,
      "##aved": 7508,
      "elev": 7509,
      "britain": 7510,
      "hosts": 7511,
      "york": 7512,
      "rever": 7513,
      "imposed": 7514,
      "printing": 7515,
      "diversity": 7516,
      "parallel": 7517,
      "vote": 7518,
      "##care": 7519,
      "shut": 7520,
      "##ivals": 7521,
      "##orders": 7522,
      "bonds": 7523,
      "secre": 7524,
      "invent": 7525,
      "careful": 7526,
      "anth": 7527,
      "seeks": 7528,
      "highlight": 7529,
      "ended": 7530,
      "contrary": 7531,
      "##azing": 7532,
      "sharp": 7533,
      "pledge": 7534,
      "##icted": 7535,
      "uniform": 7536,
      "teeth": 7537,
      "vegetables": 7538,
      "dynamic": 7539,
      "gal": 7540,
      "wholly": 7541,
      "summer": 7542,
      "essentially": 7543,
      "attachment": 7544,
      "##bur": 7545,
      "bears": 7546,
      "usage": 7547,
      "defect": 7548,
      "1956": 7549,
      "##lasting": 7550,
      "france": 7551,
      "repay": 7552,
      "busy": 7553,
      "subscribe": 7554,
      "awarded": 7555,
      "ultimate": 7556,
      "criticism": 7557,
      "indigen": 7558,
      "##rence": 7559,
      "##oor": 7560,
      "##onom": 7561,
      "##uting": 7562,
      "everlasting": 7563,
      "##anka": 7564,
      "urge": 7565,
      "##tic": 7566,
      "##gi": 7567,
      "overse": 7568,
      "finished": 7569,
      "prompt": 7570,
      "bearing": 7571,
      "encouraged": 7572,
      "65": 7573,
      "##can": 7574,
      "##igar": 7575,
      "##aking": 7576,
      "##roll": 7577,
      "cease": 7578,
      "flowing": 7579,
      "ahmed": 7580,
      "transformation": 7581,
      "jac": 7582,
      "##cles": 7583,
      "##rupt": 7584,
      "blank": 7585,
      "representatives": 7586,
      "##garh": 7587,
      "unlike": 7588,
      "closer": 7589,
      "42": 7590,
      "taj": 7591,
      "directors": 7592,
      "circular": 7593,
      "determine": 7594,
      "brahman": 7595,
      "jun": 7596,
      "##ima": 7597,
      "boat": 7598,
      "inspect": 7599,
      "solve": 7600,
      "socio": 7601,
      "mandapa": 7602,
      "tremendous": 7603,
      "fashion": 7604,
      "nir": 7605,
      "##hand": 7606,
      "isa": 7607,
      "pret": 7608,
      "##book": 7609,
      "analy": 7610,
      "newspaper": 7611,
      "rough": 7612,
      "studied": 7613,
      "monotheism": 7614,
      "##mn": 7615,
      "deities": 7616,
      "seats": 7617,
      "decor": 7618,
      "invite": 7619,
      "faced": 7620,
      "accompanied": 7621,
      "incurred": 7622,
      "thamud": 7623,
      "##utation": 7624,
      "##oding": 7625,
      "intense": 7626,
      "quit": 7627,
      "decade": 7628,
      "gora": 7629,
      "via": 7630,
      "##ched": 7631,
      "gram": 7632,
      "interm": 7633,
      "crores": 7634,
      "##iversary": 7635,
      "attacks": 7636,
      "##essions": 7637,
      "##ighty": 7638,
      "loose": 7639,
      "template": 7640,
      "consequence": 7641,
      "license": 7642,
      "sisters": 7643,
      "04": 7644,
      "shiva": 7645,
      "wash": 7646,
      "##anges": 7647,
      "passion": 7648,
      "feelings": 7649,
      "announce": 7650,
      "cultivation": 7651,
      "kg": 7652,
      "##arita": 7653,
      "##usi": 7654,
      "enlight": 7655,
      "coin": 7656,
      "covers": 7657,
      "valuable": 7658,
      "resign": 7659,
      "broke": 7660,
      "completion": 7661,
      "achievements": 7662,
      "##wr": 7663,
      "wherefore": 7664,
      "libert": 7665,
      "dealt": 7666,
      "maharaja": 7667,
      "emperor": 7668,
      "por": 7669,
      "vidy": 7670,
      "##house": 7671,
      "possessed": 7672,
      "jain": 7673,
      "##rum": 7674,
      "consp": 7675,
      "decreed": 7676,
      "drowned": 7677,
      "roots": 7678,
      "constantly": 7679,
      "permit": 7680,
      "telling": 7681,
      "route": 7682,
      "ba": 7683,
      "##mer": 7684,
      "##araj": 7685,
      "factory": 7686,
      "periods": 7687,
      "largely": 7688,
      "participate": 7689,
      "installation": 7690,
      "percentage": 7691,
      "conversion": 7692,
      "bharati": 7693,
      "caught": 7694,
      "rh": 7695,
      "##rm": 7696,
      "hem": 7697,
      "peak": 7698,
      "##cont": 7699,
      "artificial": 7700,
      "favours": 7701,
      "combination": 7702,
      "##roph": 7703,
      "alleg": 7704,
      "##lude": 7705,
      "realised": 7706,
      "calam": 7707,
      "torah": 7708,
      "consumers": 7709,
      "winter": 7710,
      "diagn": 7711,
      "crowd": 7712,
      "bid": 7713,
      "eminent": 7714,
      "##sha": 7715,
      "presentation": 7716,
      "solomon": 7717,
      "experiment": 7718,
      "##akrish": 7719,
      "chenn": 7720,
      "monthly": 7721,
      "mailing": 7722,
      "clothes": 7723,
      "aar": 7724,
      "hang": 7725,
      "ri": 7726,
      "##ua": 7727,
      "##ilal": 7728,
      "enl": 7729,
      "incent": 7730,
      "label": 7731,
      "ranks": 7732,
      "defeat": 7733,
      "cp": 7734,
      "ment": 7735,
      "##lo": 7736,
      "stake": 7737,
      "##uman": 7738,
      "winds": 7739,
      "ramayana": 7740,
      "reaching": 7741,
      "descendants": 7742,
      "wheat": 7743,
      "pag": 7744,
      "##rent": 7745,
      "putting": 7746,
      "metal": 7747,
      "islamist": 7748,
      "computers": 7749,
      "totally": 7750,
      "oriented": 7751,
      "mathemat": 7752,
      "dies": 7753,
      "gd": 7754,
      "jack": 7755,
      "tv": 7756,
      "bug": 7757,
      "repair": 7758,
      "commonly": 7759,
      "almighty": 7760,
      "dreams": 7761,
      "entrusted": 7762,
      "gun": 7763,
      "##urved": 7764,
      "##etary": 7765,
      "stim": 7766,
      "exem": 7767,
      "fears": 7768,
      "handic": 7769,
      "conclusion": 7770,
      "entertain": 7771,
      "nagar": 7772,
      "##onal": 7773,
      "##ulating": 7774,
      "belied": 7775,
      "lasting": 7776,
      "questioned": 7777,
      "slowly": 7778,
      "''": 7779,
      "delic": 7780,
      "aircraft": 7781,
      "liveli": 7782,
      "learnt": 7783,
      "treaty": 7784,
      "arabs": 7785,
      "vim": 7786,
      "couldn": 7787,
      "arranged": 7788,
      "restr": 7789,
      "150": 7790,
      "recommended": 7791,
      "nabard": 7792,
      "kur": 7793,
      "##aken": 7794,
      "himachal": 7795,
      "managed": 7796,
      "supposed": 7797,
      "1990": 7798,
      "representation": 7799,
      "execution": 7800,
      "unex": 7801,
      "disse": 7802,
      "sites": 7803,
      "dispos": 7804,
      "livelihood": 7805,
      "cs": 7806,
      "wilt": 7807,
      "##iable": 7808,
      "##utory": 7809,
      "sund": 7810,
      "arts": 7811,
      "perpet": 7812,
      "clim": 7813,
      "programs": 7814,
      "transgressors": 7815,
      "subsequent": 7816,
      "structures": 7817,
      "55": 7818,
      "pup": 7819,
      "##pection": 7820,
      "peas": 7821,
      "##achi": 7822,
      "ending": 7823,
      "immun": 7824,
      "hyper": 7825,
      "pronoun": 7826,
      "infid": 7827,
      "paying": 7828,
      "magistr": 7829,
      "##iques": 7830,
      "dyn": 7831,
      "flex": 7832,
      "ltd": 7833,
      "theatre": 7834,
      "##pent": 7835,
      "describe": 7836,
      "reduction": 7837,
      "hatred": 7838,
      "clock": 7839,
      "ruling": 7840,
      "1992": 7841,
      "contrast": 7842,
      "commencement": 7843,
      "dict": 7844,
      "##wal": 7845,
      "tooth": 7846,
      "stuff": 7847,
      "seat": 7848,
      "semin": 7849,
      "tract": 7850,
      "literacy": 7851,
      "falling": 7852,
      "institutional": 7853,
      "electronics": 7854,
      "chose": 7855,
      "somebody": 7856,
      "technique": 7857,
      "cheque": 7858,
      "requirement": 7859,
      "emerging": 7860,
      "attended": 7861,
      "constructed": 7862,
      "vaishn": 7863,
      "##organ": 7864,
      "oral": 7865,
      "##pless": 7866,
      "consent": 7867,
      "humans": 7868,
      "anniversary": 7869,
      "novels": 7870,
      "attribute": 7871,
      "dismiss": 7872,
      "definition": 7873,
      "bare": 7874,
      "wire": 7875,
      "##kk": 7876,
      "thunder": 7877,
      "##leum": 7878,
      "presents": 7879,
      "flour": 7880,
      "genu": 7881,
      "opposed": 7882,
      "illness": 7883,
      "hinduism": 7884,
      "scriptures": 7885,
      "missing": 7886,
      "ud": 7887,
      "rein": 7888,
      "wished": 7889,
      "##iculture": 7890,
      "inhabitants": 7891,
      "sixty": 7892,
      "nurs": 7893,
      "ul": 7894,
      "wik": 7895,
      "isol": 7896,
      "requested": 7897,
      "sixth": 7898,
      "fifteen": 7899,
      "##ij": 7900,
      "##ml": 7901,
      "shiv": 7902,
      "##ema": 7903,
      "disapp": 7904,
      "dress": 7905,
      "ensuring": 7906,
      "liable": 7907,
      "walking": 7908,
      "revolutionary": 7909,
      "finger": 7910,
      "unaware": 7911,
      "##hari": 7912,
      "##xx": 7913,
      "stations": 7914,
      "pear": 7915,
      "evidences": 7916,
      "bestow": 7917,
      "closely": 7918,
      "privilege": 7919,
      "##zy": 7920,
      "##ares": 7921,
      "nobody": 7922,
      "taxes": 7923,
      "arrested": 7924,
      "187": 7925,
      "resulting": 7926,
      "encl": 7927,
      "##13": 7928,
      "##za": 7929,
      "bhut": 7930,
      "colors": 7931,
      "happening": 7932,
      "conferred": 7933,
      "inclusive": 7934,
      "axis": 7935,
      "nu": 7936,
      "rah": 7937,
      "##pad": 7938,
      "deals": 7939,
      "cher": 7940,
      "compound": 7941,
      "ignore": 7942,
      "broadcast": 7943,
      "til": 7944,
      "##di": 7945,
      "proc": 7946,
      "worker": 7947,
      "##works": 7948,
      "grave": 7949,
      "observ": 7950,
      "##ipping": 7951,
      "sensitive": 7952,
      "hunger": 7953,
      "hung": 7954,
      "ling": 7955,
      "pairs": 7956,
      "shout": 7957,
      "selling": 7958,
      "statements": 7959,
      "smart": 7960,
      "paint": 7961,
      "represented": 7962,
      "shrine": 7963,
      "pertaining": 7964,
      "gita": 7965,
      "wave": 7966,
      "disl": 7967,
      "sovereignty": 7968,
      "combined": 7969,
      "discovered": 7970,
      "dignity": 7971,
      "pit": 7972,
      "zak": 7973,
      "##rid": 7974,
      "##oram": 7975,
      "##umes": 7976,
      "mohan": 7977,
      "muscle": 7978,
      "produces": 7979,
      "succeeded": 7980,
      "enthusi": 7981,
      "gif": 7982,
      "##bted": 7983,
      "##ayas": 7984,
      "whoso": 7985,
      "lawy": 7986,
      "envis": 7987,
      "ministries": 7988,
      "badr": 7989,
      "eventually": 7990,
      "procedures": 7991,
      "consisting": 7992,
      "aaron": 7993,
      "han": 7994,
      "manual": 7995,
      "possibility": 7996,
      "keeps": 7997,
      "contributed": 7998,
      "dependent": 7999,
      "dynast": 8000,
      "siva": 8001,
      "thrown": 8002,
      "passage": 8003,
      "arrest": 8004,
      "keen": 8005,
      "##bre": 8006,
      "tex": 8007,
      "marathi": 8008,
      "helping": 8009,
      "mistake": 8010,
      "cin": 8011,
      "##ensus": 8012,
      "amounts": 8013,
      "decline": 8014,
      "forbid": 8015,
      "manufacture": 8016,
      "ultimately": 8017,
      "##nic": 8018,
      "##power": 8019,
      "##oking": 8020,
      "##licted": 8021,
      "retire": 8022,
      "avo": 8023,
      "devil": 8024,
      "artist": 8025,
      "socialist": 8026,
      "nearer": 8027,
      "aspir": 8028,
      "bread": 8029,
      "orth": 8030,
      "authorised": 8031,
      "##...": 8032,
      "ruin": 8033,
      "1948": 8034,
      "converted": 8035,
      "vertical": 8036,
      "elder": 8037,
      "acceler": 8038,
      "nit": 8039,
      "nerve": 8040,
      "##bl": 8041,
      "unm": 8042,
      "brown": 8043,
      "perish": 8044,
      "regularly": 8045,
      "horizont": 8046,
      "38": 8047,
      "maid": 8048,
      "##hat": 8049,
      "onto": 8050,
      "##inder": 8051,
      "believer": 8052,
      "calf": 8053,
      "strengthened": 8054,
      "layout": 8055,
      "ish": 8056,
      "sciences": 8057,
      "associates": 8058,
      "prospect": 8059,
      "channels": 8060,
      "bench": 8061,
      "fan": 8062,
      "lingu": 8063,
      "nas": 8064,
      "##mans": 8065,
      "prize": 8066,
      "##ste": 8067,
      "basava": 8068,
      "operational": 8069,
      "resolve": 8070,
      "driver": 8071,
      "jacob": 8072,
      "##gets": 8073,
      "##inter": 8074,
      "spons": 8075,
      "modified": 8076,
      "exceeding": 8077,
      "responsibilities": 8078,
      "fallen": 8079,
      "concerns": 8080,
      "enjoyed": 8081,
      "hundreds": 8082,
      "furnish": 8083,
      "dangerous": 8084,
      "emotional": 8085,
      "indigenous": 8086,
      "##ushing": 8087,
      "##000": 8088,
      "entity": 8089,
      "swall": 8090,
      "(*": 8091,
      "nath": 8092,
      "organisms": 8093,
      "appeals": 8094,
      "vij": 8095,
      "experiences": 8096,
      "maintaining": 8097,
      "provinces": 8098,
      "##jud": 8099,
      "##oty": 8100,
      "##etime": 8101,
      "preview": 8102,
      "vouch": 8103,
      "##ulter": 8104,
      "everywhere": 8105,
      "childhood": 8106,
      "payments": 8107,
      "returning": 8108,
      "##ullah": 8109,
      "constituent": 8110,
      "fou": 8111,
      "hari": 8112,
      "vul": 8113,
      "##bled": 8114,
      "indo": 8115,
      "readers": 8116,
      "patients": 8117,
      "translated": 8118,
      "##chandra": 8119,
      "shelter": 8120,
      "enrich": 8121,
      "aj": 8122,
      "##ayee": 8123,
      "##ference": 8124,
      "sple": 8125,
      "criter": 8126,
      "prevention": 8127,
      "aimed": 8128,
      "hydr": 8129,
      "ji": 8130,
      "threw": 8131,
      "disorder": 8132,
      "mahabharata": 8133,
      "george": 8134,
      "overseas": 8135,
      "thin": 8136,
      "##cket": 8137,
      "mahal": 8138,
      "1950": 8139,
      "chamber": 8140,
      "plaintiff": 8141,
      "##oes": 8142,
      "thro": 8143,
      "meal": 8144,
      "moh": 8145,
      "guess": 8146,
      "parag": 8147,
      "hotel": 8148,
      "commodities": 8149,
      "##pa": 8150,
      "login": 8151,
      "developments": 8152,
      "constitute": 8153,
      "kav": 8154,
      "pest": 8155,
      "##jun": 8156,
      "##lin": 8157,
      "##isible": 8158,
      "iso": 8159,
      "##illa": 8160,
      "succ": 8161,
      "afterwards": 8162,
      "carries": 8163,
      "punjabi": 8164,
      "arguments": 8165,
      "cancel": 8166,
      "apparent": 8167,
      "outlook": 8168,
      "equivalent": 8169,
      "obama": 8170,
      "persu": 8171,
      "involves": 8172,
      "wheel": 8173,
      "ict": 8174,
      "arise": 8175,
      "pool": 8176,
      "fees": 8177,
      "organic": 8178,
      "classical": 8179,
      "deceased": 8180,
      "shadow": 8181,
      "hes": 8182,
      "kann": 8183,
      "##iri": 8184,
      "ascribe": 8185,
      "preserve": 8186,
      "supplement": 8187,
      "sinful": 8188,
      "proposals": 8189,
      "39": 8190,
      "cum": 8191,
      "gained": 8192,
      "oxy": 8193,
      "charm": 8194,
      "adding": 8195,
      "refuse": 8196,
      "confined": 8197,
      "techniques": 8198,
      "virtual": 8199,
      "collective": 8200,
      "synth": 8201,
      "##itudes": 8202,
      "ancest": 8203,
      "':": 8204,
      "horn": 8205,
      "##mph": 8206,
      "seize": 8207,
      "##ensed": 8208,
      "##ildo": 8209,
      "peaceful": 8210,
      "positions": 8211,
      "pillars": 8212,
      "cav": 8213,
      "lanka": 8214,
      "vas": 8215,
      "twain": 8216,
      "bhak": 8217,
      "ideals": 8218,
      "television": 8219,
      "embra": 8220,
      "springs": 8221,
      "celebrations": 8222,
      "##ixture": 8223,
      "amalg": 8224,
      "brand": 8225,
      "devote": 8226,
      "trend": 8227,
      "financing": 8228,
      "rapidly": 8229,
      "doth": 8230,
      "##adur": 8231,
      "module": 8232,
      "tells": 8233,
      "innocent": 8234,
      "stom": 8235,
      "storm": 8236,
      "worry": 8237,
      "refr": 8238,
      "reaches": 8239,
      "transportation": 8240,
      "enhanced": 8241,
      "cad": 8242,
      "rational": 8243,
      "##coming": 8244,
      "##ients": 8245,
      "proxy": 8246,
      "offline": 8247,
      "administer": 8248,
      "integration": 8249,
      "silent": 8250,
      "premises": 8251,
      "imagination": 8252,
      "precise": 8253,
      "savings": 8254,
      "shif": 8255,
      "weigh": 8256,
      "organism": 8257,
      "hardware": 8258,
      "congratulate": 8259,
      "algorithm": 8260,
      "jam": 8261,
      "##nda": 8262,
      "##step": 8263,
      "notified": 8264,
      "disaster": 8265,
      "adapt": 8266,
      "evildo": 8267,
      "entering": 8268,
      "simult": 8269,
      "depending": 8270,
      "emerged": 8271,
      "govt": 8272,
      "newspapers": 8273,
      "chromos": 8274,
      "kol": 8275,
      "luck": 8276,
      "vajp": 8277,
      "##iary": 8278,
      "##lord": 8279,
      "##inating": 8280,
      "generated": 8281,
      "considering": 8282,
      "protected": 8283,
      "rendered": 8284,
      "entrepreneurs": 8285,
      "obviously": 8286,
      "inflammation": 8287,
      "nose": 8288,
      "##esth": 8289,
      "stronger": 8290,
      "folders": 8291,
      "farming": 8292,
      "obligation": 8293,
      "collaboration": 8294,
      "organs": 8295,
      "vajpayee": 8296,
      "lust": 8297,
      "intu": 8298,
      "serving": 8299,
      "characteristic": 8300,
      "influenced": 8301,
      "vacc": 8302,
      "inaugur": 8303,
      "piety": 8304,
      "resistance": 8305,
      "##orted": 8306,
      "healthcare": 8307,
      "bio": 8308,
      "implementing": 8309,
      "jinns": 8310,
      "federal": 8311,
      "cursed": 8312,
      "sequence": 8313,
      "##bing": 8314,
      "stability": 8315,
      "sovi": 8316,
      "everybody": 8317,
      "attained": 8318,
      "##gged": 8319,
      "supporting": 8320,
      "investigation": 8321,
      "victor": 8322,
      "primarily": 8323,
      "consultation": 8324,
      "illegal": 8325,
      "43": 8326,
      "shade": 8327,
      "gramm": 8328,
      "##perm": 8329,
      "drum": 8330,
      "listed": 8331,
      "audience": 8332,
      "patron": 8333,
      "sanctuary": 8334,
      "simultaneous": 8335,
      "##atar": 8336,
      "##estig": 8337,
      "##rian": 8338,
      "loyal": 8339,
      "##onym": 8340,
      "honoured": 8341,
      "virtuous": 8342,
      "sant": 8343,
      "##ician": 8344,
      "amid": 8345,
      "moreover": 8346,
      "flash": 8347,
      "invented": 8348,
      "distant": 8349,
      "membr": 8350,
      "insol": 8351,
      "references": 8352,
      "biggest": 8353,
      "breaking": 8354,
      "jewish": 8355,
      "blessing": 8356,
      "frequently": 8357,
      "nod": 8358,
      "##chant": 8359,
      "models": 8360,
      "imported": 8361,
      "exposed": 8362,
      "impression": 8363,
      "elabor": 8364,
      "maur": 8365,
      "thorough": 8366,
      "circuit": 8367,
      "mould": 8368,
      "pump": 8369,
      "sessions": 8370,
      "whis": 8371,
      "##ilitation": 8372,
      "saudi": 8373,
      "spin": 8374,
      "interaction": 8375,
      "condol": 8376,
      "denom": 8377,
      "drag": 8378,
      "##what": 8379,
      "competitive": 8380,
      "thankful": 8381,
      "perceive": 8382,
      "unre": 8383,
      "nearest": 8384,
      "answers": 8385,
      "statutory": 8386,
      "subsid": 8387,
      "proceeding": 8388,
      "calculated": 8389,
      "genuine": 8390,
      "native": 8391,
      "nerv": 8392,
      "##wood": 8393,
      "##ching": 8394,
      "##aph": 8395,
      "subh": 8396,
      "##ertain": 8397,
      "exclusive": 8398,
      "abnormal": 8399,
      "##cr": 8400,
      "outs": 8401,
      "immort": 8402,
      "magaz": 8403,
      "innovations": 8404,
      "honourable": 8405,
      "buddhist": 8406,
      "convinced": 8407,
      "petroleum": 8408,
      "pix": 8409,
      "vid": 8410,
      "anand": 8411,
      "alb": 8412,
      "##ques": 8413,
      "malay": 8414,
      "ayurved": 8415,
      "64": 8416,
      "lam": 8417,
      "pd": 8418,
      "sank": 8419,
      "pr0": 8420,
      "seal": 8421,
      "brill": 8422,
      "outcome": 8423,
      "spell": 8424,
      "disturb": 8425,
      "1996": 8426,
      "farmer": 8427,
      "epic": 8428,
      "historic": 8429,
      "scan": 8430,
      "prevented": 8431,
      "dictionary": 8432,
      "derivative": 8433,
      "operate": 8434,
      "##ugu": 8435,
      "cheap": 8436,
      "##from": 8437,
      "geographical": 8438,
      "cater": 8439,
      "gt": 8440,
      "lung": 8441,
      "ox": 8442,
      "##etan": 8443,
      "resem": 8444,
      "involving": 8445,
      "indicate": 8446,
      "excessive": 8447,
      "kilomet": 8448,
      "tall": 8449,
      "beast": 8450,
      "sucharita": 8451,
      "depre": 8452,
      "penet": 8453,
      "bigger": 8454,
      "separated": 8455,
      "##ipped": 8456,
      "appellant": 8457,
      "##ulous": 8458,
      "remed": 8459,
      "miles": 8460,
      "performing": 8461,
      "integrity": 8462,
      "varieties": 8463,
      "extraord": 8464,
      "scholarship": 8465,
      "random": 8466,
      "vot": 8467,
      "asc": 8468,
      "enables": 8469,
      "generate": 8470,
      "helpers": 8471,
      "milit": 8472,
      "snake": 8473,
      "attractive": 8474,
      "deliber": 8475,
      "batter": 8476,
      "pitch": 8477,
      "enorm": 8478,
      "afores": 8479,
      "##room": 8480,
      "genus": 8481,
      "lakhs": 8482,
      "glorious": 8483,
      "japanese": 8484,
      "aforesaid": 8485,
      "gates": 8486,
      "##cope": 8487,
      "##ingly": 8488,
      "disag": 8489,
      "##ounded": 8490,
      "programming": 8491,
      "orphans": 8492,
      "batsman": 8493,
      "bef": 8494,
      "pr2": 8495,
      "chal": 8496,
      "##angle": 8497,
      "boiling": 8498,
      "wherewith": 8499,
      "signature": 8500,
      "suppress": 8501,
      "handle": 8502,
      "addresses": 8503,
      "chiefs": 8504,
      "bangal": 8505,
      "appellate": 8506,
      "hort": 8507,
      "tiger": 8508,
      "##rase": 8509,
      "##erals": 8510,
      "shock": 8511,
      "doors": 8512,
      "##agrah": 8513,
      "##ogether": 8514,
      "##ogram": 8515,
      "kindness": 8516,
      "impress": 8517,
      "1991": 8518,
      "radiation": 8519,
      "gazette": 8520,
      "electrical": 8521,
      "troops": 8522,
      "hire": 8523,
      "jih": 8524,
      "therewith": 8525,
      "mole": 8526,
      "subord": 8527,
      "untouch": 8528,
      "witnessed": 8529,
      "achieving": 8530,
      "altogether": 8531,
      "australia": 8532,
      "##iar": 8533,
      "##alal": 8534,
      "alc": 8535,
      "intest": 8536,
      "newly": 8537,
      "regret": 8538,
      "pharm": 8539,
      "inspection": 8540,
      "calm": 8541,
      "grounds": 8542,
      "cutting": 8543,
      "sacrific": 8544,
      "glorify": 8545,
      "arbitr": 8546,
      "bam": 8547,
      "rely": 8548,
      "##pping": 8549,
      "relie": 8550,
      "imports": 8551,
      "agreements": 8552,
      "surrounded": 8553,
      "47": 8554,
      "acted": 8555,
      "punished": 8556,
      "expiry": 8557,
      "silence": 8558,
      "residential": 8559,
      "colonial": 8560,
      "pardon": 8561,
      "push": 8562,
      "rbi": 8563,
      "vag": 8564,
      "fright": 8565,
      "lease": 8566,
      "##okes": 8567,
      "accounting": 8568,
      "spreading": 8569,
      "scattered": 8570,
      "phenomen": 8571,
      "46": 8572,
      "##itative": 8573,
      "##ida": 8574,
      "extensive": 8575,
      "fairly": 8576,
      "watching": 8577,
      "safegu": 8578,
      "##oves": 8579,
      "grade": 8580,
      "regime": 8581,
      "addressing": 8582,
      "identification": 8583,
      "dwellers": 8584,
      "suspend": 8585,
      "maturity": 8586,
      "forgotten": 8587,
      "##zing": 8588,
      "##orial": 8589,
      "youn": 8590,
      "##urer": 8591,
      "adverse": 8592,
      "ard": 8593,
      "##shi": 8594,
      "barrier": 8595,
      "statistics": 8596,
      "repeat": 8597,
      "##marks": 8598,
      "washington": 8599,
      "soviet": 8600,
      "jump": 8601,
      "lac": 8602,
      "swell": 8603,
      "##hs": 8604,
      "##jj": 8605,
      "earthqu": 8606,
      "beneficial": 8607,
      "1997": 8608,
      "copyright": 8609,
      "photograph": 8610,
      "exclus": 8611,
      "subsequently": 8612,
      "bach": 8613,
      "##ilation": 8614,
      "##ules": 8615,
      "alms": 8616,
      "membership": 8617,
      "remembered": 8618,
      "controvers": 8619,
      "vigil": 8620,
      "##tha": 8621,
      "frust": 8622,
      "indul": 8623,
      "somewhat": 8624,
      "prejud": 8625,
      "reducing": 8626,
      "networks": 8627,
      "vo": 8628,
      "##fe": 8629,
      "##itate": 8630,
      "ages": 8631,
      "##ogue": 8632,
      "musical": 8633,
      "freely": 8634,
      "ruled": 8635,
      "##dev": 8636,
      "celebrate": 8637,
      "dac": 8638,
      "##asy": 8639,
      "composition": 8640,
      "retrie": 8641,
      "motiv": 8642,
      "bondmen": 8643,
      "hors": 8644,
      "zeal": 8645,
      "trump": 8646,
      "openly": 8647,
      "lands": 8648,
      "sustained": 8649,
      "ridic": 8650,
      "##ham": 8651,
      "likewise": 8652,
      "glac": 8653,
      "larva": 8654,
      "planet": 8655,
      "regards": 8656,
      "liberation": 8657,
      "exchanges": 8658,
      "dynasty": 8659,
      "splend": 8660,
      "anywhere": 8661,
      "purify": 8662,
      "acceptable": 8663,
      "preference": 8664,
      "satellite": 8665,
      "therm": 8666,
      "suck": 8667,
      "chest": 8668,
      "butter": 8669,
      "precious": 8670,
      "recur": 8671,
      "##plete": 8672,
      "routine": 8673,
      "reconst": 8674,
      "pregnancy": 8675,
      "tum": 8676,
      "prestig": 8677,
      "loved": 8678,
      "##apse": 8679,
      "gland": 8680,
      "plane": 8681,
      "destiny": 8682,
      "easier": 8683,
      "warnings": 8684,
      "dramatic": 8685,
      "chennai": 8686,
      "diver": 8687,
      "jub": 8688,
      "##ione": 8689,
      "##ainted": 8690,
      "instruct": 8691,
      "headed": 8692,
      "msme": 8693,
      "drew": 8694,
      "##bh": 8695,
      "stup": 8696,
      "##ouses": 8697,
      "prayed": 8698,
      "colleges": 8699,
      "vedas": 8700,
      "unfortunately": 8701,
      "cul": 8702,
      "tan": 8703,
      "##life": 8704,
      "isn": 8705,
      "enquiry": 8706,
      "##acious": 8707,
      "##ishment": 8708,
      "##avior": 8709,
      "serial": 8710,
      "genetic": 8711,
      "##amma": 8712,
      "misle": 8713,
      "aggregate": 8714,
      "##rical": 8715,
      "interc": 8716,
      "recording": 8717,
      "deduct": 8718,
      "summit": 8719,
      "loading": 8720,
      "appreh": 8721,
      "corresponding": 8722,
      "candidates": 8723,
      "younger": 8724,
      "54": 8725,
      "dir": 8726,
      "ga": 8727,
      "##rous": 8728,
      "##iam": 8729,
      "varied": 8730,
      "visiting": 8731,
      "realized": 8732,
      "resulted": 8733,
      "convocation": 8734,
      "subsidy": 8735,
      "encounter": 8736,
      "sid": 8737,
      "##je": 8738,
      "##gage": 8739,
      "##oft": 8740,
      "##amy": 8741,
      "sem": 8742,
      "##ela": 8743,
      "beloved": 8744,
      "crash": 8745,
      "##osted": 8746,
      "immig": 8747,
      "tribe": 8748,
      "variable": 8749,
      "vitamin": 8750,
      "bacteria": 8751,
      "gap": 8752,
      "##uti": 8753,
      "seas": 8754,
      "indira": 8755,
      "##indranath": 8756,
      "slaugh": 8757,
      "profound": 8758,
      ".).": 8759,
      "bounds": 8760,
      "flying": 8761,
      "56": 8762,
      "aqu": 8763,
      "##utosh": 8764,
      "exha": 8765,
      "thereupon": 8766,
      "thrust": 8767,
      "insight": 8768,
      "players": 8769,
      "##aze": 8770,
      "characteristics": 8771,
      "grievances": 8772,
      "abundant": 8773,
      "authentication": 8774,
      "##abling": 8775,
      "upright": 8776,
      "hindust": 8777,
      "##cute": 8778,
      "##asp": 8779,
      "recip": 8780,
      "##ador": 8781,
      "##adation": 8782,
      "plains": 8783,
      "managing": 8784,
      "reserved": 8785,
      "blow": 8786,
      "sheikh": 8787,
      "behavior": 8788,
      "handed": 8789,
      "examine": 8790,
      "copies": 8791,
      "replaced": 8792,
      "tourists": 8793,
      "nutr": 8794,
      "abol": 8795,
      "##oys": 8796,
      "equation": 8797,
      "##lessly": 8798,
      "belonged": 8799,
      "earliest": 8800,
      "doctors": 8801,
      "applies": 8802,
      "masters": 8803,
      "nanak": 8804,
      "vessels": 8805,
      "enlar": 8806,
      "alcoh": 8807,
      "bon": 8808,
      "cm": 8809,
      "holid": 8810,
      "##icide": 8811,
      "intim": 8812,
      "overwh": 8813,
      "visits": 8814,
      "norms": 8815,
      "himalayas": 8816,
      "assumed": 8817,
      "##criptions": 8818,
      "empowerment": 8819,
      "overwhel": 8820,
      "rans": 8821,
      "sq": 8822,
      "##ricted": 8823,
      "retain": 8824,
      "judiciary": 8825,
      "rao": 8826,
      "bahadur": 8827,
      "bol": 8828,
      "cards": 8829,
      "tape": 8830,
      "##how": 8831,
      "##ndra": 8832,
      "goa": 8833,
      "decimal": 8834,
      "admission": 8835,
      "sounds": 8836,
      "optim": 8837,
      "isaac": 8838,
      "bangalore": 8839,
      "bay": 8840,
      "##kha": 8841,
      "ascend": 8842,
      "degr": 8843,
      "detect": 8844,
      "extrem": 8845,
      "redress": 8846,
      "telugu": 8847,
      "ownership": 8848,
      "evildoers": 8849,
      "ek": 8850,
      "lag": 8851,
      "##ny": 8852,
      "##quar": 8853,
      "entries": 8854,
      "##retched": 8855,
      "recruit": 8856,
      "stomach": 8857,
      "cant": 8858,
      "jung": 8859,
      "##pread": 8860,
      "##lla": 8861,
      "##ifically": 8862,
      "mineral": 8863,
      "mol": 8864,
      "tears": 8865,
      "wand": 8866,
      "##chron": 8867,
      "segment": 8868,
      "##ighth": 8869,
      "startup": 8870,
      "arrival": 8871,
      "nearby": 8872,
      "superst": 8873,
      "ayat": 8874,
      "idolaters": 8875,
      "furnished": 8876,
      "treasure": 8877,
      "satyagrah": 8878,
      "acknowled": 8879,
      "movie": 8880,
      "paragraph": 8881,
      "nodes": 8882,
      "wine": 8883,
      "##point": 8884,
      "##30": 8885,
      "##atra": 8886,
      "##onts": 8887,
      "grid": 8888,
      "agra": 8889,
      "agro": 8890,
      "seconds": 8891,
      "villagers": 8892,
      "undertake": 8893,
      "entrance": 8894,
      "exploitation": 8895,
      "intermedi": 8896,
      "extraordinary": 8897,
      "yam": 8898,
      "##ications": 8899,
      "advers": 8900,
      "mood": 8901,
      "##ails": 8902,
      "##bert": 8903,
      "crown": 8904,
      "buff": 8905,
      "acquire": 8906,
      "liar": 8907,
      "cryst": 8908,
      "occupied": 8909,
      "enforcement": 8910,
      "faster": 8911,
      "##inals": 8912,
      "##lex": 8913,
      "goodness": 8914,
      "strongly": 8915,
      "occasions": 8916,
      "males": 8917,
      "experienced": 8918,
      "fortun": 8919,
      "reminded": 8920,
      "logic": 8921,
      "oxygen": 8922,
      "85": 8923,
      "##oma": 8924,
      "rear": 8925,
      "emer": 8926,
      "##tends": 8927,
      "corn": 8928,
      "##lessness": 8929,
      "realisation": 8930,
      "exped": 8931,
      "tested": 8932,
      "talent": 8933,
      "chemicals": 8934,
      "pretty": 8935,
      "hol": 8936,
      "lan": 8937,
      "lion": 8938,
      "vish": 8939,
      "##lor": 8940,
      "##wide": 8941,
      "coff": 8942,
      "cogn": 8943,
      "necessity": 8944,
      "representing": 8945,
      "premium": 8946,
      "sanctioned": 8947,
      "abundance": 8948,
      "obligations": 8949,
      "kabir": 8950,
      "evolved": 8951,
      "divorce": 8952,
      "rhyth": 8953,
      "jihad": 8954,
      "waves": 8955,
      "##down": 8956,
      "##cular": 8957,
      "##liness": 8958,
      "##itals": 8959,
      "sha": 8960,
      "envelop": 8961,
      "compos": 8962,
      "##picious": 8963,
      "bhutan": 8964,
      "bought": 8965,
      "pace": 8966,
      "tap": 8967,
      "##saf": 8968,
      "##oly": 8969,
      "compact": 8970,
      "##avas": 8971,
      "marine": 8972,
      "surgery": 8973,
      "experts": 8974,
      "summary": 8975,
      "disobedience": 8976,
      "dwark": 8977,
      "mixture": 8978,
      "wet": 8979,
      "##rot": 8980,
      "presently": 8981,
      "grows": 8982,
      "foref": 8983,
      "brahma": 8984,
      "gathering": 8985,
      "attracted": 8986,
      "corrupt": 8987,
      "##fs": 8988,
      "##ino": 8989,
      "conse": 8990,
      "patiently": 8991,
      "commodity": 8992,
      "advocate": 8993,
      "horses": 8994,
      "49": 8995,
      "##night": 8996,
      "##icity": 8997,
      "ster": 8998,
      "stem": 8999,
      "supr": 9000,
      "semi": 9001,
      "trig": 9002,
      "quad": 9003,
      "netaji": 9004,
      "headquar": 9005,
      "connections": 9006,
      "topic": 9007,
      "preparing": 9008,
      "dialogue": 9009,
      "conventional": 9010,
      "church": 9011,
      "pall": 9012,
      "tib": 9013,
      "tob": 9014,
      "tests": 9015,
      "magnetic": 9016,
      "adults": 9017,
      "delegation": 9018,
      "nervous": 9019,
      "exclusively": 9020,
      "honey": 9021,
      "##born": 9022,
      "rebel": 9023,
      "rehab": 9024,
      "##uta": 9025,
      "shot": 9026,
      "allahabad": 9027,
      "arun": 9028,
      "feared": 9029,
      "metres": 9030,
      "tales": 9031,
      "unlaw": 9032,
      "orphan": 9033,
      "mc": 9034,
      "sperm": 9035,
      "##odox": 9036,
      "##itya": 9037,
      "grains": 9038,
      "merit": 9039,
      "thinks": 9040,
      "harmful": 9041,
      "massive": 9042,
      "dimin": 9043,
      "argue": 9044,
      "retirement": 9045,
      "cub": 9046,
      "fer": 9047,
      "nig": 9048,
      "exit": 9049,
      "moves": 9050,
      "##gram": 9051,
      "estimate": 9052,
      "applicant": 9053,
      "diabet": 9054,
      "suggestions": 9055,
      "appreciate": 9056,
      "rejoice": 9057,
      "dollar": 9058,
      "tuber": 9059,
      "inevitable": 9060,
      "##isite": 9061,
      "tomb": 9062,
      "##rete": 9063,
      "intend": 9064,
      "##version": 9065,
      "##ocy": 9066,
      "transf": 9067,
      "trekk": 9068,
      "lowest": 9069,
      "approaches": 9070,
      "undou": 9071,
      "camera": 9072,
      "brave": 9073,
      "angry": 9074,
      "mortal": 9075,
      "disposal": 9076,
      "texts": 9077,
      "horizontal": 9078,
      "kitt": 9079,
      "vin": 9080,
      "##rants": 9081,
      "##comm": 9082,
      "##hen": 9083,
      "acute": 9084,
      "pond": 9085,
      "smt": 9086,
      "##ariat": 9087,
      "superv": 9088,
      "ignored": 9089,
      "vicer": 9090,
      "dissemin": 9091,
      "undoubted": 9092,
      "apt": 9093,
      "tight": 9094,
      "vel": 9095,
      "##kim": 9096,
      "##_01": 9097,
      "##very": 9098,
      "##emia": 9099,
      "blast": 9100,
      "reposted": 9101,
      "swaraj": 9102,
      "handling": 9103,
      "sahib": 9104,
      "##nity": 9105,
      "##ec": 9106,
      "##atri": 9107,
      "ingr": 9108,
      "whichever": 9109,
      "therefrom": 9110,
      "partly": 9111,
      "overl": 9112,
      "arrive": 9113,
      "increasingly": 9114,
      "paul": 9115,
      "memorial": 9116,
      "awaits": 9117,
      "unexpected": 9118,
      "99": 9119,
      "cere": 9120,
      "mamm": 9121,
      "ya": 9122,
      "##actory": 9123,
      "refund": 9124,
      "executed": 9125,
      "pursued": 9126,
      "appreciation": 9127,
      "inserted": 9128,
      "eager": 9129,
      "##eem": 9130,
      "##iti": 9131,
      "##itan": 9132,
      "flame": 9133,
      "testify": 9134,
      "protecting": 9135,
      "reflected": 9136,
      "wildlife": 9137,
      "expanded": 9138,
      "surprise": 9139,
      "pione": 9140,
      "outward": 9141,
      "##hai": 9142,
      "landlord": 9143,
      "adoption": 9144,
      "certificates": 9145,
      "borne": 9146,
      "laden": 9147,
      "lecture": 9148,
      "greek": 9149,
      "##pass": 9150,
      "monetary": 9151,
      "encouraging": 9152,
      "ganges": 9153,
      "injured": 9154,
      "describes": 9155,
      "batch": 9156,
      "ug": 9157,
      "##rs": 9158,
      "shy": 9159,
      "blown": 9160,
      "monu": 9161,
      "denial": 9162,
      "protest": 9163,
      "1980": 9164,
      "fortune": 9165,
      "pursue": 9166,
      ".]": 9167,
      "pending": 9168,
      "foods": 9169,
      "winning": 9170,
      "flee": 9171,
      "cha": 9172,
      "clin": 9173,
      "desir": 9174,
      "generous": 9175,
      "agenda": 9176,
      "shortcut": 9177,
      "crucial": 9178,
      "sorry": 9179,
      "complaints": 9180,
      "badruddin": 9181,
      "duly": 9182,
      "mall": 9183,
      "secretly": 9184,
      "protein": 9185,
      "attempts": 9186,
      "wonderful": 9187,
      "rejo": 9188,
      "tolerance": 9189,
      "lahore": 9190,
      "magistrate": 9191,
      "lux": 9192,
      "nand": 9193,
      "vive": 9194,
      "##onia": 9195,
      "##aras": 9196,
      "pars": 9197,
      "smoke": 9198,
      "recognise": 9199,
      "machines": 9200,
      "connecting": 9201,
      "undoubtedly": 9202,
      "()": 9203,
      "400": 9204,
      "cache": 9205,
      "dates": 9206,
      "nigh": 9207,
      "##part": 9208,
      "##erving": 9209,
      "##arati": 9210,
      "quot": 9211,
      "devour": 9212,
      "supports": 9213,
      "breed": 9214,
      "alien": 9215,
      "comprom": 9216,
      "parameters": 9217,
      "hopes": 9218,
      "legend": 9219,
      "ta": 9220,
      "tons": 9221,
      "abdom": 9222,
      "pref": 9223,
      "advise": 9224,
      "breeding": 9225,
      "garments": 9226,
      "escap": 9227,
      "pacific": 9228,
      "88": 9229,
      "aids": 9230,
      "loud": 9231,
      "mich": 9232,
      "ped": 9233,
      "alloc": 9234,
      "manipur": 9235,
      "risks": 9236,
      "inputs": 9237,
      "pregnant": 9238,
      "subhash": 9239,
      "forefathers": 9240,
      "##his": 9241,
      "##son": 9242,
      "##orse": 9243,
      "cla": 9244,
      "##eeper": 9245,
      "referring": 9246,
      "academy": 9247,
      "likeness": 9248,
      "rebellious": 9249,
      "narm": 9250,
      "}.": 9251,
      "##das": 9252,
      "##will": 9253,
      "retreat": 9254,
      "warrant": 9255,
      "1993": 9256,
      "lotus": 9257,
      "attacked": 9258,
      "criminals": 9259,
      "conversation": 9260,
      "interview": 9261,
      "abdul": 9262,
      "engagement": 9263,
      "pestic": 9264,
      "allied": 9265,
      "withhold": 9266,
      "exh": 9267,
      "worksh": 9268,
      "singing": 9269,
      "films": 9270,
      "islamists": 9271,
      "favors": 9272,
      "meanwhile": 9273,
      "52": 9274,
      "bis": 9275,
      "gest": 9276,
      "##ias": 9277,
      "##oda": 9278,
      "noticed": 9279,
      "unem": 9280,
[...]
