{
  "version": "1.0",
  "truncation": null,
  "padding": null,
  "added_tokens": [
    {
      "id": 0,
      "content": "[UNK]",
      "single_word": false,
      "lstrip": false,
      "rstrip": false,
      "normalized": false,
      "special": true
    },
    {
      "id": 1,
      "content": "[PAD]",
      "single_word": false,
      "lstrip": false,
      "rstrip": false,
      "normalized": false,
      "special": true
    },
    {
      "id": 2,
      "content": "[CLS]",
      "single_word": false,
      "lstrip": false,
      "rstrip": false,
      "normalized": false,
      "special": true
    },
    {
      "id": 3,
      "content": "[SEP]",
      "single_word": false,
      "lstrip": false,
      "rstrip": false,
      "normalized": false,
      "special": true
    },
    {
      "id": 4,
      "content": "[MASK]",
      "single_word": false,
      "lstrip": false,
      "rstrip": false,
      "normalized": false,
      "special": true
    }
  ],
  "normalizer": null,
  "pre_tokenizer": {
    "type": "Whitespace"
  },
  "post_processor": {
    "type": "TemplateProcessing",
    "single": [
      {
        "SpecialToken": {
          "id": "[CLS]",
          "type_id": 0
        }
      },
      {
        "Sequence": {
          "id": "A",
          "type_id": 0
        }
      },
      {
        "SpecialToken": {
          "id": "[SEP]",
          "type_id": 0
        }
      }
    ],
    "pair": [
      {
        "SpecialToken": {
          "id": "[CLS]",
          "type_id": 0
        }
      },
      {
        "Sequence": {
          "id": "A",
          "type_id": 0
        }
      },
      {
        "SpecialToken": {
          "id": "[SEP]",
          "type_id": 0
        }
      },
      {
        "Sequence": {
          "id": "B",
          "type_id": 1
        }
      },
      {
        "SpecialToken": {
          "id": "[SEP]",
          "type_id": 1
        }
      }
    ],
    "special_tokens": {
      "[CLS]": {
        "id": "[CLS]",
        "ids": [
          2
        ],
        "tokens": [
          "[CLS]"
        ]
      },
      "[SEP]": {
        "id": "[SEP]",
        "ids": [
          3
        ],
        "tokens": [
          "[SEP]"
        ]
      }
    }
  },
  "decoder": null,
  "model": {
    "type": "WordPiece",
    "unk_token": "[UNK]",
    "continuing_subword_prefix": "##",
    "max_input_chars_per_word": 100,
    "vocab": {
      "[UNK]": 0,
      "[PAD]": 1,
      "[CLS]": 2,
      "[SEP]": 3,
      "[MASK]": 4,
      "\u0014": 5,
      "\u001b": 6,
      "!": 7,
      "\"": 8,
      "#": 9,
      "$": 10,
      "%": 11,
      "&": 12,
      "'": 13,
      "(": 14,
      ")": 15,
      "*": 16,
      "+": 17,
      ",": 18,
      "-": 19,
      ".": 20,
      "/": 21,
      "0": 22,
      "1": 23,
      "2": 24,
      "3": 25,
      "4": 26,
      "5": 27,
      "6": 28,
      "7": 29,
      "8": 30,
      "9": 31,
      ":": 32,
      ";": 33,
      "<": 34,
      "=": 35,
      ">": 36,
      "?": 37,
      "@": 38,
      "A": 39,
      "B": 40,
      "C": 41,
      "D": 42,
      "E": 43,
      "F": 44,
      "G": 45,
      "H": 46,
      "I": 47,
      "J": 48,
      "K": 49,
      "L": 50,
      "M": 51,
      "N": 52,
      "O": 53,
      "P": 54,
      "Q": 55,
      "R": 56,
      "S": 57,
      "T": 58,
      "U": 59,
      "V": 60,
      "W": 61,
      "X": 62,
      "Y": 63,
      "Z": 64,
      "[": 65,
      "\\": 66,
      "]": 67,
      "^": 68,
      "_": 69,
      "`": 70,
      "a": 71,
      "b": 72,
      "c": 73,
      "d": 74,
      "e": 75,
      "f": 76,
      "g": 77,
      "h": 78,
      "i": 79,
      "j": 80,
      "k": 81,
      "l": 82,
      "m": 83,
      "n": 84,
      "o": 85,
      "p": 86,
      "q": 87,
      "r": 88,
      "s": 89,
      "t": 90,
      "u": 91,
      "v": 92,
      "w": 93,
      "x": 94,
      "y": 95,
      "z": 96,
      "{": 97,
      "}": 98,
      "~": 99,
      "": 100,
      "": 101,
      "": 102,
      "": 103,
      "": 104,
      "": 105,
      "": 106,
      "": 107,
      "": 108,
      "": 109,
      "": 110,
      "": 111,
      "": 112,
      "": 113,
      "": 114,
      "": 115,
      "": 116,
      "": 117,
      "": 118,
      "": 119,
      "": 120,
      "": 121,
      "": 122,
      "": 123,
      "": 124,
      "": 125,
      "": 126,
      "": 127,
      "¡": 128,
      "¢": 129,
      "£": 130,
      "¤": 131,
      "¥": 132,
      "¦": 133,
      "§": 134,
      "¨": 135,
      "©": 136,
      "ª": 137,
      "«": 138,
      "¬": 139,
      "®": 140,
      "¯": 141,
      "°": 142,
      "±": 143,
      "²": 144,
      "³": 145,
      "´": 146,
      "µ": 147,
      "¶": 148,
      "·": 149,
      "¸": 150,
      "¹": 151,
      "º": 152,
      "¼": 153,
      "½": 154,
      "¾": 155,
      "¿": 156,
      "Â": 157,
      "Ä": 158,
      "Æ": 159,
      "Ç": 160,
      "É": 161,
      "Ê": 162,
      "Î": 163,
      "Ð": 164,
      "Ó": 165,
      "Ô": 166,
      "Ö": 167,
      "×": 168,
      "Ú": 169,
      "Û": 170,
      "Ü": 171,
      "à": 172,
      "á": 173,
      "â": 174,
      "ä": 175,
      "å": 176,
      "æ": 177,
      "ç": 178,
      "è": 179,
      "é": 180,
      "í": 181,
      "ñ": 182,
      "ò": 183,
      "ó": 184,
      "õ": 185,
      "ö": 186,
      "÷": 187,
      "ù": 188,
      "ú": 189,
      "ü": 190,
      "ý": 191,
      "þ": 192,
      "ā": 193,
      "Ă": 194,
      "Ą": 195,
      "ą": 196,
      "Ć": 197,
      "ć": 198,
      "Č": 199,
      "č": 200,
      "ď": 201,
      "Ę": 202,
      "Ě": 203,
      "ě": 204,
      "ı": 205,
      "Ĺ": 206,
      "ĺ": 207,
      "Ľ": 208,
      "ľ": 209,
      "ł": 210,
      "Ň": 211,
      "ň": 212,
      "ő": 213,
      "ŕ": 214,
      "ř": 215,
      "Ś": 216,
      "ś": 217,
      "Ş": 218,
      "ş": 219,
      "Š": 220,
      "š": 221,
      "Ţ": 222,
      "ţ": 223,
      "Ť": 224,
      "ť": 225,
      "ů": 226,
      "ű": 227,
      "Ż": 228,
      "ż": 229,
      "Ž": 230,
      "ž": 231,
      "ɓ": 232,
      "ɪ": 233,
      "ʼ": 234,
      "ˇ": 235,
      "ː": 236,
      "˙": 237,
      "˚": 238,
      "˛": 239,
      "˝": 240,
      "̀": 241,
      "́": 242,
      "̃": 243,
      "̄": 244,
      "̈": 245,
      "̊": 246,
      "̧": 247,
      "̪": 248,
      "ͧ": 249,
      ";": 250,
      "Δ": 251,
      "Θ": 252,
      "Λ": 253,
      "Π": 254,
      "Ω": 255,
      "α": 256,
      "β": 257,
      "γ": 258,
      "η": 259,
      "θ": 260,
      "ι": 261,
      "κ": 262,
      "λ": 263,
      "μ": 264,
      "ν": 265,
      "π": 266,
      "τ": 267,
      "φ": 268,
      "ψ": 269,
      "ω": 270,
      "ώ": 271,
      "Ѕ": 272,
      "А": 273,
      "Д": 274,
      "С": 275,
      "Т": 276,
      "У": 277,
      "Ч": 278,
      "а": 279,
      "в": 280,
      "д": 281,
      "е": 282,
      "ж": 283,
      "и": 284,
      "й": 285,
      "н": 286,
      "о": 287,
      "п": 288,
      "р": 289,
      "ю": 290,
      "є": 291,
      "֦": 292,
      "ֹ": 293,
      "׃": 294,
      "،": 295,
      "آ": 296,
      "إ": 297,
      "ا": 298,
      "ت": 299,
      "ج": 300,
      "ح": 301,
      "د": 302,
      "ر": 303,
      "س": 304,
      "ق": 305,
      "ل": 306,
      "م": 307,
      "ن": 308,
      "ٓ": 309,
      "ٕ": 310,
      "ی": 311,
      "ँ": 312,
      "ं": 313,
      "ः": 314,
      "अ": 315,
      "आ": 316,
      "इ": 317,
      "ई": 318,
      "उ": 319,
      "ऊ": 320,
      "ऋ": 321,
      "ऌ": 322,
      "ऍ": 323,
      "ऎ": 324,
      "ए": 325,
      "ऐ": 326,
      "ऑ": 327,
      "ऒ": 328,
      "ओ": 329,
      "औ": 330,
      "क": 331,
      "ख": 332,
      "ग": 333,
      "घ": 334,
      "ङ": 335,
      "च": 336,
      "छ": 337,
      "ज": 338,
      "झ": 339,
      "ञ": 340,
      "ट": 341,
      "ठ": 342,
      "ड": 343,
      "ढ": 344,
      "ण": 345,
      "त": 346,
      "थ": 347,
      "द": 348,
      "ध": 349,
      "न": 350,
      "प": 351,
      "फ": 352,
      "ब": 353,
      "भ": 354,
      "म": 355,
      "य": 356,
      "र": 357,
      "ल": 358,
      "ळ": 359,
      "व": 360,
      "श": 361,
      "ष": 362,
      "स": 363,
      "ह": 364,
      "़": 365,
      "ऽ": 366,
      "ा": 367,
      "ि": 368,
      "ी": 369,
      "ु": 370,
      "ू": 371,
      "ृ": 372,
      "ॄ": 373,
      "ॅ": 374,
      "ॆ": 375,
      "े": 376,
      "ै": 377,
      "ॉ": 378,
      "ॊ": 379,
      "ो": 380,
      "ौ": 381,
      "्": 382,
      "ॐ": 383,
      "॑": 384,
      "॒": 385,
      "॓": 386,
      "॔": 387,
      "क़": 388,
      "ज़": 389,
      "ड़": 390,
      "फ़": 391,
      "य़": 392,
      "ॠ": 393,
      "ॡ": 394,
      "ॣ": 395,
      "।": 396,
      "॥": 397,
      "०": 398,
      "१": 399,
      "२": 400,
      "३": 401,
      "४": 402,
      "५": 403,
      "६": 404,
      "७": 405,
      "८": 406,
      "९": 407,
      "॰": 408,
      "ক": 409,
      "চ": 410,
      "ঠ": 411,
      "থ": 412,
      "দ": 413,
      "ন": 414,
      "ব": 415,
      "ভ": 416,
      "র": 417,
      "ষ": 418,
      "স": 419,
      "া": 420,
      "ী": 421,
      "ু": 422,
      "্": 423,
      "ਦ": 424,
      "ਲ": 425,
      "ਿ": 426,
      "ੀ": 427,
      "ੱ": 428,
      "પ": 429,
      "બ": 430,
      "ા": 431,
      "ુ": 432,
      "‍": 433,
      "‎": 434,
      "–": 435,
      "—": 436,
      "―": 437,
      "‘": 438,
      "’": 439,
      "“": 440,
      "”": 441,
      "„": 442,
      "†": 443,
      "‡": 444,
      "•": 445,
      "…": 446,
      "′": 447,
      "⁰": 448,
      "⁴": 449,
      "⁵": 450,
      "⁶": 451,
      "⁷": 452,
      "⁻": 453,
      "₀": 454,
      "₁": 455,
      "₂": 456,
      "€": 457,
      "₹": 458,
      "™": 459,
      "⅓": 460,
      "⅔": 461,
      "⅕": 462,
      "⅖": 463,
      "⅗": 464,
      "⅘": 465,
      "⅙": 466,
      "→": 467,
      "⇒": 468,
      "∂": 469,
      "−": 470,
      "∕": 471,
      "√": 472,
      "∞": 473,
      "∣": 474,
      "∨": 475,
      "≠": 476,
      "≤": 477,
      "≥": 478,
      "⌈": 479,
      "⌉": 480,
      "⌊": 481,
      "⌋": 482,
      "⌘": 483,
      "⏎": 484,
      "─": 485,
      "═": 486,
      "■": 487,
      "☺": 488,
      "☻": 489,
      "♪": 490,
      "♫": 491,
      "➣": 492,
      "か": 493,
      "な": 494,
      "中": 495,
      "國": 496,
      "堀": 497,
      "字": 498,
      "漢": 499,
      "秦": 500,
      "続": 501,
      "设": 502,
      "": 503,
      "": 504,
      "": 505,
      "￼": 506,
      "�": 507,
      "##र": 508,
      "##ा": 509,
      "##ज": 510,
      "##ं": 511,
      "##ग": 512,
      "##द": 513,
      "##ि": 514,
      "##श": 515,
      "##े": 516,
      "##व": 517,
      "##त": 518,
      "##ी": 519,
      "##स": 520,
      "##्": 521,
      "##प": 522,
      "##ो": 523,
      "##ु": 524,
      "##ण": 525,
      "##ू": 526,
      "##ल": 527,
      "##ख": 528,
      "##ष": 529,
      "##ठ": 530,
      "##ौ": 531,
      "##च": 532,
      "##भ": 533,
      "##य": 534,
      "##क": 535,
      "##ट": 536,
      "##ब": 537,
      "##ः": 538,
      "##N": 539,
      "##A": 540,
      "##M": 541,
      "##E": 542,
      "##ढ": 543,
      "##़": 544,
      "##म": 545,
      "##ड": 546,
      "##न": 547,
      "##ै": 548,
      "##ई": 549,
      "##ओ": 550,
      "##थ": 551,
      "##ह": 552,
      "##ँ": 553,
      "##२": 554,
      "##2": 555,
      "##P": 556,
      "##3": 557,
      "##ॉ": 558,
      "##फ": 559,
      "##ए": 560,
      "##a": 561,
      "##l": 562,
      "##t": 563,
      "##e": 564,
      "##n": 565,
      "##b": 566,
      "##c": 567,
      "##h": 568,
      "##ध": 569,
      "##आ": 570,
      "##m": 571,
      "##इ": 572,
      "##i": 573,
      "##r": 574,
      "##s": 575,
      "##z": 576,
      "##R": 577,
      "##g": 578,
      "##o": 579,
      "##1": 580,
      "##5": 581,
      "##छ": 582,
      "##9": 583,
      "##4": 584,
      "##C": 585,
      "##घ": 586,
      "##p": 587,
      "##ृ": 588,
      "##f": 589,
      "##u": 590,
      "##d": 591,
      "##ऍ": 592,
      "##0": 593,
      "##7": 594,
      "##y": 595,
      "##ञ": 596,
      "##अ": 597,
      "##ऋ": 598,
      "##उ": 599,
      "##ॅ": 600,
      "##१": 601,
      "##४": 602,
      "##६": 603,
      "##०": 604,
      "##३": 605,
      "##झ": 606,
      "##q": 607,
      "##I": 608,
      "##k": 609,
      "##ङ": 610,
      "##S": 611,
      "##W": 612,
      "##T": 613,
      "##B": 614,
      "##L": 615,
      "##O": 616,
      "##D": 617,
      "##U": 618,
      "##w": 619,
      "##/": 620,
      "##५": 621,
      "##F": 622,
      "##j": 623,
      "##6": 624,
      "##8": 625,
      "##_": 626,
      "##v": 627,
      "##Q": 628,
      "##x": 629,
      "##९": 630,
      "##(": 631,
      "##औ": 632,
      "##७": 633,
      "##८": 634,
      "##,": 635,
      "##?": 636,
      "##]": 637,
      "##य़": 638,
      "##Y": 639,
      "##": 640,
      "##.": 641,
      "##<": 642,
      "##ऑ": 643,
      "##ऐ": 644,
      "##ň": 645,
      "##K": 646,
      "##-": 647,
      "##>": 648,
      "##Z": 649,
      "##": 650,
      "##ळ": 651,
      "##ऊ": 652,
      "##¿": 653,
      "##G": 654,
      "##%": 655,
      "##Ö": 656,
      "##É": 657,
      "##Ž": 658,
      "##ú": 659,
      "##H": 660,
      "##Ú": 661,
      "##Ç": 662,
      "##`": 663,
      "##\"": 664,
      "##V": 665,
      "##।": 666,
      "##\\": 667,
      "##:": 668,
      "##)": 669,
      "##": 670,
      "##}": 671,
      "##‡": 672,
      "##$": 673,
      "##ţ": 674,
      "##ü": 675,
      "##'": 676,
      "##ä": 677,
      "##¡": 678,
      "##”": 679,
      "##Â": 680,
      "##ł": 681,
      "##X": 682,
      "##!": 683,
      "##£": 684,
      "##J": 685,
      "##ॊ": 686,
      "##&": 687,
      "##ॆ": 688,
      "##": 689,
      "##*": 690,
      "##°": 691,
      "##": 692,
      "##ऎ": 693,
      "##—": 694,
      "##’": 695,
      "##Ć": 696,
      "##ů": 697,
      "##‘": 698,
      "##и": 699,
      "##;": 700,
      "##«": 701,
      "###": 702,
      "##…": 703,
      "##¤": 704,
      "##â": 705,
      "##®": 706,
      "##ऽ": 707,
      "##ॄ": 708,
      "##̪": 709,
      "##ɪ": 710,
      "##ː": 711,
      "##[": 712,
      "##@": 713,
      "##̈": 714,
      "##¦": 715,
      "##Ş": 716,
      "##Ę": 717,
      "##": 718,
      "##¨": 719,
      "##¶": 720,
      "##é": 721,
      "##ś": 722,
      "##~": 723,
      "##¬": 724,
      "##Ň": 725,
      "##": 726,
      "##“": 727,
      "##º": 728,
      "##¥": 729,
      "##¾": 730,
      "##ऌ": 731,
      "##̧": 732,
      "##ж": 733,
      "##̊": 734,
      "##=": 735,
      "##": 736,
      "##è": 737,
      "##ऒ": 738,
      "##": 739,
      "##": 740,
      "##Т": 741,
      "##": 742,
      "##ĺ": 743,
      "##Æ": 744,
      "##þ": 745,
      "##¯": 746,
      "##": 747,
      "##š": 748,
      "##॔": 749,
      "##¹": 750,
      "##í": 751,
      "##॑": 752,
      "##¸": 753,
      "##ö": 754,
      "##+": 755,
      "##–": 756,
      "##ı": 757,
      "##ŕ": 758,
      "##": 759,
      "##^": 760,
      "##{": 761,
      "##²": 762,
      "##Ч": 763,
      "##ş": 764,
      "##": 765,
      "##": 766,
      "##ť": 767,
      "##ż": 768,
      "##ˇ": 769,
      "##ু": 770,
      "##ভ": 771,
      "##া": 772,
      "##ষ": 773,
      "##Ä": 774,
      "##́": 775,
      "##ل": 776,
      "##إ": 777,
      "##س": 778,
      "##ا": 779,
      "##م": 780,
      "##¼": 781,
      "##ő": 782,
      "##ͧ": 783,
      "##ò": 784,
      "##Ó": 785,
      "##ক": 786,
      "##র": 787,
      "##á": 788,
      "##ड़": 789,
      "##☻": 790,
      "##☺": 791,
      "##π": 792,
      "##˙": 793,
      "##ব": 794,
      "##ী": 795,
      "##ন": 796,
      "##্": 797,
      "##দ": 798,
      "##থ": 799,
      "##⁰": 800,
      "##": 801,
      "##§": 802,
      "##ɓ": 803,
      "##ą": 804,
      "##॰": 805,
      "##ñ": 806,
      "##": 807,
      "##ç": 808,
      "##স": 809,
      "##�": 810,
      "##±": 811,
      "##ª": 812,
      "##à": 813,
      "##·": 814,
      "##ॐ": 815,
      "##ق": 816,
      "##ر": 817,
      "##آ": 818,
      "##ن": 819,
      "##": 820,
      "##": 821,
      "##क़": 822,
      "##ज़": 823,
      "##॒": 824,
      "##õ": 825,
      "##√": 826,
      "##": 827,
      "##ਿ": 828,
      "##ੱ": 829,
      "##ਲ": 830,
      "##ੀ": 831,
      "##Ĺ": 832,
      "##♪": 833,
      "##": 834,
      "##č": 835,
      "##ٕ": 836,
      "##̀": 837,
      "##₹": 838,
      "##н": 839,
      "##д": 840,
      "##р": 841,
      "##е": 842,
      "##й": 843,
      "##ó": 844,
      "##ю": 845,
      "##Ľ": 846,
      "##國": 847,
      "##∞": 848,
      "##字": 849,
      "##": 850,
      "##̃": 851,
      "##ā": 852,
      "##": 853,
      "##Ą": 854,
      "##θ": 855,
      "##ώ": 856,
      "##": 857,
      "##Ê": 858,
      "##‍": 859,
      "##ج": 860,
      "##Д": 861,
      "##ֹ": 862,
      "##×": 863,
      "##÷": 864,
      "##फ़": 865,
      "##Ô": 866,
      "##©": 867,
      "##⌘": 868,
      "##ॣ": 869,
      "##Î": 870,
      "##̄": 871,
      "##ř": 872,
      "##ć": 873,
      "##′": 874,
      "##な": 875,
      "##€": 876,
      "##¢": 877,
      "##˚": 878,
      "##ی": 879,
      "##µ": 880,
      "##": 881,
      "##ψ": 882,
      "##ě": 883,
      "##ű": 884,
      "##♫": 885,
      "##ٓ": 886,
      "##Ě": 887,
      "##ù": 888,
      "##å": 889,
      "##Ă": 890,
      "##֦": 891,
      "##Ţ": 892,
      "##堀": 893,
      "##п": 894,
      "##а": 895,
      "##о": 896,
      "##в": 897,
      "##ح": 898,
      "##॓": 899,
      "##": 900,
      "##続": 901,
      "##": 902,
      "##ા": 903,
      "##પ": 904,
      "##ુ": 905,
      "##−": 906,
      "##ʼ": 907,
      "##‎": 908,
      "##": 909,
      "##्र": 910,
      "##ार": 911,
      "है": 912,
      "##ें": 913,
      "के": 914,
      "##्य": 915,
      "##ों": 916,
      "और": 917,
      "##ान": 918,
      "में": 919,
      "##ने": 920,
      "##ता": 921,
      "कर": 922,
      "##िय": 923,
      "की": 924,
      "##र्": 925,
      "प्र": 926,
      "को": 927,
      "से": 928,
      "##िक": 929,
      "##्त": 930,
      "का": 931,
      "कि": 932,
      "##ना": 933,
      "##ाल": 934,
      "पर": 935,
      "##ित": 936,
      "हो": 937,
      "##िया": 938,
      "उन": 939,
      "##ही": 940,
      "##्व": 941,
      "##ते": 942,
      "उस": 943,
      "##िए": 944,
      "वि": 945,
      "हैं": 946,
      "इस": 947,
      "##के": 948,
      "सं": 949,
      "##ुम": 950,
      "##ोग": 951,
      "##ाह": 952,
      "जा": 953,
      "##ड़": 954,
      "एक": 955,
      "##्ष": 956,
      "##ास": 957,
      "तो": 958,
      "##्ट": 959,
      "अप": 960,
      "तुम": 961,
      "लिए": 962,
      "जो": 963,
      "##हीं": 964,
      "सम": 965,
      "##ाय": 966,
      "##ाम": 967,
      "##ति": 968,
      "##ती": 969,
      "हम": 970,
      "##िन": 971,
      "##्ह": 972,
      "दे": 973,
      "नहीं": 974,
      "##िस": 975,
      "भी": 976,
      "##ाद": 977,
      "##ात": 978,
      "##िल": 979,
      "नि": 980,
      "ने": 981,
      "##हा": 982,
      "##से": 983,
      "##्थ": 984,
      "##ाज": 985,
      "##री": 986,
      "##का": 987,
      "ही": 988,
      "अन": 989,
      "##कार": 990,
      "##ल्": 991,
      "##सी": 992,
      "यह": 993,
      "##्या": 994,
      "किया": 995,
      "##क्ष": 996,
      "##नी": 997,
      "##रा": 998,
      "##्म": 999,
      "##दा": 1000,
      "लोग": 1001,
      "##गा": 1002,
      "वह": 1003,
      "##या": 1004,
      "##की": 1005,
      "मु": 1006,
      "##ंत": 1007,
      "##िर": 1008,
      "सा": 1009,
      "कु": 1010,
      "##कर": 1011,
      "करने": 1012,
      "##ज़": 1013,
      "##ले": 1014,
      "या": 1015,
      "##ष्ट": 1016,
      "अध": 1017,
      "हु": 1018,
      "##ारा": 1019,
      "##न्": 1020,
      "##ला": 1021,
      "##ेश": 1022,
      "##ंग": 1023,
      "##क्त": 1024,
      "रह": 1025,
      "##वा": 1026,
      "##ारे": 1027,
      "अपने": 1028,
      "##ियों": 1029,
      "जिस": 1030,
      "वे": 1031,
      "कार": 1032,
      "##सा": 1033,
      "था": 1034,
      "सक": 1035,
      "##था": 1036,
      "ले": 1037,
      "##ाने": 1038,
      "##ारी": 1039,
      "उप": 1040,
      "##द्": 1041,
      "##ाप": 1042,
      "ख़": 1043,
      "##रे": 1044,
      "##च्": 1045,
      "##गे": 1046,
      "##्प": 1047,
      "##्री": 1048,
      "सु": 1049,
      "तुम्ह": 1050,
      "कुछ": 1051,
      "तथा": 1052,
      "पू": 1053,
      "उन्ह": 1054,
      "##स्त": 1055,
      "##ैं": 1056,
      "##में": 1057,
      "पह": 1058,
      "##ूप": 1059,
      "आप": 1060,
      "वाल": 1061,
      "##ूल": 1062,
      "##कि": 1063,
      "##ीन": 1064,
      "##ाव": 1065,
      "गया": 1066,
      "दो": 1067,
      "##मान": 1068,
      "किसी": 1069,
      "मे": 1070,
      "##ओं": 1071,
      "##मा": 1072,
      "##ंध": 1073,
      "जब": 1074,
      "भार": 1075,
      "##त्र": 1076,
      "स्व": 1077,
      "##दि": 1078,
      "##ुदा": 1079,
      "कोई": 1080,
      "उनके": 1081,
      "##ुर": 1082,
      "##ाग": 1083,
      "चाह": 1084,
      "##को": 1085,
      "साथ": 1086,
      "##ली": 1087,
      "द्व": 1088,
      "थे": 1089,
      "अधिक": 1090,
      "##ल्ल": 1091,
      "लोगों": 1092,
      "स्थ": 1093,
      "##वि": 1094,
      "##ंद": 1095,
      "अनु": 1096,
      "##द्ध": 1097,
      "तक": 1098,
      "करते": 1099,
      "विश": 1100,
      "रूप": 1101,
      "फिर": 1102,
      "व्य": 1103,
      "कह": 1104,
      "##्स": 1105,
      "बह": 1106,
      "उत": 1107,
      "##ुत": 1108,
      "रख": 1109,
      "ये": 1110,
      "##श्": 1111,
      "दिया": 1112,
      "जान": 1113,
      "##स्थ": 1114,
      "राज": 1115,
      "##ढ़": 1116,
      "निर्": 1117,
      "मैं": 1118,
      "##गी": 1119,
      "##ंड": 1120,
      "##ोज": 1121,
      "##ल्लाह": 1122,
      "द्वारा": 1123,
      "रा": 1124,
      "ख़ुदा": 1125,
      "अल्लाह": 1126,
      "तर": 1127,
      "##भी": 1128,
      "प्रति": 1129,
      "##क़": 1130,
      "जाए": 1131,
      "ज़": 1132,
      "##िव": 1133,
      "##द्य": 1134,
      "##र्व": 1135,
      "कार्य": 1136,
      "इन": 1137,
      "उसके": 1138,
      "क्ष": 1139,
      "वर्": 1140,
      "क्या": 1141,
      "##गर": 1142,
      "सब": 1143,
      "क़": 1144,
      "##देश": 1145,
      "##स्": 1146,
      "##िख": 1147,
      "साम": 1148,
      "##धार": 1149,
      "अपनी": 1150,
      "##ृत": 1151,
      "दू": 1152,
      "रहे": 1153,
      "मह": 1154,
      "जिन": 1155,
      "##फ़": 1156,
      "कहा": 1157,
      "सह": 1158,
      "देख": 1159,
      "अव": 1160,
      "##योग": 1161,
      "थी": 1162,
      "सर": 1163,
      "##क्ति": 1164,
      "##नों": 1165,
      "जाता": 1166,
      "बात": 1167,
      "##च्छ": 1168,
      "करें": 1169,
      "करना": 1170,
      "भारत": 1171,
      "##्ञ": 1172,
      "बना": 1173,
      "##जी": 1174,
      "##ुन": 1175,
      "##न्द": 1176,
      "##ानी": 1177,
      "उन्हें": 1178,
      "##क्र": 1179,
      "##बंध": 1180,
      "##रण": 1181,
      "##्यों": 1182,
      "##ाए": 1183,
      "राष्ट": 1184,
      "##ड़ा": 1185,
      "सी": 1186,
      "##ां": 1187,
      "जी": 1188,
      "##ाइ": 1189,
      "##्न": 1190,
      "##वाल": 1191,
      "##िम": 1192,
      "उसे": 1193,
      "##ाया": 1194,
      "हुए": 1195,
      "##ाना": 1196,
      "होता": 1197,
      "करता": 1198,
      "##र्ण": 1199,
      "सू": 1200,
      "##श्च": 1201,
      "कम": 1202,
      "##ड़े": 1203,
      "##ब्": 1204,
      "सि": 1205,
      "मिल": 1206,
      "##र्थ": 1207,
      "##िश": 1208,
      "##ार्": 1209,
      "आय": 1210,
      "##त्य": 1211,
      "##चार": 1212,
      "दी": 1213,
      "बी": 1214,
      "विक": 1215,
      "##ोंने": 1216,
      "##च्च": 1217,
      "##ुल": 1218,
      "##ंत्र": 1219,
      "बहुत": 1220,
      "##ाब": 1221,
      "पै": 1222,
      "सकता": 1223,
      "##बर": 1224,
      "##ाई": 1225,
      "##्रे": 1226,
      "गु": 1227,
      "मान": 1228,
      "##ाप्त": 1229,
      "दिन": 1230,
      "##ष्": 1231,
      "समय": 1232,
      "बे": 1233,
      "फ़": 1234,
      "जै": 1235,
      "बाद": 1236,
      "रहा": 1237,
      "तरह": 1238,
      "##पर": 1239,
      "हमने": 1240,
      "##ोक": 1241,
      "तुम्हारे": 1242,
      "##ड़ी": 1243,
      "पास": 1244,
      "##िप": 1245,
      "##दी": 1246,
      "क्षे": 1247,
      "##्ल": 1248,
      "काम": 1249,
      "##दान": 1250,
      "हुआ": 1251,
      "उनकी": 1252,
      "यदि": 1253,
      "##न्त": 1254,
      "##ंच": 1255,
      "##ज्ञ": 1256,
      "पहले": 1257,
      "##दार": 1258,
      "वाले": 1259,
      "##ूर": 1260,
      "##िका": 1261,
      "लग": 1262,
      "उन्होंने": 1263,
      "##कों": 1264,
      "##वन": 1265,
      "होगा": 1266,
      "क्षेत्र": 1267,
      "हू": 1268,
      "आव": 1269,
      "##र्श": 1270,
      "19": 1271,
      "##झे": 1272,
      "ओर": 1273,
      "पी": 1274,
      "##ियम": 1275,
      "हर": 1276,
      "##्ता": 1277,
      "राष्ट्र": 1278,
      "##ोल": 1279,
      "करो": 1280,
      "बन": 1281,
      "##भाव": 1282,
      "##ोट": 1283,
      "चु": 1284,
      "निक": 1285,
      "##ालय": 1286,
      "रस": 1287,
      "पा": 1288,
      "हमारे": 1289,
      "मा": 1290,
      "अंत": 1291,
      "20": 1292,
      "अच्छ": 1293,
      "##ेष": 1294,
      "##िट": 1295,
      "ऐसे": 1296,
      "होने": 1297,
      "##ौर": 1298,
      "##्रा": 1299,
      "उसकी": 1300,
      "दूस": 1301,
      "प्राप्त": 1302,
      "##्रीय": 1303,
      "देश": 1304,
      "अन्य": 1305,
      "##चना": 1306,
      "##ास्त": 1307,
      "##ेज": 1308,
      "गए": 1309,
      "सरकार": 1310,
      "विश्व": 1311,
      "गई": 1312,
      "##िये": 1313,
      "ईमान": 1314,
      "##पू": 1315,
      "बद": 1316,
      "##हां": 1317,
      "##्तर": 1318,
      "##क्षा": 1319,
      "वर्ष": 1320,
      "जन": 1321,
      "संबंध": 1322,
      "सकते": 1323,
      "##ेल": 1324,
      "बु": 1325,
      "अभ": 1326,
      "प्रकार": 1327,
      "##ाज़": 1328,
      "##ये": 1329,
      "##वाद": 1330,
      "ची": 1331,
      "##ीय": 1332,
      "अगर": 1333,
      "होती": 1334,
      "##र्म": 1335,
      "चाहिए": 1336,
      "इसके": 1337,
      "रसूल": 1338,
      "##ख़": 1339,
      "ला": 1340,
      "##श्य": 1341,
      "समझ": 1342,
      "##वं": 1343,
      "##िक्ष": 1344,
      "##धि": 1345,
      "##हाँ": 1346,
      "##वर": 1347,
      "ऐसा": 1348,
      "अब": 1349,
      "जाने": 1350,
      "बढ़": 1351,
      "सभी": 1352,
      "##धान": 1353,
      "मुझे": 1354,
      "पु": 1355,
      "##म्": 1356,
      "##तीय": 1357,
      "नाम": 1358,
      "नी": 1359,
      "करे": 1360,
      "##करण": 1361,
      "##गार": 1362,
      "अस": 1363,
      "##गत": 1364,
      "क्यों": 1365,
      "हों": 1366,
      "##ूम": 1367,
      "##पति": 1368,
      "##ेर": 1369,
      "कारण": 1370,
      "विभ": 1371,
      "##त्त": 1372,
      "पहु": 1373,
      "किए": 1374,
      "##्क": 1375,
      "##नि": 1376,
      "##ेद": 1377,
      "##हर": 1378,
      "##ेंगे": 1379,
      "चल": 1380,
      "##न्न": 1381,
      "उसने": 1382,
      "##ंक": 1383,
      "व्यक्ति": 1384,
      "##ध्य": 1385,
      "राज्य": 1386,
      "तुम्हें": 1387,
      "एवं": 1388,
      "परि": 1389,
      "ता": 1390,
      "##तर": 1391,
      "##ग्र": 1392,
      "हुई": 1393,
      "##ंप": 1394,
      "अनुस": 1395,
      "न्य": 1396,
      "दु": 1397,
      "राष्ट्रपति": 1398,
      "##ाष": 1399,
      "भारतीय": 1400,
      "##द्योग": 1401,
      "##किन": 1402,
      "##ोध": 1403,
      "उत्प": 1404,
      "भाग": 1405,
      "लिया": 1406,
      "विकास": 1407,
      "##ोर": 1408,
      "##ाली": 1409,
      "##ेक": 1410,
      "##ुद": 1411,
      "##र्त": 1412,
      "##स्था": 1413,
      "दिख": 1414,
      "##िति": 1415,
      "क्र": 1416,
      "##ँच": 1417,
      "प्रा": 1418,
      "##ुक्त": 1419,
      "लेकिन": 1420,
      "##माण": 1421,
      "दोनों": 1422,
      "##त्व": 1423,
      "मूल": 1424,
      "##ून": 1425,
      "अल": 1426,
      "##्याप": 1427,
      "##तः": 1428,
      "पूर्व": 1429,
      "जाती": 1430,
      "बि": 1431,
      "##ोजना": 1432,
      "##बी": 1433,
      "##पूर्ण": 1434,
      "##जन": 1435,
      "##वी": 1436,
      "##on": 1437,
      "अपना": 1438,
      "##शी": 1439,
      "बार": 1440,
      "##ेट": 1441,
      "उसका": 1442,
      "सद": 1443,
      "।\"": 1444,
      "##वल": 1445,
      "##िला": 1446,
      "मन": 1447,
      "##काश": 1448,
      "होते": 1449,
      "ऐसी": 1450,
      "ग्र": 1451,
      "##ष्ठ": 1452,
      "##िंग": 1453,
      "आर": 1454,
      "##्ड": 1455,
      "वाला": 1456,
      "जीवन": 1457,
      "प्रदान": 1458,
      "मौ": 1459,
      "परिव": 1460,
      "##ंट": 1461,
      "मार्": 1462,
      "जैसे": 1463,
      "##ियां": 1464,
      "माल": 1465,
      "मो": 1466,
      "मेरे": 1467,
      "वै": 1468,
      "बारे": 1469,
      "##an": 1470,
      "##ूट": 1471,
      "##क्रम": 1472,
      "विशेष": 1473,
      "प्रय": 1474,
      "वास्त": 1475,
      "##रिक": 1476,
      "##कृत": 1477,
      "रही": 1478,
      "##ादा": 1479,
      "चीज़": 1480,
      "दिल": 1481,
      "रु": 1482,
      "बीच": 1483,
      "लिख": 1484,
      "बाह": 1485,
      "उठ": 1486,
      "हाल": 1487,
      "वही": 1488,
      "हा": 1489,
      "रब": 1490,
      "##तों": 1491,
      "बै": 1492,
      "उनका": 1493,
      "##me": 1494,
      "##सर": 1495,
      "##दर्श": 1496,
      "##र्ष": 1497,
      "डाल": 1498,
      "##धिक": 1499,
      "दर": 1500,
      "मुख": 1501,
      "##मी": 1502,
      "##जा": 1503,
      "निय": 1504,
      "यु": 1505,
      "ताकि": 1506,
      "सहाय": 1507,
      "##चे": 1508,
      "हूँ": 1509,
      "##िन्न": 1510,
      "##कारी": 1511,
      "शिक्ष": 1512,
      "##चित": 1513,
      "कृ": 1514,
      "##तिक": 1515,
      "##ti": 1516,
      "पैदा": 1517,
      "हमें": 1518,
      "तब": 1519,
      "उसी": 1520,
      "निश्च": 1521,
      "##ाट": 1522,
      "##ूद": 1523,
      "उपयोग": 1524,
      "देने": 1525,
      "कै": 1526,
      "छो": 1527,
      "##क्": 1528,
      "##ची": 1529,
      "आधार": 1530,
      "केवल": 1531,
      "विचार": 1532,
      "पुर": 1533,
      "अम": 1534,
      "जाएगा": 1535,
      "##न्तु": 1536,
      "आस": 1537,
      "अर्थ": 1538,
      "मै": 1539,
      "##एं": 1540,
      "##शन": 1541,
      "##द्र": 1542,
      "##ेय": 1543,
      "सो": 1544,
      "##फल": 1545,
      "बस": 1546,
      "सेवा": 1547,
      "दूसरे": 1548,
      "##कता": 1549,
      "##िन्": 1550,
      "स्प": 1551,
      "##ल्प": 1552,
      "##मत": 1553,
      "हमारी": 1554,
      "बड़ा": 1555,
      "प्रत्य": 1556,
      "जिसमें": 1557,
      "आज": 1558,
      "##त्म": 1559,
      "##00": 1560,
      "##लों": 1561,
      "प्रभाव": 1562,
      "##िता": 1563,
      "आवश्य": 1564,
      "उनसे": 1565,
      "##र्क": 1566,
      "##ोप": 1567,
      "हि": 1568,
      "##ंभ": 1569,
      "##ियाँ": 1570,
      "बा": 1571,
      "परवर": 1572,
      "माम": 1573,
      "क्योंकि": 1574,
      "दृ": 1575,
      "##प्र": 1576,
      "जाते": 1577,
      "##दिगार": 1578,
      "बो": 1579,
      "##र्य": 1580,
      "देता": 1581,
      "अथ": 1582,
      "##ेत": 1583,
      "##ेह": 1584,
      "उससे": 1585,
      "##यी": 1586,
      "परवरदिगार": 1587,
      "प्रयोग": 1588,
      "सबसे": 1589,
      "स्थान": 1590,
      "इसमें": 1591,
      "##लिए": 1592,
      "##ुट": 1593,
      "व्यव": 1594,
      "##ित्र": 1595,
      "भेज": 1596,
      "##यन": 1597,
      "विष": 1598,
      "वाली": 1599,
      "##ूत": 1600,
      "सर्व": 1601,
      "बल्": 1602,
      "प्रश": 1603,
      "##वाह": 1604,
      "ग़": 1605,
      "##ृति": 1606,
      "##क्षण": 1607,
      "जाना": 1608,
      "##ंज": 1609,
      "जिसे": 1610,
      "इसे": 1611,
      "पार": 1612,
      "##ताव": 1613,
      "यात": 1614,
      "##..": 1615,
      "कभी": 1616,
      "शु": 1617,
      "मार्ग": 1618,
      "खु": 1619,
      "श्री": 1620,
      "##चा": 1621,
      "अधिकार": 1622,
      "##ज्ञान": 1623,
      "##खा": 1624,
      "अथवा": 1625,
      "लगा": 1626,
      "रो": 1627,
      "निर्धार": 1628,
      "घर": 1629,
      "पश्च": 1630,
      "##tion": 1631,
      "##ताब": 1632,
      "उत्पाद": 1633,
      "##णी": 1634,
      "##ाइल": 1635,
      "##भा": 1636,
      "##ुष": 1637,
      "##्ब": 1638,
      "##ेम": 1639,
      "##धा": 1640,
      "भाष": 1641,
      "सामान": 1642,
      "##त्ता": 1643,
      "वा": 1644,
      "न्याय": 1645,
      "##ंब": 1646,
      "##हार": 1647,
      "##ुनिया": 1648,
      "सकती": 1649,
      "##ख्या": 1650,
      "उनमें": 1651,
      "##भव": 1652,
      "##टी": 1653,
      "जिन्ह": 1654,
      "पहुँच": 1655,
      "##ंस": 1656,
      "विर": 1657,
      "इसलिए": 1658,
      "##ात्म": 1659,
      "##ोष": 1660,
      "मेरी": 1661,
      "##िकी": 1662,
      "कंप": 1663,
      "धारा": 1664,
      "उपल": 1665,
      "##ुक": 1666,
      "करती": 1667,
      "प्रस": 1668,
      "बच्च": 1669,
      "मू": 1670,
      "बल्कि": 1671,
      "बड़ी": 1672,
      "##व्य": 1673,
      "##ूह": 1674,
      "201": 1675,
      "कहते": 1676,
      "छोड़": 1677,
      "संप": 1678,
      "होना": 1679,
      "उनको": 1680,
      "खा": 1681,
      "##ोत": 1682,
      "योजना": 1683,
      "##ामी": 1684,
      "उपलब्": 1685,
      "##ब्द": 1686,
      "सूचना": 1687,
      "ज्ञ": 1688,
      "डर": 1689,
      "किस": 1690,
      "राष्ट्रीय": 1691,
      "##डी": 1692,
      "तै": 1693,
      "भर": 1694,
      "विषय": 1695,
      "##ame": 1696,
      "यही": 1697,
      "अलग": 1698,
      "याद": 1699,
      "व्याप": 1700,
      "##र्द": 1701,
      "##्टी": 1702,
      "शुर": 1703,
      "##वान": 1704,
      "सहायता": 1705,
      "यहाँ": 1706,
      "बैं": 1707,
      "अधिन": 1708,
      "उच्च": 1709,
      "##ाएँ": 1710,
      "इसी": 1711,
      "अध्य": 1712,
      "छोट": 1713,
      "##ोह": 1714,
      "बैठ": 1715,
      "##शा": 1716,
      "##क्रिया": 1717,
      "##ीक": 1718,
      "तरफ": 1719,
      "जर": 1720,
      "स्त": 1721,
      "हाथ": 1722,
      "पड़": 1723,
      "##ष्टि": 1724,
      "हूं": 1725,
      "इससे": 1726,
      "##ार्थ": 1727,
      "लोक": 1728,
      "##ासन": 1729,
      "सके": 1730,
      "अज़": 1731,
      "वस्त": 1732,
      "कर्म": 1733,
      "करके": 1734,
      "ब्र": 1735,
      "किताब": 1736,
      "शाम": 1737,
      "महत्व": 1738,
      "##श्व": 1739,
      "शिक्षा": 1740,
      "स्थाप": 1741,
      "प्रण": 1742,
      "होगी": 1743,
      "अधिनियम": 1744,
      "सामने": 1745,
      "उसमें": 1746,
      "संग": 1747,
      "##ाँ": 1748,
      "दूर": 1749,
      "##यं": 1750,
      "अंग": 1751,
      "अच्छा": 1752,
      "मद": 1753,
      "पुन": 1754,
      "##मीन": 1755,
      "##सल": 1756,
      "##वेश": 1757,
      "##मु": 1758,
      "अति": 1759,
      "उपलब्ध": 1760,
      "##न्द्र": 1761,
      "वित": 1762,
      "##ण्ड": 1763,
      "##ग़": 1764,
      "पत्र": 1765,
      "स्थिति": 1766,
      "लिये": 1767,
      "##ात्र": 1768,
      "होंगे": 1769,
      "##वाले": 1770,
      "pr": 1771,
      "##ताओं": 1772,
      "##कट": 1773,
      "आगे": 1774,
      "##्टर": 1775,
      "##न्ध": 1776,
      "तुम्हारी": 1777,
      "सम्म": 1778,
      "संस्थ": 1779,
      "##द्धि": 1780,
      "जिसके": 1781,
      "सुन": 1782,
      "देते": 1783,
      "##ानों": 1784,
      "आद": 1785,
      "लगे": 1786,
      "दौर": 1787,
      "योग": 1788,
      "अंतर": 1789,
      "तैय": 1790,
      "##फी": 1791,
      "लो": 1792,
      "विभिन्न": 1793,
      "घट": 1794,
      "##दाय": 1795,
      "प्रकाश": 1796,
      "दुनिया": 1797,
      "खुदा": 1798,
      "##er": 1799,
      "जहां": 1800,
      "इसका": 1801,
      "अधीन": 1802,
      "सदस": 1803,
      "##ंजी": 1804,
      "लाभ": 1805,
      "##ेन": 1806,
      "कें": 1807,
      "कई": 1808,
      "बता": 1809,
      "उद्": 1810,
      "##ंतु": 1811,
      "वास्तव": 1812,
      "पूरा": 1813,
      "निश्चय": 1814,
      "स्ट": 1815,
      "##तम": 1816,
      "मुख्य": 1817,
      "आए": 1818,
      "ज्य": 1819,
      "सुर": 1820,
      "अनुसार": 1821,
      "कौ": 1822,
      "##नेक": 1823,
      "आई": 1824,
      "##es": 1825,
      "##ैन": 1826,
      "भूम": 1827,
      "वृ": 1828,
      "##वर्": 1829,
      "स्पष्ट": 1830,
      "शक्ति": 1831,
      "सामान्य": 1832,
      "अज़ाब": 1833,
      "##ारों": 1834,
      "हिस": 1835,
      "##जर": 1836,
      "पीछ": 1837,
      "जल": 1838,
      "##हत": 1839,
      "तू": 1840,
      "प्रक्रिया": 1841,
      "मगर": 1842,
      "##्यान": 1843,
      "करेगा": 1844,
      "बड़े": 1845,
      "##र्ट": 1846,
      "शै": 1847,
      "##ोजन": 1848,
      "आपको": 1849,
      "उत्तर": 1850,
      "ज़र": 1851,
      "##िज": 1852,
      "अत्य": 1853,
      "##ित्व": 1854,
      "शामिल": 1855,
      "##वालों": 1856,
      "अग": 1857,
      "##ैर": 1858,
      "संस": 1859,
      "##पी": 1860,
      "इत": 1861,
      "कल": 1862,
      "पढ़": 1863,
      "पूर्ण": 1864,
      "##ाक": 1865,
      "जाएँ": 1866,
      "स्वयं": 1867,
      "प्रत्येक": 1868,
      "लाग": 1869,
      "200": 1870,
      "तुम्हारा": 1871,
      "##म्म": 1872,
      "धर": 1873,
      "शी": 1874,
      "धर्म": 1875,
      "गिर": 1876,
      "##रों": 1877,
      "##ेशक": 1878,
      "पानी": 1879,
      "तैयार": 1880,
      "दौरान": 1881,
      "गो": 1882,
      "##वाला": 1883,
      "गये": 1884,
      "जु": 1885,
      "भाषा": 1886,
      "बन्द": 1887,
      "शब्द": 1888,
      "कान": 1889,
      "बेह": 1890,
      "पूरी": 1891,
      "##ूब": 1892,
      "बर": 1893,
      "भाव": 1894,
      "साह": 1895,
      "बाहर": 1896,
      "तीन": 1897,
      "##णा": 1898,
      "##धन": 1899,
      "गयी": 1900,
      "ज्ञान": 1901,
      "##ग्रह": 1902,
      "मत": 1903,
      "अनुम": 1904,
      "बेशक": 1905,
      "संख्या": 1906,
      "रखा": 1907,
      "पहुंच": 1908,
      "अवसर": 1909,
      "ली": 1910,
      "विन": 1911,
      "चाहता": 1912,
      "जग": 1913,
      "##टा": 1914,
      "पता": 1915,
      "फै": 1916,
      "स्तर": 1917,
      "संबंधित": 1918,
      "##तंत्र": 1919,
      "आग": 1920,
      "पि": 1921,
      "##ोन": 1922,
      "ठीक": 1923,
      "अनेक": 1924,
      "##स्ट": 1925,
      "संघ": 1926,
      "##ज़ा": 1927,
      "##ालन": 1928,
      "##्सा": 1929,
      "मैंने": 1930,
      "ते": 1931,
      "उद": 1932,
      "जिसने": 1933,
      "चाहते": 1934,
      "नियम": 1935,
      "ज़मीन": 1936,
      "स्वी": 1937,
      "##थम": 1938,
      "विद्य": 1939,
      "आदि": 1940,
      "##दू": 1941,
      "बदल": 1942,
      "सौ": 1943,
      "##स्ताव": 1944,
      "आम": 1945,
      "बनाने": 1946,
      "परिण": 1947,
      "निर्माण": 1948,
      "##युक्त": 1949,
      "वस्तु": 1950,
      "पृ": 1951,
      "निकाल": 1952,
      "परिवर्त": 1953,
      "##शत": 1954,
      "##ायी": 1955,
      "रंग": 1956,
      "यू": 1957,
      "ऊपर": 1958,
      "किन्तु": 1959,
      "अं": 1960,
      "शरी": 1961,
      "ना": 1962,
      "##िष्ट": 1963,
      "##al": 1964,
      "धरती": 1965,
      "##तन": 1966,
      "बनाया": 1967,
      "##र्इ": 1968,
      "प्रौ": 1969,
      "मौज": 1970,
      "##िब": 1971,
      "शुरू": 1972,
      "##वास": 1973,
      "पीछे": 1974,
      "##ंख": 1975,
      "##रूप": 1976,
      "रे": 1977,
      "##वार": 1978,
      "##ौम": 1979,
      "अक": 1980,
      "बिल": 1981,
      "##ख्त": 1982,
      "नई": 1983,
      "##शील": 1984,
      "उद्योग": 1985,
      "##स्प": 1986,
      "आपके": 1987,
      "लौ": 1988,
      "देखा": 1989,
      "##दे": 1990,
      "##मुख": 1991,
      "देना": 1992,
      "मध्य": 1993,
      "##कृति": 1994,
      "संस्": 1995,
      "मर": 1996,
      "संर": 1997,
      "आत्म": 1998,
      "प्रयास": 1999,
      "अच्छे": 2000,
      "अतः": 2001,
      "मदद": 2002,
      "यहां": 2003,
      "इनकार": 2004,
      "##र्ज": 2005,
      "तुमसे": 2006,
      "चाहे": 2007,
      "झु": 2008,
      "जिसका": 2009,
      "रुप": 2010,
      "##ाएं": 2011,
      "कार्यक्रम": 2012,
      "गुण": 2013,
      "##बा": 2014,
      "परिणाम": 2015,
      "होकर": 2016,
      "लड़": 2017,
      "निश": 2018,
      "समाज": 2019,
      "गुना": 2020,
      "जबकि": 2021,
      "ध्यान": 2022,
      "हेत": 2023,
      "##ियो": 2024,
      "##विध": 2025,
      "##हास": 2026,
      "बिना": 2027,
      "रखने": 2028,
      "निर्धारित": 2029,
      "प्रतिशत": 2030,
      "##टर": 2031,
      "मानव": 2032,
      "मी": 2033,
      "नीचे": 2034,
      "आर्थ": 2035,
      "बच": 2036,
      "##ॉल": 2037,
      "##एँ": 2038,
      "लेख": 2039,
      "लेकर": 2040,
      "##स्व": 2041,
      "वित्त": 2042,
      "##ांत": 2043,
      "चुन": 2044,
      "हेतु": 2045,
      "जारी": 2046,
      "व्यक्त": 2047,
      "##गें": 2048,
      "...": 2049,
      "##क्षित": 2050,
      "प्रार": 2051,
      "प्रौद्योग": 2052,
      "बैंक": 2053,
      "बरा": 2054,
      "विश्वास": 2055,
      "मेरा": 2056,
      "वक्त": 2057,
      "44": 2058,
      "जानता": 2059,
      "गति": 2060,
      "समुद": 2061,
      "##्ति": 2062,
      "##र्ड": 2063,
      "स्क": 2064,
      "हुक": 2065,
      "राह": 2066,
      "##इट": 2067,
      "त्र": 2068,
      "##म्बर": 2069,
      "कठ": 2070,
      "आदेश": 2071,
      "##ंह": 2072,
      "आर्थिक": 2073,
      "करेंगे": 2074,
      "कहीं": 2075,
      "रोग": 2076,
      "स्": 2077,
      "##्रम": 2078,
      "सफल": 2079,
      "गा": 2080,
      "रहने": 2081,
      "मज": 2082,
      "महत्वपूर्ण": 2083,
      "दिए": 2084,
      "आख़": 2085,
      "सिवा": 2086,
      "सारे": 2087,
      "क़ौम": 2088,
      "रखते": 2089,
      "##गम": 2090,
      "हिन्": 2091,
      "ती": 2092,
      "प्रभ": 2093,
      "निस": 2094,
      "फर": 2095,
      "आने": 2096,
      "समान": 2097,
      "अच्छी": 2098,
      "जनता": 2099,
      "इसकी": 2100,
      "##वरण": 2101,
      "समस": 2102,
      "पूछ": 2103,
      "जैसा": 2104,
      "निकल": 2105,
      "##नीय": 2106,
      "##पि": 2107,
      "##वादी": 2108,
      "अभी": 2109,
      "निम": 2110,
      "विदेश": 2111,
      "यक़": 2112,
      "वाय": 2113,
      "सीमा": 2114,
      "माध्य": 2115,
      "##ेशन": 2116,
      "¤¾": 2117,
      "##la": 2118,
      "जगह": 2119,
      "पक्ष": 2120,
      "##बाद": 2121,
      "बदला": 2122,
      "##it": 2123,
      "आवश्यकता": 2124,
      "प्रमुख": 2125,
      "उसको": 2126,
      "जाओ": 2127,
      "बराबर": 2128,
      "कृष": 2129,
      "रोक": 2130,
      "##एस": 2131,
      "##िज़": 2132,
      "मूल्य": 2133,
      "सूची": 2134,
      "काफी": 2135,
      "जीव": 2136,
      "आया": 2137,
      "##ूं": 2138,
      "समूह": 2139,
      "##त्या": 2140,
      "ज्यादा": 2141,
      "वी": 2142,
      "क्षेत्रों": 2143,
      "पत": 2144,
      "सच्च": 2145,
      "##र्भ": 2146,
      "नीति": 2147,
      "''": 2148,
      "जानते": 2149,
      "##वे": 2150,
      "##र्च": 2151,
      "धार": 2152,
      "##हरा": 2153,
      "चि": 2154,
      "##शि": 2155,
      "प्रमाण": 2156,
      "स्वीकार": 2157,
      "अर": 2158,
      "उत्त": 2159,
      "तरी": 2160,
      "तुमने": 2161,
      "##िश्त": 2162,
      "समस्या": 2163,
      "पड़े": 2164,
      "प्रबंध": 2165,
      "##ee": 2166,
      "नम": 2167,
      "##ab": 2168,
      "##दम": 2169,
      "##ूँ": 2170,
      "##तिहास": 2171,
      "पस": 2172,
      "##धी": 2173,
      "ऋण": 2174,
      "##ुप": 2175,
      "विस्त": 2176,
      "कोश": 2177,
      "सुधार": 2178,
      "कहने": 2179,
      "अंतर्": 2180,
      "##ात्मक": 2181,
      "सम्ब": 2182,
      "कवि": 2183,
      "##ास्थ": 2184,
      "##भाष": 2185,
      "##ic": 2186,
      "अन्त": 2187,
      "मामले": 2188,
      "श्रे": 2189,
      "सार": 2190,
      "पुस्त": 2191,
      "मूसा": 2192,
      "जानकारी": 2193,
      "यातना": 2194,
      "रात": 2195,
      "प्रौद्योगिकी": 2196,
      "न्यायालय": 2197,
      "पद": 2198,
      "आकाश": 2199,
      "वहां": 2200,
      "सिद्ध": 2201,
      "¥": 2202,
      "चार": 2203,
      "बुरा": 2204,
      "##लो": 2205,
      "नियंत्र": 2206,
      "फ़ाइल": 2207,
      "तु": 2208,
      "व्या": 2209,
      "उद्देश": 2210,
      "##्ले": 2211,
      "##विद्य": 2212,
      "गण": 2213,
      "##ेदन": 2214,
      "भवन": 2215,
      "माध्यम": 2216,
      "##ाजिक": 2217,
      "##र्फ": 2218,
      "पिछ": 2219,
      "मार": 2220,
      "जमा": 2221,
      "ht": 2222,
      "संदेश": 2223,
      "दा": 2224,
      "##मता": 2225,
      "##चन": 2226,
      "साल": 2227,
      "चुके": 2228,
      "##्यता": 2229,
      "##कर्": 2230,
      "लाए": 2231,
      "##ठन": 2232,
      "कुल": 2233,
      "18": 2234,
      "विभाग": 2235,
      "##विद्यालय": 2236,
      "##धे": 2237,
      "##ियन": 2238,
      "##भग": 2239,
      "सामाजिक": 2240,
      "एस": 2241,
      "धन": 2242,
      "हुक्म": 2243,
      "आवश्यक": 2244,
      "##in": 2245,
      "##िस्ट": 2246,
      "लगभग": 2247,
      "दक्ष": 2248,
      "नही": 2249,
      "रहते": 2250,
      "रू": 2251,
      "पश्चात": 2252,
      "मिट": 2253,
      "दें": 2254,
      "जिससे": 2255,
      "जह": 2256,
      "अवधि": 2257,
      "सहयोग": 2258,
      "लेने": 2259,
      "कंपनी": 2260,
      "##ृत्य": 2261,
      "कृषि": 2262,
      "10": 2263,
      "वर्ग": 2264,
      "माँ": 2265,
      "केंद्र": 2266,
      "in": 2267,
      "##ोर्ट": 2268,
      "प्रणाली": 2269,
      "##ंत्री": 2270,
      "भु": 2271,
      "पाठ": 2272,
      "प्रस्त": 2273,
      "परिय": 2274,
      "##लत": 2275,
      "तुमको": 2276,
      "कित": 2277,
      "सल": 2278,
      "##चान": 2279,
      "सही": 2280,
      "समर्थ": 2281,
      "##काल": 2282,
      "निर्ण": 2283,
      "##्ली": 2284,
      "परियोजना": 2285,
      "पेश": 2286,
      "वालों": 2287,
      "##टे": 2288,
      "आख़िर": 2289,
      "मनुष": 2290,
      "हिंद": 2291,
      "संद": 2292,
      "चौ": 2293,
      "खंड": 2294,
      "आसमान": 2295,
      "सत्य": 2296,
      "##धारा": 2297,
      "कौन": 2298,
      "##ोस": 2299,
      "जिन्हें": 2300,
      "##र्स": 2301,
      "संवि": 2302,
      "अतिरिक": 2303,
      "##ित्य": 2304,
      "जाएगी": 2305,
      "व्यापार": 2306,
      "##बार": 2307,
      "##डर": 2308,
      "स्थापित": 2309,
      "¤": 2310,
      "बल": 2311,
      "##ाला": 2312,
      "¤°": 2313,
      "विश्वविद्यालय": 2314,
      "##दिष्ट": 2315,
      "सभा": 2316,
      "चुका": 2317,
      "##आई": 2318,
      "##यों": 2319,
      "डी": 2320,
      "भू": 2321,
      "##सम": 2322,
      "सत": 2323,
      "निर": 2324,
      "अह": 2325,
      "इन्": 2326,
      "##ेयर": 2327,
      "विज्ञान": 2328,
      "टी": 2329,
      "हक़": 2330,
      "##ंदर": 2331,
      "दर्श": 2332,
      "kg": 2333,
      "स्थित": 2334,
      "जाये": 2335,
      "##ेगा": 2336,
      "युद्ध": 2337,
      "kgm": 2338,
      "##द्द": 2339,
      "##तें": 2340,
      "वहाँ": 2341,
      "##मित": 2342,
      "मुसल": 2343,
      "कॉ": 2344,
      "काल": 2345,
      "उत्पादन": 2346,
      "परी": 2347,
      "##्ज": 2348,
      "लागू": 2349,
      "एन": 2350,
      "वास्ते": 2351,
      "अमेर": 2352,
      "निस्स": 2353,
      "विंड": 2354,
      "##लेख": 2355,
      "मंत्र": 2356,
      "मुसलमान": 2357,
      "प्रती": 2358,
      "##or": 2359,
      "लक्ष": 2360,
      "##्यास": 2361,
      "हमारा": 2362,
      "##्श": 2363,
      "परिवर्तन": 2364,
      "परन्तु": 2365,
      "तौर": 2366,
      "प्रदर्श": 2367,
      "परिस": 2368,
      "मात": 2369,
      "सम्प": 2370,
      "अतिरिक्त": 2371,
      "##हन": 2372,
      "सुरक्षा": 2373,
      "बाल": 2374,
      "##्यूट": 2375,
      "समा": 2376,
      "दूसरी": 2377,
      "झुठ": 2378,
      "जोड़": 2379,
      "समाप्त": 2380,
      "वेब": 2381,
      "स्वतंत्र": 2382,
      "##ांति": 2383,
      "राम": 2384,
      "##पाल": 2385,
      "दृष्टि": 2386,
      "देशों": 2387,
      "व्यवस्था": 2388,
      "सम्बन्ध": 2389,
      "थो": 2390,
      "नाग": 2391,
      "थीं": 2392,
      "निम्न": 2393,
      "##बल": 2394,
      "क्रिया": 2395,
      "शरीर": 2396,
      "##द्व": 2397,
      "मंद": 2398,
      "name": 2399,
      "देखते": 2400,
      "##ंधी": 2401,
      "आन": 2402,
      "जिनके": 2403,
      "महान": 2404,
      "पश्चिम": 2405,
      "अर्": 2406,
      "##वाई": 2407,
      "##ज़ी": 2408,
      "##ष्ण": 2409,
      "खोल": 2410,
      "##ामत": 2411,
      "##ंदेह": 2412,
      "विशिष्ट": 2413,
      "##ुद्ध": 2414,
      "अप्र": 2415,
      "##ज़र": 2416,
      "##ot": 2417,
      "देगा": 2418,
      "सिर्फ": 2419,
      "##ran": 2420,
      "इस्ल": 2421,
      "उद्देश्य": 2422,
      "अधिकारी": 2423,
      "अपे": 2424,
      "##ण्": 2425,
      "बाज": 2426,
      "##ील": 2427,
      "##र्ति": 2428,
      "सदस्य": 2429,
      "मिला": 2430,
      "क्षमता": 2431,
      "पक": 2432,
      "चला": 2433,
      "सच": 2434,
      "निस्संदेह": 2435,
      "वाप": 2436,
      "राशि": 2437,
      "अंग्रे": 2438,
      "##ption": 2439,
      "##दर": 2440,
      "##यान": 2441,
      "##ेंट": 2442,
      "##त्ति": 2443,
      "प्रेम": 2444,
      "जिन्होंने": 2445,
      "वर्त": 2446,
      "अंतर्गत": 2447,
      "खेल": 2448,
      "प्रश्": 2449,
      "##ूठ": 2450,
      "##िले": 2451,
      "##ुओं": 2452,
      "##ेशा": 2453,
      "##राही": 2454,
      "¥": 2455,
      "संक": 2456,
      "जरूर": 2457,
      "शिक": 2458,
      "##ान्त": 2459,
      "नाज़": 2460,
      "बनाए": 2461,
      "12": 2462,
      "##िस्त": 2463,
      "##ज्ञा": 2464,
      "कट": 2465,
      "##ंधान": 2466,
      "बाग": 2467,
      "एक्स": 2468,
      "बच्चों": 2469,
      "##पन": 2470,
      "गुनाह": 2471,
      "##ोगे": 2472,
      "यक़ीन": 2473,
      "संत": 2474,
      "छोटे": 2475,
      "पट": 2476,
      "##nt": 2477,
      "##क्स": 2478,
      "##्यू": 2479,
      "##म्ब": 2480,
      "साहित्य": 2481,
      "जहन्न": 2482,
      "##ैस": 2483,
      "खोज": 2484,
      "बज": 2485,
      "प्रस्तुत": 2486,
      "##षण": 2487,
      "निर्णय": 2488,
      "तत्व": 2489,
      "नौ": 2490,
      "##ीद": 2491,
      "##ग्री": 2492,
      "भाई": 2493,
      "##धारण": 2494,
      "परंतु": 2495,
      "निवेश": 2496,
      "विध": 2497,
      "##सित": 2498,
      "लगता": 2499,
      "यात्रा": 2500,
      "जहाँ": 2501,
      "दक्षि": 2502,
      "पुकार": 2503,
      "हमेशा": 2504,
      "##क्षम": 2505,
      "वर्ण": 2506,
      "##पत्र": 2507,
      "##दारों": 2508,
      "स्वास्थ": 2509,
      "वर्षों": 2510,
      "भला": 2511,
      "कैसे": 2512,
      "बहु": 2513,
      "फ़र": 2514,
      "नाज़िल": 2515,
      "प्रारंभ": 2516,
      "पाक": 2517,
      "आक": 2518,
      "##बद्ध": 2519,
      "महिला": 2520,
      "बाप": 2521,
      "##कृतिक": 2522,
      "लौट": 2523,
      "अनुसंधान": 2524,
      "भेजा": 2525,
      "बेहतर": 2526,
      "option": 2527,
      "रचना": 2528,
      "लाने": 2529,
      "शहर": 2530,
      "बोल": 2531,
      "##ाहरण": 2532,
      "nan": 2533,
      "##स्थित": 2534,
      "जिसकी": 2535,
      "जल्": 2536,
      "रहता": 2537,
      "पैग़": 2538,
      "##ड़ों": 2539,
      "वर्तमान": 2540,
      "##डा": 2541,
      "दिव": 2542,
      "गुम": 2543,
      "##िना": 2544,
      "संस्था": 2545,
      "कोर्इ": 2546,
      "जन्म": 2547,
      "मनुष्य": 2548,
      "बढ़ा": 2549,
      "स्वास्थ्य": 2550,
      "##ष्ट्रीय": 2551,
      "##चल": 2552,
      "उदाहरण": 2553,
      "आकार": 2554,
      "हट": 2555,
      "##्साह": 2556,
      "##भर": 2557,
      "##पुर": 2558,
      "आरंभ": 2559,
      "उपधारा": 2560,
      "अनुभव": 2561,
      "मांग": 2562,
      "दिखा": 2563,
      "विधि": 2564,
      "क़य": 2565,
      "##िम्म": 2566,
      "##हित": 2567,
      "15": 2568,
      "भूमि": 2569,
      "निर्धारण": 2570,
      "इतिहास": 2571,
      "उद्य": 2572,
      "किये": 2573,
      "##नाथ": 2574,
      "दिश": 2575,
      "राजनी": 2576,
      "##००": 2577,
      "##rans": 2578,
      "##तियों": 2579,
      "##्रेस": 2580,
      "फल": 2581,
      "कप": 2582,
      "प्रशिक्ष": 2583,
      "नए": 2584,
      "एम": 2585,
      "##तिम": 2586,
      "##सं": 2587,
      "##ेड": 2588,
      "घोष": 2589,
      "चिक": 2590,
      "##ीकरण": 2591,
      "वार": 2592,
      "झूठ": 2593,
      "##श्म": 2594,
      "मुक़": 2595,
      "मौजूद": 2596,
      "##ेप": 2597,
      "मृत्य": 2598,
      "श्र": 2599,
      "trans": 2600,
      "##ीर": 2601,
      "##विधा": 2602,
      "क़ुर": 2603,
      "##वाब": 2604,
      "मंदिर": 2605,
      "##le": 2606,
      "बंग": 2607,
      "मित्र": 2608,
      "घटना": 2609,
      "क्ल": 2610,
      "optional": 2611,
      "क़यामत": 2612,
      "##ूरी": 2613,
      "लेते": 2614,
      "##ॉन": 2615,
      "##कम": 2616,
      "इस्त": 2617,
      "##साय": 2618,
      "##ादी": 2619,
      "11": 2620,
      "##िकता": 2621,
      "पृष्ठ": 2622,
      "प्रधान": 2623,
      "प्रस्ताव": 2624,
      "transla": 2625,
      "##ियान": 2626,
      "निशान": 2627,
      "विरोध": 2628,
      "सिंह": 2629,
      "प्रवेश": 2630,
      "ट्र": 2631,
      "आदमी": 2632,
      "लाख": 2633,
      "संसा": 2634,
      "##डियो": 2635,
      "कमी": 2636,
      "विकसित": 2637,
      "संबंधी": 2638,
      "जाय": 2639,
      "##रीब": 2640,
      "##सान": 2641,
      "उनपर": 2642,
      "प्रदेश": 2643,
      "##ल्म": 2644,
      "संस्थान": 2645,
      "फिल": 2646,
      "##्ष्": 2647,
      "##ेस": 2648,
      "##श्छ": 2649,
      "##ाज्य": 2650,
      "पुरुष": 2651,
      "आधारित": 2652,
      "##कर्ता": 2653,
      "तम": 2654,
      "क्षमा": 2655,
      "पाया": 2656,
      "##जों": 2657,
      "संविधान": 2658,
      "गं": 2659,
      "संभव": 2660,
      "##ाइन": 2661,
      "कांग": 2662,
      "माना": 2663,
      "ऊण्": 2664,
      "##ंथ": 2665,
      "अभि": 2666,
      "##श्छ्ष्": 2667,
      "ऊण्श्छ्ष्": 2668,
      "गांधी": 2669,
      "कला": 2670,
      "प्रग": 2671,
      "जाएँगे": 2672,
      "विवरण": 2673,
      "दिल्ली": 2674,
      "##ोक्ता": 2675,
      "चित्र": 2676,
      "##सू": 2677,
      "सोच": 2678,
      "पुस्तक": 2679,
      "संच": 2680,
      "##शल": 2681,
      "नियंत्रण": 2682,
      "?\"": 2683,
      "##र्जा": 2684,
      "प्रथम": 2685,
      "##र्जी": 2686,
      "सत्ता": 2687,
      "संयुक्त": 2688,
      "##वृत": 2689,
      "भिन्न": 2690,
      "##क्ट": 2691,
      "हिस्सा": 2692,
      "##लू": 2693,
      "निर्देश": 2694,
      "विदेशी": 2695,
      "अंतिम": 2696,
      "##ल्क": 2697,
      "स्म": 2698,
      "मृत्यु": 2699,
      "अफ": 2700,
      "तंत्र": 2701,
      "निश्चित": 2702,
      "##ष्य": 2703,
      "##डे": 2704,
      "वित्तीय": 2705,
      "रहो": 2706,
      "##निर्": 2707,
      "वृद्धि": 2708,
      "##र्ग": 2709,
      "##पट": 2710,
      "सार्व": 2711,
      "##ँह": 2712,
      "##ायद": 2713,
      "बाहरी": 2714,
      "खुल": 2715,
      "दिनों": 2716,
      "दिशा": 2717,
      "बातें": 2718,
      "##ुस": 2719,
      "##पूर्व": 2720,
      "##श्चित": 2721,
      "##चर": 2722,
      "##शाली": 2723,
      "पौ": 2724,
      "रिप": 2725,
      "मालूम": 2726,
      "सरकारी": 2727,
      "##ar": 2728,
      "नया": 2729,
      "##टन": 2730,
      "##ाये": 2731,
      "प्रश्न": 2732,
      "सुविधा": 2733,
      "शा": 2734,
      "पहचान": 2735,
      "पहली": 2736,
      "बच्चे": 2737,
      "खुद": 2738,
      "उठा": 2739,
      "अत्यन्त": 2740,
      "आध": 2741,
      "चाल": 2742,
      "कृप": 2743,
      "इतना": 2744,
      "रखता": 2745,
      "##्रिय": 2746,
      "पैग़म्बर": 2747,
      "महा": 2748,
      "शख": 2749,
      "##स्ती": 2750,
      "प्राधिक": 2751,
      "शख्स": 2752,
      "##इन": 2753,
      "उत्पन्न": 2754,
      "##भूत": 2755,
      "सेना": 2756,
      "199": 2757,
      "अला": 2758,
      "##ंश": 2759,
      "परिवार": 2760,
      "यक़ीनन": 2761,
      "अध्ययन": 2762,
      "##मे": 2763,
      "काफ़": 2764,
      "बंद": 2765,
      "भुगत": 2766,
      "आश": 2767,
      "##िफ": 2768,
      "इस्लाम": 2769,
      "##ly": 2770,
      "स्थापना": 2771,
      "बाज़": 2772,
      "नव": 2773,
      "##ोजित": 2774,
      "बातों": 2775,
      "भावना": 2776,
      "तौ": 2777,
      "चले": 2778,
      "ज़रूर": 2779,
      "##ार्ड": 2780,
      "त्रुट": 2781,
      "##शोध": 2782,
      "शासन": 2783,
      "अग्र": 2784,
      "##ंसा": 2785,
      "##एम": 2786,
      "##वाली": 2787,
      "कहो": 2788,
      "लें": 2789,
      "सहायक": 2790,
      "भीतर": 2791,
      "मुँह": 2792,
      "विस्तार": 2793,
      "विप": 2794,
      "भूमिका": 2795,
      "##टक": 2796,
      "पे": 2797,
      "मात्रा": 2798,
      "छिप": 2799,
      "##ानीय": 2800,
      "##दय": 2801,
      "सुना": 2802,
      "##साइट": 2803,
      "चिकित": 2804,
      "प्रगति": 2805,
      "##at": 2806,
      "पुनः": 2807,
      "मही": 2808,
      "सज": 2809,
      "देव": 2810,
      "##बान": 2811,
      "##्मिक": 2812,
      "कुफ": 2813,
      "##ity": 2814,
      "##ैंड": 2815,
      "¤¸": 2816,
      "निकट": 2817,
      "लिखा": 2818,
      "स्थानीय": 2819,
      "बाजार": 2820,
      "##ob": 2821,
      "उपकरण": 2822,
      "¤¿": 2823,
      "ईसा": 2824,
      "##ांव": 2825,
      "##ेमाल": 2826,
      "##स्ल": 2827,
      "##स्ता": 2828,
      "सेट": 2829,
      "वज": 2830,
      "आत": 2831,
      "घाट": 2832,
      "उल्": 2833,
      "निर्य": 2834,
      "नाट": 2835,
      "दक्षिण": 2836,
      "इस्तेमाल": 2837,
      "प्रकृति": 2838,
      "संभाव": 2839,
      "ब्य": 2840,
      "भुगतान": 2841,
      "उल": 2842,
      "सन्": 2843,
      "##िखित": 2844,
      "इब": 2845,
      "जि": 2846,
      "##खी": 2847,
      "केन्द्र": 2848,
      "मश": 2849,
      "##ोम": 2850,
      "मुझ": 2851,
      "निर्यात": 2852,
      "धी": 2853,
      "##त्त्व": 2854,
      "समिति": 2855,
      "do": 2856,
      "##वाही": 2857,
      "लक्ष्य": 2858,
      "पिछले": 2859,
      "बयान": 2860,
      "##ेज़": 2861,
      "श्रेणी": 2862,
      "स्र": 2863,
      "ब्रिट": 2864,
      "मॉ": 2865,
      "तकनी": 2866,
      "साफ": 2867,
      "जैसी": 2868,
      "कांग्रेस": 2869,
      "सक्रिय": 2870,
      "राजा": 2871,
      "अमेरिका": 2872,
      "##्राम": 2873,
      "अलावा": 2874,
      "##श्वर": 2875,
      "##-#": 2876,
      "translation": 2877,
      "इच्छ": 2878,
      "##st": 2879,
      "नागरिक": 2880,
      "मिश": 2881,
      "##िवार": 2882,
      "##गाह": 2883,
      "स्कूल": 2884,
      "सफलता": 2885,
      "अनुमति": 2886,
      "¤": 2887,
      "##्वी": 2888,
      "हित": 2889,
      "##ासी": 2890,
      "जांच": 2891,
      "देखने": 2892,
      "उपबंध": 2893,
      "अनुप": 2894,
      "संसद": 2895,
      "वापस": 2896,
      "इंड": 2897,
      "##हरी": 2898,
      "##िस्तान": 2899,
      "पहा": 2900,
      "प्रकट": 2901,
      "उन्": 2902,
      "##क्षर": 2903,
      "वेबसाइट": 2904,
      "##eed": 2905,
      "आयतों": 2906,
      "शुभ": 2907,
      "##नाव": 2908,
      "तुल": 2909,
      "अपरा": 2910,
      "अन्": 2911,
      "सामग्री": 2912,
      "##मिन": 2913,
      "जित": 2914,
      "##रल": 2915,
      "जिनमें": 2916,
      "पूंजी": 2917,
      "##गल": 2918,
      "##//": 2919,
      "शायद": 2920,
      "प्रशिक्षण": 2921,
      "चयन": 2922,
      "वो": 2923,
      "##वरी": 2924,
      "not": 2925,
      "सहित": 2926,
      "##ापन": 2927,
      "अपेक्षा": 2928,
      "वजह": 2929,
      "चाहिये": 2930,
      "##ष्क": 2931,
      "##मन": 2932,
      "##ानि": 2933,
      "रखो": 2934,
      "##ांस": 2935,
      "##ज्ञानिक": 2936,
      "उल्लेख": 2937,
      "दौ": 2938,
      "पिता": 2939,
      "##चारी": 2940,
      "कानून": 2941,
      "##ांश": 2942,
      "need": 2943,
      "¤¨": 2944,
      "तहत": 2945,
      "प्रबंधन": 2946,
      "गुर": 2947,
      "आधुन": 2948,
      "##ष्प": 2949,
      "भवि": 2950,
      "मामलों": 2951,
      "सदस्यों": 2952,
      "##ड़क": 2953,
      "देती": 2954,
      "हास": 2955,
      "सख्त": 2956,
      "वर": 2957,
      "##वीं": 2958,
      "संगठन": 2959,
      "##ुआ": 2960,
      "##म्प": 2961,
      "##िको": 2962,
      "बदले": 2963,
      "रिपोर्ट": 2964,
      "##भू": 2965,
      "क्रम": 2966,
      "किंतु": 2967,
      "##िन्द": 2968,
      "खरी": 2969,
      "सिर": 2970,
      "जरूरत": 2971,
      "सम्मान": 2972,
      "भविष्य": 2973,
      "##श्त": 2974,
      "नेट": 2975,
      "कम्प": 2976,
      "पड़ा": 2977,
      "रहेंगे": 2978,
      "सुनि": 2979,
      "##र्प": 2980,
      "##ंगे": 2981,
      "त्रुटि": 2982,
      "उचित": 2983,
      "कोशिश": 2984,
      "##ेंस": 2985,
      "##ंतर": 2986,
      "सप": 2987,
      "##िथ": 2988,
      "##ायल": 2989,
      "शीर्ष": 2990,
      "##्यूटर": 2991,
      "दाय": 2992,
      "##ैतिक": 2993,
      "प्राय": 2994,
      "अर्थात": 2995,
      "आतंक": 2996,
      "संशोध": 2997,
      "सका": 2998,
      "योग्य": 2999,
      "##म्भ": 3000,
      "राज्यों": 3001,
      "अवश्य": 3002,
      "औद्योग": 3003,
      "संके": 3004,
      "निर्दिष्ट": 3005,
      "उम्म": 3006,
      "प्रशासन": 3007,
      "://": 3008,
      "##फा": 3009,
      "स्त्र": 3010,
      "मोह": 3011,
      "इनमें": 3012,
      "दस्ताव": 3013,
      "##ौती": 3014,
      "##्याप्त": 3015,
      "मजब": 3016,
      "##स्कार": 3017,
      "##ूर्ण": 3018,
      "डि": 3019,
      "##ैल": 3020,
      "##ably": 3021,
      "नदी": 3022,
      "पल": 3023,
      "prob": 3024,
      "does": 3025,
      "लाल": 3026,
      "##tp": 3027,
      "साझ": 3028,
      "व्यवहार": 3029,
      "probably": 3030,
      "समर्थन": 3031,
      "##ल्पना": 3032,
      "##Name": 3033,
      "##रत": 3034,
      "##ांच": 3035,
      "शैत": 3036,
      "मज़": 3037,
      "सुनिश्चित": 3038,
      "पूरे": 3039,
      "##जनिक": 3040,
      "मुसलमानों": 3041,
      "बीम": 3042,
      "प्ल": 3043,
      "खो": 3044,
      "रोज": 3045,
      "##om": 3046,
      "ख़बर": 3047,
      "दिखाई": 3048,
      "अध्यक्ष": 3049,
      "विधान": 3050,
      "ऊर्जा": 3051,
      "दल": 3052,
      "##गु": 3053,
      "##त्मक": 3054,
      "प्रो": 3055,
      "##िद": 3056,
      "सार्वजनिक": 3057,
      "मंत्रालय": 3058,
      "समुदाय": 3059,
      "प्रोत": 3060,
      "##जे": 3061,
      "##ामीण": 3062,
      "तारी": 3063,
      "संरचना": 3064,
      "जवाब": 3065,
      "मिस": 3066,
      "बाग़": 3067,
      "गी": 3068,
      "ग्रामीण": 3069,
      "एह": 3070,
      "##ोल्": 3071,
      "http": 3072,
      "नमाज़": 3073,
      "स्वतंत्रता": 3074,
      "##City": 3075,
      "##क्रमण": 3076,
      "##र्चा": 3077,
      "##ालिम": 3078,
      "##आर": 3079,
      "सक्षम": 3080,
      "खाते": 3081,
      "डाला": 3082,
      "पुल": 3083,
      "बने": 3084,
      "री": 3085,
      "बाब": 3086,
      "ढंग": 3087,
      "व्यापक": 3088,
      "पहुँचा": 3089,
      "शक": 3090,
      "गैर": 3091,
      "##ुता": 3092,
      "##ंटर": 3093,
      "प्रतिक": 3094,
      "चे": 3095,
      "यद्य": 3096,
      "पेट": 3097,
      "##भाग": 3098,
      "जहन्नुम": 3099,
      "रक्त": 3100,
      "नर": 3101,
      "यद्यपि": 3102,
      "आँ": 3103,
      "##वत": 3104,
      "##दार्थ": 3105,
      "राय": 3106,
      "##शिया": 3107,
      "ज़ालिम": 3108,
      "औद्योगिक": 3109,
      "चर": 3110,
      "),": 3111,
      "हल": 3112,
      "196": 3113,
      "विल": 3114,
      "अनुर": 3115,
      "आख़िरत": 3116,
      "पालन": 3117,
      "लंब": 3118,
      "भग": 3119,
      "##ंबर": 3120,
      "देंगे": 3121,
      "मास": 3122,
      "रक्षा": 3123,
      "विनिर्": 3124,
      "गिरोह": 3125,
      "प्रतिनि": 3126,
      "व्यक्तियों": 3127,
      "टे": 3128,
      "मुखर्जी": 3129,
      "मेहर": 3130,
      "दशा": 3131,
      "कहना": 3132,
      "राजनीतिक": 3133,
      "रखना": 3134,
      "##ादन": 3135,
      "##रान": 3136,
      "##भार": 3137,
      "किन": 3138,
      "##ंडल": 3139,
      "##स्ति": 3140,
      "सिव": 3141,
      "विकल्प": 3142,
      "अता": 3143,
      "फेर": 3144,
      "पाल": 3145,
      "बढ": 3146,
      "##्ठ": 3147,
      "भारी": 3148,
      "##याल": 3149,
      "पदार्थ": 3150,
      "सकें": 3151,
      "##रज़": 3152,
      "बनी": 3153,
      "##वस्था": 3154,
      "##एल": 3155,
      "हैः": 3156,
      "चुकी": 3157,
      "गांव": 3158,
      "वैज्ञानिक": 3159,
      "वास्तविक": 3160,
      "##घ्र": 3161,
      "दूसरा": 3162,
      "सर्वो": 3163,
      "१९": 3164,
      "##पूर्वक": 3165,
      "आत्मा": 3166,
      "पथ": 3167,
      "हज": 3168,
      "मुक्त": 3169,
      "अवस्था": 3170,
      "मोमिन": 3171,
      "बन्दों": 3172,
      "##र्घ": 3173,
      "प्रभावित": 3174,
      "25": 3175,
      "##ोलन": 3176,
      "अभिव": 3177,
      "खिला": 3178,
      "ताल": 3179,
      "सृ": 3180,
      "##ैव": 3181,
      "##लब": 3182,
      "पुरस्कार": 3183,
      "यून": 3184,
      "भौ": 3185,
      "##्ला": 3186,
      "मिले": 3187,
      "##जात": 3188,
      "कार्यालय": 3189,
      "##सु": 3190,
      "संपर्क": 3191,
      "##वर्क": 3192,
      "194": 3193,
      "तत": 3194,
      "दश": 3195,
      "अत्या": 3196,
      "आवेदन": 3197,
      "उद्यम": 3198,
      "खे": 3199,
      "वाद": 3200,
      "वाक़": 3201,
      "निजी": 3202,
      "बैठे": 3203,
      "यूर": 3204,
      "सीधे": 3205,
      "¤²": 3206,
      "सां": 3207,
      "संय": 3208,
      "हिदाय": 3209,
      "आधुनिक": 3210,
      "पकड़": 3211,
      "प्राथम": 3212,
      "केंद": 3213,
      "छोटी": 3214,
      "विरुद्ध": 3215,
      "संग्रह": 3216,
      "युवा": 3217,
      "##ंगी": 3218,
      "हृ": 3219,
      "चढ़": 3220,
      "पर्याप्त": 3221,
      "तुमपर": 3222,
      "##च्छेद": 3223,
      "डे": 3224,
      "जल्दी": 3225,
      "शब्दों": 3226,
      "प्रोत्साह": 3227,
      "हिदायत": 3228,
      "छोड़कर": 3229,
      "मुह": 3230,
      "डाक": 3231,
      "करा": 3232,
      "आते": 3233,
      "आयु": 3234,
      "##ैक": 3235,
      "भा": 3236,
      "##टों": 3237,
      "पांच": 3238,
      "##द्रा": 3239,
      "##तक": 3240,
      "##ोद": 3241,
      "संदर्भ": 3242,
      "अंक": 3243,
      "शांति": 3244,
      "सिद्धांत": 3245,
      "हासिल": 3246,
      "डॉ": 3247,
      "उन्हीं": 3248,
      "वन": 3249,
      "तुममें": 3250,
      "सम्": 3251,
      "पूज": 3252,
      "तीस": 3253,
      "##िनी": 3254,
      "##िड": 3255,
      "पृथ": 3256,
      "पर्य": 3257,
      "लेखा": 3258,
      "##राहीम": 3259,
      "14": 3260,
      "लघ": 3261,
      "ईश्वर": 3262,
      "##ायत": 3263,
      "सच्चे": 3264,
      "दया": 3265,
      "##हीन": 3266,
      "केंद्रीय": 3267,
      "शैतान": 3268,
      "आता": 3269,
      "##र्वा": 3270,
      "प्रसन्न": 3271,
      "195": 3272,
      "##क्षक": 3273,
      "##ृह": 3274,
      "बोर्ड": 3275,
      "अनिवार": 3276,
      "खाद": 3277,
      "##कत": 3278,
      "##औन": 3279,
      "केन्द": 3280,
      "रिक": 3281,
      "इबराहीम": 3282,
      "ग़रज़": 3283,
      "शीघ्र": 3284,
      "##राब": 3285,
      "उपन": 3286,
      "संसार": 3287,
      "##दर्शन": 3288,
      "##ीप": 3289,
      "##लाया": 3290,
      "##भीर": 3291,
      "दस": 3292,
      "देखो": 3293,
      "##चीन": 3294,
      "##र्न": 3295,
      "दृष्ट": 3296,
      "खाता": 3297,
      "##काम": 3298,
      "बंगाल": 3299,
      "हालत": 3300,
      "प्रकाशित": 3301,
      "समझते": 3302,
      "रखी": 3303,
      "पद्ध": 3304,
      "लगी": 3305,
      "दिलों": 3306,
      "धीरे": 3307,
      "बचा": 3308,
      "##ोग्राम": 3309,
      "आशा": 3310,
      "##कीय": 3311,
      "सात": 3312,
      "परीक्षा": 3313,
      "इच्छा": 3314,
      "##िश्ते": 3315,
      "डेट": 3316,
      "##her": 3317,
      "अस्थ": 3318,
      "कृपया": 3319,
      "##फ्त": 3320,
      "रेल": 3321,
      "##ैनिक": 3322,
      "16": 3323,
      "आपकी": 3324,
      "##िरों": 3325,
      "सारी": 3326,
      "उपाय": 3327,
      "रखे": 3328,
      "करोड़": 3329,
      "ऊंच": 3330,
      "टै": 3331,
      "सेवाओं": 3332,
      "निदेश": 3333,
      "अपील": 3334,
      "तरीके": 3335,
      "तेल": 3336,
      "बख": 3337,
      "ग्रह": 3338,
      "ख्व": 3339,
      "करनेवालों": 3340,
      "योगदान": 3341,
      "ऑफ": 3342,
      "##्कुल": 3343,
      "समझौ": 3344,
      "नगर": 3345,
      "बताया": 3346,
      "##लन": 3347,
      "सलाह": 3348,
      "लॉ": 3349,
      "परिस्थ": 3350,
      "अनिवार्य": 3351,
      "##क्का": 3352,
      "##वर्ती": 3353,
      "##षद": 3354,
      "##ायन": 3355,
      "प्रणब": 3356,
      "कृत": 3357,
      "##्से": 3358,
      "लागत": 3359,
      "खड़े": 3360,
      "नेटवर्क": 3361,
      "बिल्कुल": 3362,
      "##ियत": 3363,
      "##ोल्डर": 3364,
      "समझा": 3365,
      "##चक": 3366,
      "##ंद्र": 3367,
      "मंत्री": 3368,
      "##-#-#": 3369,
      "##लिखित": 3370,
      "मुस्ल": 3371,
      "आंद": 3372,
      "लेना": 3373,
      "दुख": 3374,
      "आकाशों": 3375,
      "इका": 3376,
      "विवाह": 3377,
      "13": 3378,
      "मुस्लिम": 3379,
      "कदम": 3380,
      "नसी": 3381,
      "रास्त": 3382,
      "##ारोह": 3383,
      "कविता": 3384,
      "मानते": 3385,
      "रास": 3386,
      "रकम": 3387,
      "nic": 3388,
      "मशीन": 3389,
      "जिला": 3390,
      "मिलता": 3391,
      "आयात": 3392,
      "##शु": 3393,
      "हिन्दी": 3394,
      "##ोड": 3395,
      "##भाल": 3396,
      "##कान": 3397,
      "कुफ्": 3398,
      "शक़": 3399,
      "htm": 3400,
      "अधिकांश": 3401,
      "विशाल": 3402,
      "मालिक": 3403,
      "##वर्ष": 3404,
      "विभाज": 3405,
      "रहती": 3406,
      "पर्व": 3407,
      "तरफ़": 3408,
      "भोजन": 3409,
      "पाने": 3410,
      "सुरक्षित": 3411,
      "##मंत्री": 3412,
      "संगी": 3413,
      "यूरोप": 3414,
      "अगले": 3415,
      "विद्यार्थ": 3416,
      "##वत्ता": 3417,
      "ब्रिटिश": 3418,
      "चर्चा": 3419,
      "झग": 3420,
      "ख़ु": 3421,
      "एल": 3422,
      "हाँ": 3423,
      "दब": 3424,
      "##en": 3425,
      "अस्त": 3426,
      "##ंगा": 3427,
      "आती": 3428,
      "कंप्यूटर": 3429,
      "##सिक": 3430,
      "काट": 3431,
      "चीज": 3432,
      "आयोग": 3433,
      "भंड": 3434,
      "##ारण": 3435,
      "लघु": 3436,
      "##चारियों": 3437,
      "बध": 3438,
      "##ंघ": 3439,
      "##्वेष": 3440,
      "रहना": 3441,
      "जाति": 3442,
      "अपराध": 3443,
      "##ाँकि": 3444,
      "करनी": 3445,
      "हालाँकि": 3446,
      "##नेट": 3447,
      "गुणवत्ता": 3448,
      "निशानियाँ": 3449,
      "विज": 3450,
      "##ायक": 3451,
      "##ुब": 3452,
      "पो": 3453,
      "##वेयर": 3454,
      "197": 3455,
      "तथ": 3456,
      "निर्भर": 3457,
      "खर्च": 3458,
      "हवा": 3459,
      "धार्मिक": 3460,
      "हे": 3461,
      "संव": 3462,
      "अनुच्छेद": 3463,
      "ªà": 3464,
      "पं": 3465,
      "##et": 3466,
      "निर्वा": 3467,
      "##रीय": 3468,
      "##ड्ड": 3469,
      "तुलना": 3470,
      "प्राण": 3471,
      "विंडो": 3472,
      "उम": 3473,
      "##ियर": 3474,
      "मिली": 3475,
      "संस्कृत": 3476,
      "दिवस": 3477,
      "##फार": 3478,
      "खुलती": 3479,
      "मुद्रा": 3480,
      "पाए": 3481,
      "संस्कृति": 3482,
      "प्राकृतिक": 3483,
      "बुद्धि": 3484,
      "प्रभावी": 3485,
      "##ड़ाई": 3486,
      "##दृ": 3487,
      "भली": 3488,
      "एज": 3489,
      "ठहरा": 3490,
      "परिप": 3491,
      "डा": 3492,
      "##धिकार": 3493,
      "विंडों": 3494,
      "कहेंगे": 3495,
      "हरग": 3496,
      "यथ": 3497,
      "बनाना": 3498,
      "पड़ता": 3499,
      "मोट": 3500,
      "गलत": 3501,
      "निधि": 3502,
      "##िद्ध": 3503,
      "समारोह": 3504,
      "सदैव": 3505,
      "खास": 3506,
      "फाइल": 3507,
      "बाव": 3508,
      "##तया": 3509,
      "198": 3510,
      "चलते": 3511,
      "संघर्ष": 3512,
      "चिकित्सा": 3513,
      "ध्व": 3514,
      "##se": 3515,
      "इन्ह": 3516,
      "सीमित": 3517,
      "पैर": 3518,
      "युग": 3519,
      "खरीद": 3520,
      "पंच": 3521,
      "##क्ष्म": 3522,
      "संभावना": 3523,
      "बधाई": 3524,
      "##ितियों": 3525,
      "अनुप्र": 3526,
      "अत्यंत": 3527,
      "##सन": 3528,
      "उपस्थित": 3529,
      "असम": 3530,
      "वर्णन": 3531,
      "लि": 3532,
      "हृदय": 3533,
      "निर्धारिती": 3534,
      "महत्त्व": 3535,
      "दीन": 3536,
      "सभ": 3537,
      "विविध": 3538,
      "नसीहत": 3539,
      "बू": 3540,
      "साधारण": 3541,
      "केन्द्रीय": 3542,
      "प्रतिष्ठ": 3543,
      "##फ़ार": 3544,
      "उम्मीद": 3545,
      "##यर": 3546,
      "##ट्ट": 3547,
      "जिसको": 3548,
      "असफल": 3549,
      "क़ुरान": 3550,
      "##ागत": 3551,
      "शि": 3552,
      "संसाधन": 3553,
      "गवाह": 3554,
      "हरगिज़": 3555,
      "समुद्र": 3556,
      "कमा": 3557,
      "##ग्": 3558,
      "##ाजी": 3559,
      "000": 3560,
      "आपस": 3561,
      "बुरी": 3562,
      "##दर्शी": 3563,
      "##िमा": 3564,
      "जादू": 3565,
      "समाधान": 3566,
      "पुलिस": 3567,
      "विचारों": 3568,
      "खूब": 3569,
      "नेता": 3570,
      "मिलने": 3571,
      "अंग्रेजी": 3572,
      "##्सर": 3573,
      "संगीत": 3574,
      "आकर्ष": 3575,
      "पंजी": 3576,
      "बिज": 3577,
      "भय": 3578,
      "संपत्ति": 3579,
      "##क्षेप": 3580,
      "##ेलन": 3581,
      "प्राचीन": 3582,
      "स्रोत": 3583,
      "##किंग": 3584,
      "##ोरी": 3585,
      "##ख़्श": 3586,
      "बुला": 3587,
      "हस्ता": 3588,
      "कठिन": 3589,
      "उपभ": 3590,
      "आंदोलन": 3591,
      "##ग्न": 3592,
      "वायु": 3593,
      "शर्त": 3594,
      "¤®": 3595,
      "बनाकर": 3596,
      "##ment": 3597,
      "##ृष्ट": 3598,
      "शता": 3599,
      "सम्मिल": 3600,
      "सफ": 3601,
      "मल": 3602,
      "##धनों": 3603,
      "साव": 3604,
      "##राष्ट्रीय": 3605,
      "सरक": 3606,
      "सित": 3607,
      "##कुल": 3608,
      "##जूद": 3609,
      "##ुस्त": 3610,
      "रहेगा": 3611,
      "रोज़ी": 3612,
      "##भूति": 3613,
      "##िकोण": 3614,
      "##प्त": 3615,
      "##टना": 3616,
      "जे": 3617,
      "##कारों": 3618,
      "निम्नलिखित": 3619,
      "आदर्श": 3620,
      "##्वर": 3621,
      "पंज": 3622,
      "दृश्य": 3623,
      "बौ": 3624,
      "विवाद": 3625,
      "लेता": 3626,
      "जरूरी": 3627,
      "हार": 3628,
      "प्रे": 3629,
      "##ार्क": 3630,
      "स्वा": 3631,
      "संस्थानों": 3632,
      "प्रदर्शन": 3633,
      "30": 3634,
      "शेष": 3635,
      "ब्याज": 3636,
      "तय": 3637,
      "##ou": 3638,
      "नये": 3639,
      "फरमा": 3640,
      "झुठला": 3641,
      "##न्स": 3642,
      "पहल": 3643,
      "##धर": 3644,
      "प्रत्यक्ष": 3645,
      "जंग": 3646,
      "छोटा": 3647,
      "संशोधन": 3648,
      "##खे": 3649,
      "डिस": 3650,
      "लगाया": 3651,
      "अंध": 3652,
      "तारीख": 3653,
      "बख्श": 3654,
      "विद्व": 3655,
      "मेल": 3656,
      "##स्वरूप": 3657,
      "निवास": 3658,
      "बुल": 3659,
      "##बत": 3660,
      "ख़ास": 3661,
      "इनके": 3662,
      "गि": 3663,
      "संकेत": 3664,
      "शक्त": 3665,
      "आयोजित": 3666,
      "व्यक्तिगत": 3667,
      "##ोने": 3668,
      "मिट्टी": 3669,
      "साक्ष": 3670,
      "माँग": 3671,
      "अर्थव्य": 3672,
      "कठोर": 3673,
      "##उट": 3674,
      "इतनी": 3675,
      "इल": 3676,
      "लाइ": 3677,
      "ग्राह": 3678,
      "अंश": 3679,
      "अंदर": 3680,
      "##ुत्व": 3681,
      "सबको": 3682,
      "श्रम": 3683,
      "ज़ु": 3684,
      "समृ": 3685,
      "जिनका": 3686,
      "इम": 3687,
      "रहें": 3688,
      "##ूनी": 3689,
      "##ब्दी": 3690,
      "छवि": 3691,
      "उल्ल": 3692,
      "भूल": 3693,
      "##्याल": 3694,
      "आपका": 3695,
      "##he": 3696,
      "करनेवाला": 3697,
      "##ोषण": 3698,
      "17": 3699,
      "सज़ा": 3700,
      "महीने": 3701,
      "उड़": 3702,
      "नोट": 3703,
      "##ol": 3704,
      "उत्तम": 3705,
      "##इयों": 3706,
      "चुनें": 3707,
      "ठहर": 3708,
      "दर्ज": 3709,
      "##ज़ार": 3710,
      "##ांक": 3711,
      "चुनाव": 3712,
      "वायदा": 3713,
      "¥": 3714,
      "##र्र": 3715,
      "छात्र": 3716,
      "##फ्ट": 3717,
      "##क्टर": 3718,
      "अधिकतर": 3719,
      "प्रवि": 3720,
      "एशिया": 3721,
      "सर्वर": 3722,
      "##चि": 3723,
      "जानवर": 3724,
      "निष्प": 3725,
      "सांस": 3726,
      "गतिविध": 3727,
      "माब": 3728,
      "##ia": 3729,
      "बावजूद": 3730,
      "खुश": 3731,
      "इबाद": 3732,
      "कुंजी": 3733,
      "##ंपरा": 3734,
      "##ोसा": 3735,
      "दर्द": 3736,
      "सम्मिलित": 3737,
      "##तु": 3738,
      "##ान्व": 3739,
      "अधिकारियों": 3740,
      "संरक्षण": 3741,
      "सरल": 3742,
      "डेटा": 3743,
      "सिख": 3744,
      "अद": 3745,
      "इबादत": 3746,
      "पीठ": 3747,
      "बरस": 3748,
      "##राज्य": 3749,
      "अनुक": 3750,
      "संगठ": 3751,
      "गंभीर": 3752,
      "उसपर": 3753,
      "फ़ैस": 3754,
      "ठिक": 3755,
      "शुल्क": 3756,
      "अरब": 3757,
      "##बे": 3758,
      "दिये": 3759,
      "##न्त्र": 3760,
      "##नाम": 3761,
      "घरों": 3762,
      "गर्इ": 3763,
      "मार्गदर्शन": 3764,
      "माबूद": 3765,
      "दोष": 3766,
      "दायित्व": 3767,
      "टुक": 3768,
      "##पा": 3769,
      "परंपरा": 3770,
      "##ंबई": 3771,
      "व्याव": 3772,
      "फी": 3773,
      "जोर": 3774,
      "##ज्ज": 3775,
      "##एफ": 3776,
      "काव्य": 3777,
      "बीमा": 3778,
      "फ़ोल्डर": 3779,
      "रौ": 3780,
      "स्वरूप": 3781,
      "##ाहिर": 3782,
      "आपने": 3783,
      "जिम्म": 3784,
      "करनेवाले": 3785,
      "100": 3786,
      "##उन": 3787,
      "शिव": 3788,
      "शास्त": 3789,
      "परिषद": 3790,
      "ज़रुर": 3791,
      "##व्र": 3792,
      "¤¤": 3793,
      "निगम": 3794,
      "उपयुक्त": 3795,
      "भगवान": 3796,
      "तट": 3797,
      "##स्पर": 3798,
      "अल्प": 3799,
      "##ितीय": 3800,
      "कहानी": 3801,
      "नाटक": 3802,
      "##ूदा": 3803,
      "द्र": 3804,
      "फ्र": 3805,
      "वस्तुओं": 3806,
      "पहला": 3807,
      "तर्क": 3808,
      "##ियार": 3809,
      "प्रोग्राम": 3810,
      "स्त्री": 3811,
      "तला": 3812,
      "एच": 3813,
      "##डिया": 3814,
      "##र्तन": 3815,
      "पद्धति": 3816,
      "इजर": 3817,
      "पार्टी": 3818,
      "इंटर": 3819,
      "तेजी": 3820,
      "##वक": 3821,
      "##स्य": 3822,
      "अके": 3823,
      "##ल्स": 3824,
      "आतंकवाद": 3825,
      "तौबा": 3826,
      "अर्थव्यवस्था": 3827,
      "ख्वाह": 3828,
      "मात्र": 3829,
      "##्नी": 3830,
      "झुठलाया": 3831,
      "##ाजा": 3832,
      "चैन": 3833,
      "##il": 3834,
      "रखें": 3835,
      "##त्न": 3836,
      "निर्मित": 3837,
      "##सूस": 3838,
      "सन्त": 3839,
      "##टल": 3840,
      "सूक्ष्म": 3841,
      "कब": 3842,
      "##िकाओं": 3843,
      "दृष्टिकोण": 3844,
      "हिम": 3845,
      "दर्शन": 3846,
      "##कल": 3847,
      "व्यय": 3848,
      "पर्या": 3849,
      "अनुप्रयोग": 3850,
      "##पे": 3851,
      "##बन्ध": 3852,
      "##िटी": 3853,
      "परस्पर": 3854,
      "फैस": 3855,
      "##ूर्ति": 3856,
      "##ादि": 3857,
      "पसंद": 3858,
      "हानि": 3859,
      "##हरे": 3860,
      "उन्न": 3861,
      "नियत": 3862,
      "##बह": 3863,
      "ii": 3864,
      "भाँ": 3865,
      "परम": 3866,
      "##्रेड": 3867,
      "शाखा": 3868,
      "कदा": 3869,
      "कार्यों": 3870,
      "पश्चिमी": 3871,
      "मस": 3872,
      "पात्र": 3873,
      "शख़्श": 3874,
      "जम": 3875,
      "हिन्दू": 3876,
      "समक्ष": 3877,
      "दंड": 3878,
      "सम्मेलन": 3879,
      "प्रवृत": 3880,
      "घोषणा": 3881,
      "सुख": 3882,
      "मार्च": 3883,
      "व्यवसाय": 3884,
      "वार्ष": 3885,
      "चेत": 3886,
      "##खंड": 3887,
      "बिजली": 3888,
      "कार्र": 3889,
      "सकेगा": 3890,
      "##लाई": 3891,
      "खाने": 3892,
      "जीवित": 3893,
      "सॉ": 3894,
      "सदन": 3895,
      "अंतरराष्ट्रीय": 3896,
      "चम": 3897,
      "अप्रैल": 3898,
      "परिच": 3899,
      "ग्रहण": 3900,
      "##नाक": 3901,
      "भलाई": 3902,
      "##ल्ड": 3903,
      "##ून्य": 3904,
      "अनुकूल": 3905,
      "पर्यावरण": 3906,
      "##्रिया": 3907,
      "सूर्य": 3908,
      "हिसाब": 3909,
      "दिखाएँ": 3910,
      "##ब्ल": 3911,
      "##el": 3912,
      "सुल": 3913,
      "##लाइन": 3914,
      "##तावरण": 3915,
      "##ालित": 3916,
      "ग्राम": 3917,
      "काफ": 3918,
      "क़सम": 3919,
      "##जीव": 3920,
      "पंजाब": 3921,
      "स्वामी": 3922,
      "घंट": 3923,
      "##ूक": 3924,
      "##रो": 3925,
      "मजबूत": 3926,
      "उत्क": 3927,
      "50": 3928,
      "##दारी": 3929,
      "देकर": 3930,
      "##्राष्ट्रीय": 3931,
      "बढ़कर": 3932,
      "वातावरण": 3933,
      "तकनीकी": 3934,
      "खाद्य": 3935,
      "शताब्दी": 3936,
      "##िक्स": 3937,
      "नियुक्त": 3938,
      "इंज": 3939,
      "ऊँच": 3940,
      "ख़र्च": 3941,
      "चलता": 3942,
      "2014": 3943,
      "बैठक": 3944,
      "##सत": 3945,
      "##ॉप": 3946,
      "##िक्री": 3947,
      "अंड": 3948,
      "सिस्ट": 3949,
      "बनाई": 3950,
      "वाह": 3951,
      "राजन": 3952,
      "दादा": 3953,
      "खड़ा": 3954,
      "जाँच": 3955,
      "ड्र": 3956,
      "इजरायल": 3957,
      "अना": 3958,
      "ज़ुल्म": 3959,
      "शत्र": 3960,
      "मॉड": 3961,
      "शैली": 3962,
      "##जिए": 3963,
      "स्थायी": 3964,
      "समाचार": 3965,
      "महिलाओं": 3966,
      "प्रेर": 3967,
      "चरण": 3968,
      "##कला": 3969,
      "छुट": 3970,
      "विस्तृत": 3971,
      "अभिव्य": 3972,
      "तकली": 3973,
      "pres": 3974,
      "इं": 3975,
      "##मेंट": 3976,
      "मुक़ाब": 3977,
      "हाथों": 3978,
      "भाँति": 3979,
      "##िक़": 3980,
      "¤": 3981,
      "बोझ": 3982,
      "अपर": 3983,
      "समन": 3984,
      "सामना": 3985,
      "मना": 3986,
      "प्राप्ति": 3987,
      "चलो": 3988,
      "उपन्यास": 3989,
      "भेजे": 3990,
      "##ोजनों": 3991,
      "'%": 3992,
      "नवान": 3993,
      "लेखक": 3994,
      "माह": 3995,
      "मतलब": 3996,
      "इज": 3997,
      "कथ": 3998,
      "##ेदार": 3999,
      "एफ": 4000,
      "दस्तावेज": 4001,
      "भे": 4002,
      "हद": 4003,
      ")।": 4004,
      "संचार": 4005,
      "##ुमार": 4006,
      "ईमानदारों": 4007,
      "दुआ": 4008,
      "निशानी": 4009,
      "खाना": 4010,
      "डाट": 4011,
      "##्काल": 4012,
      "अनुसू": 4013,
      "भरोसा": 4014,
      "रोजगार": 4015,
      "सांस्": 4016,
      "दूध": 4017,
      "जिनकी": 4018,
      "प्रतीक": 4019,
      "परह": 4020,
      "उत्स": 4021,
      "रज": 4022,
      "##de": 4023,
      "आसान": 4024,
      "ख़ुद": 4025,
      "प्रमाणपत्र": 4026,
      "भौतिक": 4027,
      "##धानी": 4028,
      "उपचार": 4029,
      "नवान्वेष": 4030,
      "वेतन": 4031,
      "प्रसन्नता": 4032,
      "##राव": 4033,
      "तेरे": 4034,
      "फार": 4035,
      "कर्": 4036,
      "आइ": 4037,
      "धो": 4038,
      "अनुवाद": 4039,
      "##ंकन": 4040,
      "मूल्या": 4041,
      "##पु": 4042,
      "##बारा": 4043,
      "दयाल": 4044,
      "कल्पना": 4045,
      "महाम": 4046,
      "##लील": 4047,
      "गुजर": 4048,
      "24": 4049,
      "##रार": 4050,
      "कथा": 4051,
      "##्रीन": 4052,
      "कितने": 4053,
      "आदम": 4054,
      "##ांकि": 4055,
      "¤¯": 4056,
      "##ताल": 4057,
      "आख": 4058,
      "कार्यान्व": 4059,
      "द्वार": 4060,
      "शून्य": 4061,
      "ख्याल": 4062,
      "महसूस": 4063,
      "डरते": 4064,
      "अज": 4065,
      "##ापित": 4066,
      "गहरा": 4067,
      "हालांकि": 4068,
      "पत्नी": 4069,
      "प्रधानमंत्री": 4070,
      "सिस्टम": 4071,
      "सिक": 4072,
      "मिलकर": 4073,
      "पत्थ": 4074,
      "विमान": 4075,
      "आयतें": 4076,
      "नार": 4077,
      "पेज": 4078,
      "##ृत्व": 4079,
      "हराम": 4080,
      "दावा": 4081,
      "प्रतिनिध": 4082,
      "सीख": 4083,
      "##ादित": 4084,
      "वस": 4085,
      "शास": 4086,
      "##नो": 4087,
      "कितनी": 4088,
      "ठिकाना": 4089,
      "परीक्षण": 4090,
      "अश": 4091,
      "बंध": 4092,
      "बेटे": 4093,
      "बुराई": 4094,
      "आंत": 4095,
      "फाय": 4096,
      "अक्सर": 4097,
      "##भाषा": 4098,
      "##यत": 4099,
      "##फर": 4100,
      "सुझ": 4101,
      "साम्र": 4102,
      "ज़्य": 4103,
      "खत": 4104,
      "##गो": 4105,
      "संपूर्ण": 4106,
      "मुना": 4107,
      "बौद्ध": 4108,
      "##णों": 4109,
      "फूल": 4110,
      "फिल्म": 4111,
      "शेयर": 4112,
      "##लाद": 4113,
      "आँख": 4114,
      "##ायें": 4115,
      "वैश्व": 4116,
      "ब्रह": 4117,
      "चिन": 4118,
      "##ात्मा": 4119,
      "निरंतर": 4120,
      "विनिर्दिष्ट": 4121,
      "सश": 4122,
      "प्रार्थ": 4123,
      "अधिकतम": 4124,
      "बढ़ाने": 4125,
      "गुमराही": 4126,
      "पूज्य": 4127,
      "मिलती": 4128,
      "स्थल": 4129,
      "अनुमान": 4130,
      "कीमत": 4131,
      "##ढ़ी": 4132,
      "हालॉ": 4133,
      "पश्चात्": 4134,
      "##िश्तों": 4135,
      "प्रदर्शित": 4136,
      "मां": 4137,
      "##भूम": 4138,
      "सांस्कृतिक": 4139,
      "##कात": 4140,
      "कोल": 4141,
      "साब": 4142,
      "कर्मचारियों": 4143,
      "##शय": 4144,
      "करी": 4145,
      "अवि": 4146,
      "##इड": 4147,
      "डिज": 4148,
      "नामक": 4149,
      "निरा": 4150,
      "फ़िल": 4151,
      "प्रभुत्व": 4152,
      "साफ़": 4153,
      "इन्हें": 4154,
      "देखें": 4155,
      "खुले": 4156,
      "##णु": 4157,
      "माता": 4158,
      "##क्ट्र": 4159,
      "टन": 4160,
      "लगाने": 4161,
      "अस्प": 4162,
      "फ़ैसला": 4163,
      "आंक": 4164,
      "पत्त": 4165,
      "##ंग्ल": 4166,
      "इत्य": 4167,
      "##ेक्ट": 4168,
      "समस्याओं": 4169,
      "##रिया": 4170,
      "जानने": 4171,
      "गर्म": 4172,
      "सर्वा": 4173,
      "वादा": 4174,
      "##त्रीय": 4175,
      "##नाएं": 4176,
      "नियमित": 4177,
      "टाइ": 4178,
      "प्राव": 4179,
      "आयुक्त": 4180,
      "हस्त": 4181,
      "उदार": 4182,
      "सुंदर": 4183,
      "##omment": 4184,
      "आये": 4185,
      "खेती": 4186,
      "¥": 4187,
      "लक्षण": 4188,
      "##दूर": 4189,
      "##प्रिय": 4190,
      "साझी": 4191,
      "##दिक": 4192,
      "प्रयासों": 4193,
      "इकट": 4194,
      "##टिल": 4195,
      "बनाते": 4196,
      "संकल्प": 4197,
      "मेहरबान": 4198,
      "आओ": 4199,
      "कर्त": 4200,
      "परहेज़": 4201,
      "##मय": 4202,
      "##स्थान": 4203,
      "प्रयोजनों": 4204,
      "कूट": 4205,
      "##ायण": 4206,
      "दोस्त": 4207,
      "##स्क": 4208,
      "नियमों": 4209,
      "शुक्र": 4210,
      "वार्षिक": 4211,
      "हालॉकि": 4212,
      "शुद्ध": 4213,
      "##ेदारी": 4214,
      "##ec": 4215,
      "बत": 4216,
      "क्षेत्रीय": 4217,
      "##वालो": 4218,
      "दीर्घ": 4219,
      "##स्थिति": 4220,
      "विव": 4221,
      "गवाही": 4222,
      "बुनिया": 4223,
      "मध": 4224,
      "##श्क": 4225,
      "प्रसिद्ध": 4226,
      "मुक": 4227,
      "शिकायत": 4228,
      "कहता": 4229,
      "##ियोग": 4230,
      "विद्युत": 4231,
      "गणराज्य": 4232,
      "रोज़": 4233,
      "##िकल": 4234,
      "##्याग": 4235,
      "##्ताह": 4236,
      "इकट्ठ": 4237,
      "##बू": 4238,
      "##ह्न": 4239,
      "193": 4240,
      "खुशी": 4241,
      "प्रार्थना": 4242,
      "##ंका": 4243,
      "तोड़": 4244,
      "##ंगत": 4245,
      "वृत": 4246,
      "##फे": 4247,
      "तेज": 4248,
      "##ल्ला": 4249,
      "##ज्ञात": 4250,
      "स्त्रियों": 4251,
      "पाकिस्तान": 4252,
      "अदा": 4253,
      "##--": 4254,
      "कार्रवाई": 4255,
      "शो": 4256,
      "जाएं": 4257,
      "मामला": 4258,
      "खी": 4259,
      "##ूंगा": 4260,
      "इत्यादि": 4261,
      "श्व": 4262,
      "किस्म": 4263,
      "##धीश": 4264,
      "##is": 4265,
      "थोड़ा": 4266,
      "सामर्थ": 4267,
      "आज्ञा": 4268,
      "समर्प": 4269,
      "##ौल": 4270,
      "साधन": 4271,
      "अफ्री": 4272,
      "न्याया": 4273,
      "##धीन": 4274,
      "हिन्द": 4275,
      "२००": 4276,
      "##जनक": 4277,
      "##म्मद": 4278,
      "##ीदारी": 4279,
      "##भूमि": 4280,
      "2015": 4281,
      "सिवाय": 4282,
      "तुझे": 4283,
      "तुर": 4284,
      "शुभकाम": 4285,
      "स्वर": 4286,
      "पुत्र": 4287,
      "अत्यधिक": 4288,
      "यूसु": 4289,
      "नहर": 4290,
      "बॉ": 4291,
      "शान": 4292,
      "वाण": 4293,
      "नबी": 4294,
      "##वित्र": 4295,
      "##ालिब": 4296,
      "सहेज": 4297,
      "समस्त": 4298,
      "रुपये": 4299,
      "सारा": 4300,
      "प्य": 4301,
      "##राई": 4302,
      "आउट": 4303,
      "मुक़र्र": 4304,
      "तमाम": 4305,
      "प्रच": 4306,
      "लिखने": 4307,
      "रास्ता": 4308,
      "पहाड़": 4309,
      "होनी": 4310,
      "##ंदा": 4311,
      "हिस्से": 4312,
      "अनुसरण": 4313,
      "पुराने": 4314,
      "अभिप": 4315,
      "##िन्दा": 4316,
      "उतार": 4317,
      "मानो": 4318,
      "दिखाया": 4319,
      "प्रभार": 4320,
      "##मल": 4321,
      "नेत": 4322,
      "लड़के": 4323,
      "नजर": 4324,
      "हिंदू": 4325,
      "संस्थाओं": 4326,
      "प्रायः": 4327,
      "विश्ले": 4328,
      "बिक्री": 4329,
      "ख़ूब": 4330,
      "##रेट": 4331,
      "अस्तित्व": 4332,
      "सत्र": 4333,
      "आज़": 4334,
      "आध्य": 4335,
      "कोड": 4336,
      "दयावान": 4337,
      "तस": 4338,
      "सवाल": 4339,
      "पराम": 4340,
      "सुबह": 4341,
      "तीव्र": 4342,
      "प्ले": 4343,
      "##uk": 4344,
      "21": 4345,
      "वीडियो": 4346,
      "डिस्क": 4347,
      "आनंद": 4348,
      "जायेगा": 4349,
      "औलाद": 4350,
      "ग़ालिब": 4351,
      "स्वागत": 4352,
      "मानसिक": 4353,
      "##ीनी": 4354,
      "कल्या": 4355,
      "जानी": 4356,
      "सीधा": 4357,
      "दयालुता": 4358,
      "वाणिज": 4359,
      "जहा": 4360,
      "इतने": 4361,
      "अक्ष": 4362,
      "चलने": 4363,
      "गृह": 4364,
      "##खिल": 4365,
      "चेतना": 4366,
      "किर": 4367,
      "23": 4368,
      "फसल": 4369,
      "ज़िम्म": 4370,
      "महत्त्वपूर्ण": 4371,
      "उठाए": 4372,
      "##चित्र": 4373,
      "कठिना": 4374,
      "समन्व": 4375,
      "##ed": 4376,
      "औरतों": 4377,
      "लाया": 4378,
      "##हाद": 4379,
      "##िफ़": 4380,
      "सूर": 4381,
      "मौसम": 4382,
      "उम्र": 4383,
      "ढां": 4384,
      "सामर्थ्य": 4385,
      "लिप": 4386,
      "प्रचार": 4387,
      "अधि": 4388,
      "प्रतिक्रिया": 4389,
      "##ुसार": 4390,
      "दूसरों": 4391,
      "इंडिया": 4392,
      "चारों": 4393,
      "बोले": 4394,
      "प्रवाह": 4395,
      "लोगो": 4396,
      "आध्यात्म": 4397,
      "!\"": 4398,
      "स्वच्छ": 4399,
      "बढ़ावा": 4400,
      "कटौती": 4401,
      "फे": 4402,
      "आठ": 4403,
      "नूह": 4404,
      "प्रयुक्त": 4405,
      "हथ": 4406,
      "##ामा": 4407,
      "उपभोक्ता": 4408,
      "निपट": 4409,
      "मौत": 4410,
      "क्षति": 4411,
      "परामर्श": 4412,
      "देखकर": 4413,
      "पाठ्य": 4414,
      "मुक़ाबले": 4415,
      "बर्": 4416,
      "विद्यार्थियों": 4417,
      "नेतृत्व": 4418,
      "ग्रंथ": 4419,
      "कुफ्फ़ार": 4420,
      "##ालत": 4421,
      "फ़िर": 4422,
      "##ख्य": 4423,
      "पूछा": 4424,
      "गतिविधियों": 4425,
      "मूल्यांकन": 4426,
      "रास्ते": 4427,
      "खुली": 4428,
      "नष्ट": 4429,
      "प्रत": 4430,
      "वाणिज्य": 4431,
      "प्रयोजन": 4432,
      "पसन्द": 4433,
      "शुभकामनाएं": 4434,
      "चै": 4435,
      "जनवरी": 4436,
      "गर्": 4437,
      "नेहर": 4438,
      "उठाने": 4439,
      "प्रोट": 4440,
      "वितरण": 4441,
      "तभी": 4442,
      "देखभाल": 4443,
      "निर्वाचन": 4444,
      "##वें": 4445,
      "बैंकों": 4446,
      "पलट": 4447,
      "##ूस": 4448,
      "कराने": 4449,
      "कुशल": 4450,
      "कर्मचारी": 4451,
      "मिश्र": 4452,
      "##ृंख": 4453,
      "करार": 4454,
      "##ित्त": 4455,
      "प्रेरित": 4456,
      "##ाते": 4457,
      "दुर्": 4458,
      "वृक्ष": 4459,
      "संगण": 4460,
      "अर्थात्": 4461,
      "जनसं": 4462,
      "हस्ताक्षर": 4463,
      "##आन": 4464,
      "##ादेश": 4465,
      "स्थानों": 4466,
      "गुज़र": 4467,
      "अमरी": 4468,
      "##निक": 4469,
      "html": 4470,
      "अर्ज": 4471,
      "पवित्र": 4472,
      "प्रावधान": 4473,
      "प्रव": 4474,
      "कंपन": 4475,
      "##कालीन": 4476,
      "मि": 4477,
      "मज़ा": 4478,
      "##मानी": 4479,
      "इकाई": 4480,
      "घरे": 4481,
      "##ातार": 4482,
      "जाओगे": 4483,
      "##लेज": 4484,
      "श्रेणीः": 4485,
      "26": 4486,
      "तथ्य": 4487,
      "##यम": 4488,
      "यक़ीनी": 4489,
      "मछ": 4490,
      "प्राथमिक": 4491,
      "ब्रह्म": 4492,
      "##ाता": 4493,
      "##्रय": 4494,
      "##्कार": 4495,
      "##पुट": 4496,
      "स्थिर": 4497,
      "):": 4498,
      "छूट": 4499,
      "नज़र": 4500,
      "##शाला": 4501,
      "##चलित": 4502,
      "##ष्ट्र": 4503,
      "बीज": 4504,
      "आरोप": 4505,
      "युक्त": 4506,
      "##ँगा": 4507,
      "नेक": 4508,
      "लिखी": 4509,
      "##चीत": 4510,
      "कल्याण": 4511,
      "##ind": 4512,
      "##रोध": 4513,
      "मुक़र्रर": 4514,
      "आह": 4515,
      "##करी": 4516,
      "फैला": 4517,
      "आनन्द": 4518,
      "विफल": 4519,
      "चुप": 4520,
      "पारित": 4521,
      "विजय": 4522,
      "जाकर": 4523,
      "सच्चा": 4524,
      "संब": 4525,
      "अन्दर": 4526,
      "उत्कृष्ट": 4527,
      "मंड": 4528,
      "##तिहासिक": 4529,
      "##श्मीर": 4530,
      "कक्ष": 4531,
      "न्यून": 4532,
      "बन्दगी": 4533,
      "##ठी": 4534,
      "मुद्द": 4535,
      "बातचीत": 4536,
      "मैदान": 4537,
      "pran": 4538,
      "भागों": 4539,
      "##ंता": 4540,
      "##पान": 4541,
      "##बरी": 4542,
      "मान्यता": 4543,
      "हजार": 4544,
      "मुझसे": 4545,
      "आश्च": 4546,
      "जिनको": 4547,
      "##फ़्र": 4548,
      "##muk": 4549,
      "फैल": 4550,
      "मंज": 4551,
      "देखता": 4552,
      "चीज़ों": 4553,
      "फैसला": 4554,
      "##jee": 4555,
      "अंतर्राष्ट्रीय": 4556,
      "##abmuk": 4557,
      "विधेय": 4558,
      "##herjee": 4559,
      "pranabmuk": 4560,
      "pranabmukherjee": 4561,
      "##ेंद": 4562,
      "मिशन": 4563,
      "##िक्र": 4564,
      "कलक": 4565,
      "नक": 4566,
      "फिरऔन": 4567,
      "##ैर्य": 4568,
      "तरीका": 4569,
      "आक्रमण": 4570,
      "सदा": 4571,
      "चेह": 4572,
      "prh": 4573,
      "22": 4574,
      "##स्तियों": 4575,
      "तार": 4576,
      "##ायम": 4577,
      "वचन": 4578,
      "अन्तर": 4579,
      "कानूनी": 4580,
      "जन्न": 4581,
      "सलाम": 4582,
      "गोया": 4583,
      "इले": 4584,
      "भ्र": 4585,
      "समाव": 4586,
      "##ाले": 4587,
      "अनुमोद": 4588,
      "आंतरिक": 4589,
      "गैस": 4590,
      "क्य": 4591,
      "सुविध": 4592,
      "सजदा": 4593,
      "##रीत": 4594,
      "दृढ़": 4595,
      "न्यायाधीश": 4596,
      "घरेलू": 4597,
      "जून": 4598,
      "##लग्न": 4599,
      "कुरान": 4600,
      "कहाँ": 4601,
      "##ाएँगे": 4602,
      "इन्कार": 4603,
      "बीमारी": 4604,
      "परिस्थितियों": 4605,
      "बेच": 4606,
      "सौंप": 4607,
      "कार्यक्रमों": 4608,
      "जैव": 4609,
      "एकत्र": 4610,
      "जोख": 4611,
      "प्रसार": 4612,
      "ज़िन्द": 4613,
      "वैश्विक": 4614,
      "सिल": 4615,
      "उन्म": 4616,
      "लोकतंत्र": 4617,
      "##ंख्य": 4618,
      "आश्चर्य": 4619,
      "चीन": 4620,
      "वहीं": 4621,
      "मैने": 4622,
      "पढ़ने": 4623,
      "जल्द": 4624,
      "##ृंखला": 4625,
      "दाव": 4626,
      "डाले": 4627,
      "नैतिक": 4628,
      "माइ": 4629,
      "हटा": 4630,
      "वैसे": 4631,
      "सैनिक": 4632,
      "मुश": 4633,
      "कुफ़्र": 4634,
      "लगातार": 4635,
      "##ियल": 4636,
      "पूजा": 4637,
      "न्यू": 4638,
      "माप": 4639,
      "गुप्त": 4640,
      "आवाज़": 4641,
      "चिह्न": 4642,
      "31": 4643,
      "हमसे": 4644,
      "रहमत": 4645,
      "काफ़ी": 4646,
      "ताप": 4647,
      "प्रशंसा": 4648,
      "प्रोत्साहन": 4649,
      "अत": 4650,
      "ऑन": 4651,
      "##ce": 4652,
      "##कीन": 4653,
      "आवास": 4654,
      "192": 4655,
      "भाषण": 4656,
      "पत्थर": 4657,
      "जितना": 4658,
      "मानक": 4659,
      "डरा": 4660,
      "नुक": 4661,
      "##ंव": 4662,
      "¤¹": 4663,
      "मौजूदा": 4664,
      "प्रिय": 4665,
      "विशेषता": 4666,
      "राजनैतिक": 4667,
      "कार्ड": 4668,
      "विपरीत": 4669,
      "##घात": 4670,
      "##ूली": 4671,
      "##साद": 4672,
      "लेन": 4673,
      "स्मृति": 4674,
      "धैर्य": 4675,
      "जोखिम": 4676,
      "सप्ताह": 4677,
      "सन्तान": 4678,
      "सर्वोच्च": 4679,
      "तूने": 4680,
      "इंजीन": 4681,
      "आध्यात्मिक": 4682,
      "दूरी": 4683,
      "##ंटी": 4684,
      "आसानी": 4685,
      "उत्तरदाय": 4686,
      "ज़िन्दगी": 4687,
      "##कृ": 4688,
      "उतर": 4689,
      "कितना": 4690,
      "लड़ाई": 4691,
      "दरम": 4692,
      "नेहरू": 4693,
      "##ूदी": 4694,
      "##उस": 4695,
      "टूट": 4696,
      "##हिम": 4697,
      "कृष्ण": 4698,
      "दिस": 4699,
      "नेअ": 4700,
      "विषयों": 4701,
      "पड़ी": 4702,
      "उपयोगी": 4703,
      "अन्तर्": 4704,
      "हिंदी": 4705,
      "##मात्र": 4706,
      "2000": 4707,
      "त्याग": 4708,
      "##रक": 4709,
      "बनने": 4710,
      "ऐतिहासिक": 4711,
      "मुंबई": 4712,
      "संसाधनों": 4713,
      "##र्ती": 4714,
      "मनो": 4715,
      "गर": 4716,
      "##ओगे": 4717,
      "##ाइट": 4718,
      "re": 4719,
      "जहन्नम": 4720,
      "##ur": 4721,
      "अध्याय": 4722,
      "स्पष्टीकरण": 4723,
      "##िप्प": 4724,
      "चक्र": 4725,
      "आरम्भ": 4726,
      "विद्यमान": 4727,
      "##ूँगा": 4728,
      "साम्राज्य": 4729,
      "करीब": 4730,
      "##अत": 4731,
      "##ंगल": 4732,
      "संबंधों": 4733,
      "ईमानदार": 4734,
      "संस्करण": 4735,
      "गंगा": 4736,
      "the": 4737,
      "परेश": 4738,
      "##ॉँ": 4739,
      "बहुते": 4740,
      "##्द": 4741,
      "Name": 4742,
      "मंच": 4743,
      "शारी": 4744,
      "##गण": 4745,
      "द्वीप": 4746,
      "पैग़म्बरों": 4747,
      "दौड़": 4748,
      "महामहिम": 4749,
      "इलेक्ट्र": 4750,
      "औष": 4751,
      "राज़": 4752,
      "2013": 4753,
      "अधिकारों": 4754,
      "साबित": 4755,
      "ज़ाहिर": 4756,
      "निरी": 4757,
      "होंगी": 4758,
      "##राह": 4759,
      "27": 4760,
      "तत्काल": 4761,
      "मिन": 4762,
      "मर्द": 4763,
      "एड": 4764,
      "##ुस्तान": 4765,
      "कारबार": 4766,
      "सरदार": 4767,
      "कमज": 4768,
      "रीति": 4769,
      "मुद्र": 4770,
      "सेवाएं": 4771,
      "खिलाफ": 4772,
      "पाते": 4773,
      "मोड": 4774,
      "प्रतीत": 4775,
      "##पों": 4776,
      "उपय": 4777,
      "दरव": 4778,
      "आल": 4779,
      "भेद": 4780,
      "##क़्त": 4781,
      "संवर्": 4782,
      "शिकार": 4783,
      "विरोधी": 4784,
      "शुरुआ": 4785,
      "जमीन": 4786,
      "चन्द": 4787,
      "विशेषज्ञ": 4788,
      "अंतरण": 4789,
      "काग": 4790,
      "वाक": 4791,
      "##क़ी": 4792,
      "अभियान": 4793,
      "28": 4794,
      "##सभा": 4795,
      "##ारिक": 4796,
      "क़ाब": 4797,
      "सुभाष": 4798,
      "जिनसे": 4799,
      "##ेरत": 4800,
      "बदलाव": 4801,
      "लोकप्रिय": 4802,
      "आफ": 4803,
      "मुसी": 4804,
      "पूर्वी": 4805,
      "उच्चतम": 4806,
      "हल्": 4807,
      "##वाना": 4808,
      "ज़िन्दा": 4809,
      "विनियम": 4810,
      "गीत": 4811,
      "समी": 4812,
      "चख": 4813,
      "वर्षा": 4814,
      "सचिव": 4815,
      "##िलेख": 4816,
      "घड़ी": 4817,
      "अधिस": 4818,
      "आबाद": 4819,
      "शाह": 4820,
      "##दन": 4821,
      "शरीक": 4822,
      "त्व": 4823,
      "पाई": 4824,
      "क़त": 4825,
      "अवै": 4826,
      "जटिल": 4827,
      "क्लिक": 4828,
      "देर": 4829,
      "अनक़": 4830,
      "##ायु": 4831,
      "##कारात्मक": 4832,
      "किसानों": 4833,
      "छह": 4834,
      "किनारे": 4835,
      "खींच": 4836,
      "जनसंख्या": 4837,
      "आकर": 4838,
      "मस्ति": 4839,
      "रि": 4840,
      "कदापि": 4841,
      "##घाट": 4842,
      "सिफार": 4843,
      "बाँ": 4844,
      "संचालन": 4845,
      "फें": 4846,
      "##ज़ल": 4847,
      "##दीय": 4848,
      "बीमार": 4849,
      "शारीरिक": 4850,
      "##रित": 4851,
      "बारगाह": 4852,
      "##क्शन": 4853,
      "घोषित": 4854,
      "गठन": 4855,
      "प्रदू": 4856,
      "सिफारिश": 4857,
      "##ase": 4858,
      "कौशल": 4859,
      "लेंगे": 4860,
      "करेगी": 4861,
      "पृथ्वी": 4862,
      "##्वा": 4863,
      "रौशन": 4864,
      "तल": 4865,
      "मस्": 4866,
      "दोबारा": 4867,
      "लाते": 4868,
      "रेखा": 4869,
      "पहुँचे": 4870,
      "##वासी": 4871,
      "फ्ल": 4872,
      "एकता": 4873,
      "सुनने": 4874,
      "मं": 4875,
      "मेन": 4876,
      "ब्ल": 4877,
      "समु": 4878,
      "आयोजन": 4879,
      "##ेत्र": 4880,
      "##एन": 4881,
      "महार": 4882,
      "दवा": 4883,
      "##धित": 4884,
      "पंक्ति": 4885,
      "मई": 4886,
      "सहकारी": 4887,
      "हत्या": 4888,
      "दरमियान": 4889,
      "##ूबर": 4890,
      "सहज": 4891,
      "लगते": 4892,
      "बुनियादी": 4893,
      "न्यूनतम": 4894,
      "अफ्रीका": 4895,
      "##वियों": 4896,
      "आपूर्ति": 4897,
      "गुनाहों": 4898,
      "##क्षिक": 4899,
      "शिख": 4900,
      "इसको": 4901,
      "दीवार": 4902,
      "मिसाल": 4903,
      "नयी": 4904,
      "##स्त्र": 4905,
      "##्राफ": 4906,
      "उद्योगों": 4907,
      "अद्य": 4908,
      "उठाया": 4909,
      "##ठित": 4910,
      "क़ुरआन": 4911,
      "सॉफ्ट": 4912,
      "सचे": 4913,
      "##ंकर": 4914,
      "निष्क": 4915,
      "पूर्ववर्ष": 4916,
      "2016": 4917,
      "hi": 4918,
      "विश्लेषण": 4919,
      "तिर": 4920,
      "##शाह": 4921,
      "क़िया": 4922,
      "##सि": 4923,
      "औसत": 4924,
      "गोप": 4925,
      "मीटर": 4926,
      "अचान": 4927,
      "जुड़े": 4928,
      "आंख": 4929,
      "।-": 4930,
      "अगस्त": 4931,
      "क्षमाशील": 4932,
      "चा": 4933,
      "अभिलेख": 4934,
      "##न्द्रनाथ": 4935,
      "वाक़िफ": 4936,
      "कलकत्ता": 4937,
      "##दों": 4938,
      "प्रयत्न": 4939,
      "असा": 4940,
      "आलो": 4941,
      "संकट": 4942,
      "सर्वाधिक": 4943,
      "##ुक्ति": 4944,
      "##लीय": 4945,
      "जेल": 4946,
      "करोगे": 4947,
      "##गारों": 4948,
      "क़ियामत": 4949,
      "अचानक": 4950,
      "आना": 4951,
      "प्रेरण": 4952,
      "रसूलों": 4953,
      "अनक़रीब": 4954,
      "अपमान": 4955,
      "साथी": 4956,
      "पति": 4957,
      "##िस्म": 4958,
      "मांस": 4959,
      "##कीम": 4960,
      "घाटे": 4961,
      "##बानी": 4962,
      "परिणामस्वरूप": 4963,
      "सब्र": 4964,
      "मारे": 4965,
      "कीट": 4966,
      "##ूंकि": 4967,
      "प्रभु": 4968,
      "##शास्त": 4969,
      "डाटा": 4970,
      "इर": 4971,
      "कार्यवाही": 4972,
      "गाय": 4973,
      "अवज्ञा": 4974,
      "उत्पादों": 4975,
      "स्ना": 4976,
      "उपबंधों": 4977,
      "##ादक": 4978,
      "गल": 4979,
      "मीडिया": 4980,
      "दशक": 4981,
      "इंस": 4982,
      "बिलकुल": 4983,
      "लिखित": 4984,
      "जोड़ें": 4985,
      "विशेषकर": 4986,
      "सर्वे": 4987,
      "जिहाद": 4988,
      "चयनित": 4989,
      "##क्षेत्र": 4990,
      "निदेशक": 4991,
      "##माया": 4992,
      "आराम": 4993,
      "रोकने": 4994,
      "शीर्षक": 4995,
      "##ुरी": 4996,
      "प्रतीक्षा": 4997,
      "शोध": 4998,
      "##ेंशन": 4999,
      "निहित": 5000,
      "##सायिक": 5001,
      "##दाता": 5002,
      "पट्टी": 5003,
      "ढूं": 5004,
      "मुश्क": 5005,
      "धारण": 5006,
      "सृजन": 5007,
      "##्टे": 5008,
      "ईमानवालों": 5009,
      "तत्वदर्शी": 5010,
      "समझौता": 5011,
      "बख्शने": 5012,
      "विभाजन": 5013,
      "नागरिकों": 5014,
      "इल्म": 5015,
      "शे": 5016,
      "##फ़ा": 5017,
      "##नर": 5018,
      "नेकी": 5019,
      "ज़रा": 5020,
      "टिप्प": 5021,
      "संदेह": 5022,
      "झगड़": 5023,
      "खाली": 5024,
      "अवैध": 5025,
      "गाँ": 5026,
      "साइ": 5027,
      "##त्तम": 5028,
      "गुमराह": 5029,
      "बस्ती": 5030,
      "प्रेष": 5031,
      "लोड": 5032,
      "प्रद": 5033,
      "श्रेष्ठ": 5034,
      "##पास": 5035,
      "शत्रु": 5036,
      "सुझाव": 5037,
      "नहरें": 5038,
      "जड़": 5039,
      "##ोब": 5040,
      "हैंः": 5041,
      "##तीत": 5042,
      "##लोड": 5043,
      "इकट्ठा": 5044,
      "टीम": 5045,
      "छुप": 5046,
      "##गोल": 5047,
      "##न्ना": 5048,
      "विधेयक": 5049,
      "##ायर": 5050,
      "जन्नत": 5051,
      "गौर": 5052,
      "##शनल": 5053,
      "रुपए": 5054,
      "संलग्न": 5055,
      "थोड़े": 5056,
      "परमाण": 5057,
      "सम्बन्धी": 5058,
      "अनुरूप": 5059,
      "देवी": 5060,
      "शिश": 5061,
      "संवाद": 5062,
      "अन्ततः": 5063,
      "अमेरिकी": 5064,
      "दुखद": 5065,
      "अपन": 5066,
      "मस्तिष्क": 5067,
      "नमू": 5068,
      "##ोजी": 5069,
      "सरकारों": 5070,
      "दुर": 5071,
      "##माने": 5072,
      "अधिसू": 5073,
      "मूल्यों": 5074,
      "##बीह": 5075,
      "तेरी": 5076,
      "µà": 5077,
      "##फ़र": 5078,
      "बुरे": 5079,
      "चोट": 5080,
      "औऱ": 5081,
      "प्रतिनिधित्व": 5082,
      "¤¦": 5083,
      "रिस": 5084,
      "प्राधिकारी": 5085,
      "##ानु": 5086,
      "एकल": 5087,
      "चन्द्र": 5088,
      "##ुख": 5089,
      "सुदृ": 5090,
      "मुश्किल": 5091,
      "##य्य": 5092,
      "प्रि": 5093,
      "आमत": 5094,
      "##्शन": 5095,
      "बिंद": 5096,
      "भाषाओं": 5097,
      "##जल": 5098,
      "प्रभुत्वशाली": 5099,
      "लाइन": 5100,
      "वैध": 5101,
      "##...": 5102,
      "पुनर्": 5103,
      "()": 5104,
      "जर्म": 5105,
      "##अर": 5106,
      "पौध": 5107,
      "कहान": 5108,
      "##कर्ताओं": 5109,
      "तमिल": 5110,
      "अनुपात": 5111,
      "फॉ": 5112,
      "अकबर": 5113,
      "यथा": 5114,
      "##बाज": 5115,
      "तथापि": 5116,
      "सबके": 5117,
      "सूत्र": 5118,
      "बदलने": 5119,
      "खिल": 5120,
      "##ारक": 5121,
      "इनका": 5122,
      "खुला": 5123,
      "##न्ड": 5124,
      "हटकर": 5125,
      "--": 5126,
      "##सोस": 5127,
      "##क्सी": 5128,
      "गिरफ्त": 5129,
      "##01": 5130,
      "आवाज": 5131,
      "##ार्ग": 5132,
      "परियोजनाओं": 5133,
      "ख़ुश": 5134,
      "##ाइड": 5135,
      "भागीदारी": 5136,
      "हिक": 5137,
      "अहम": 5138,
      "inf": 5139,
      "##te": 5140,
      "##नाश": 5141,
      "चुने": 5142,
      "जय": 5143,
      "##िकेट": 5144,
      "किलो": 5145,
      "गुरु": 5146,
      "डरो": 5147,
      "संगठनों": 5148,
      "अभिव्यक्ति": 5149,
      "गणना": 5150,
      "40": 5151,
      "¤": 5152,
      "तिथ": 5153,
      "##ेव": 5154,
      "##त्री": 5155,
      "ब्रा": 5156,
      "सांसारिक": 5157,
      "सर्वेक्षण": 5158,
      "आमतौर": 5159,
      ":-": 5160,
      "##कारा": 5161,
      "ब्राह": 5162,
      "##ंडी": 5163,
      "दाख़": 5164,
      "##पालिका": 5165,
      "##ैत": 5166,
      "व्याख्या": 5167,
      "ग्राहक": 5168,
      "लॉग": 5169,
      "गेंद": 5170,
      "यंत्र": 5171,
      "##तरित": 5172,
      "विनष्ट": 5173,
      "राजनीति": 5174,
      "अफ़": 5175,
      "परिवर्तित": 5176,
      "शुरुआत": 5177,
      "गोल": 5178,
      "टेली": 5179,
      "##ोकन": 5180,
      "अद्यतन": 5181,
      "मोब": 5182,
      "सॉफ्टवेयर": 5183,
      "गरीब": 5184,
      "फ़रिश्ते": 5185,
      "देय": 5186,
      "हवाई": 5187,
      "ज्ञात": 5188,
      "##जू": 5189,
      "अन्यथा": 5190,
      "##ॉक": 5191,
      "ज्याद": 5192,
      "मुसीबत": 5193,
      "कही": 5194,
      "अनुग्रह": 5195,
      "शैक्षिक": 5196,
      "चूंकि": 5197,
      "##ंदी": 5198,
      "परिवहन": 5199,
      "बनाएँ": 5200,
      "##ing": 5201,
      "पशु": 5202,
      "द्वितीय": 5203,
      "चुनौती": 5204,
      "स्क्रीन": 5205,
      "¤": 5206,
      "हँ": 5207,
      "शहरी": 5208,
      "##ri": 5209,
      "सै": 5210,
      "अवतरित": 5211,
      "मिलेगा": 5212,
      "शौ": 5213,
      "चालू": 5214,
      "सिक्": 5215,
      "उत्तरी": 5216,
      "80": 5217,
      "##प्प": 5218,
      "इंटरनेट": 5219,
      "35": 5220,
      "यूसुफ": 5221,
      "मस्ज": 5222,
      "बग": 5223,
      "लै": 5224,
      "इसने": 5225,
      "राज्यपाल": 5226,
      "यूँ": 5227,
      "##शे": 5228,
      "प्रतिभा": 5229,
      "बन्दे": 5230,
      "प्राथमिकता": 5231,
      "हिकमत": 5232,
      "टिक": 5233,
      "निकाय": 5234,
      "info": 5235,
      "हरे": 5236,
      "आसपास": 5237,
      "बाबत": 5238,
      "##ंबी": 5239,
      "समझने": 5240,
      "पेड़": 5241,
      "बिगा": 5242,
      "##शीलता": 5243,
      "ति": 5244,
      "संध": 5245,
      "निः": 5246,
      "स्तंभ": 5247,
      "¤": 5248,
      "कत": 5249,
      "##ड़ियों": 5250,
      "क़ायम": 5251,
      "##िमय": 5252,
      "लक": 5253,
      "इनकी": 5254,
      "सुविधाओं": 5255,
      "नुकसान": 5256,
      "नवान्वेषण": 5257,
      "दाख़िल": 5258,
      "रवी": 5259,
      "मौल": 5260,
      "चिंता": 5261,
      "अभिप्रे": 5262,
      "अक्षम": 5263,
      "होम": 5264,
      "देखे": 5265,
      "##ुलन": 5266,
      "बाह्य": 5267,
      "व्यावसायिक": 5268,
      "ऑंख": 5269,
      "##राम": 5270,
      "##इया": 5271,
      "पालने": 5272,
      "शुरु": 5273,
      "दिखाता": 5274,
      "आस्ति": 5275,
      "##ra": 5276,
      "##िल्प": 5277,
      "सुदृढ़": 5278,
      "नोड": 5279,
      "कुदर": 5280,
      "चली": 5281,
      "वंश": 5282,
      "##केट": 5283,
      "समाप्ति": 5284,
      "##ार्ट": 5285,
      "बहुम": 5286,
      "आयी": 5287,
      "##निष्ठ": 5288,
      "घो": 5289,
      "जाल": 5290,
      "शक्तियों": 5291,
      "¤¼": 5292,
      "उधार": 5293,
      "कैसा": 5294,
      "थोड़ी": 5295,
      "##ail": 5296,
      "##वासियों": 5297,
      "¤¡": 5298,
      "लिम": 5299,
      "##ide": 5300,
      "##बीर": 5301,
      "रोगी": 5302,
      "घंटे": 5303,
      "कमजोर": 5304,
      "परमाणु": 5305,
      "महास": 5306,
      "##भाषित": 5307,
      "महारा": 5308,
      "##िप्त": 5309,
      "आकर्षित": 5310,
      "जिले": 5311,
      "कामना": 5312,
      "अभाव": 5313,
      "विम": 5314,
      "उत्साह": 5315,
      "##वंश": 5316,
      "संविदा": 5317,
      "क्व": 5318,
      "##ंत्रिक": 5319,
      "##संगत": 5320,
      "बुद्ध": 5321,
      "बेहिश्त": 5322,
      "प्रोत्साहित": 5323,
      "##मीटर": 5324,
      "चरित्र": 5325,
      "फोन": 5326,
      "भले": 5327,
      "सड़क": 5328,
      "खाओ": 5329,
      "##lease": 5330,
      "समग्र": 5331,
      "##ीकृति": 5332,
      "दबाव": 5333,
      "भरे": 5334,
      "##ब्र": 5335,
      "##पेक्ष": 5336,
      "कश्मीर": 5337,
      "##गान": 5338,
      "##क्व": 5339,
      "##राक": 5340,
      "##चारिक": 5341,
      "सशक्त": 5342,
      "पाठ्यक्रम": 5343,
      "##of": 5344,
      "कराया": 5345,
      "##ंदन": 5346,
      "आग्रह": 5347,
      "दोनो": 5348,
      "बजाय": 5349,
      "देन": 5350,
      "उपक्रम": 5351,
      "जाएंगे": 5352,
      "जागर": 5353,
      "जिन्": 5354,
      "##नेवाले": 5355,
      "##ाज़े": 5356,
      "##िरी": 5357,
      "##ोबार": 5358,
      "##ूद्ध": 5359,
      "ज़्यादा": 5360,
      "जरिए": 5361,
      "घटनाओं": 5362,
      "कॉन्": 5363,
      "समृद्ध": 5364,
      "of": 5365,
      "##ाती": 5366,
      "नवीन": 5367,
      "अहले": 5368,
      "उत्तरा": 5369,
      "धात": 5370,
      "परिश": 5371,
      "##लेट": 5372,
      "नियंत्रित": 5373,
      "साध": 5374,
      "आहार": 5375,
      "##वादियों": 5376,
      "मकान": 5377,
      "##तियां": 5378,
      "सागर": 5379,
      "लिखे": 5380,
      "मिलते": 5381,
      "डाउन": 5382,
      "##बूल": 5383,
      "##इश": 5384,
      "कने": 5385,
      "पंजीकरण": 5386,
      "अदालत": 5387,
      "##घाटन": 5388,
      "गुल": 5389,
      "##डु": 5390,
      "नेताओं": 5391,
      "##ेरे": 5392,
      "सुनते": 5393,
      "लंबे": 5394,
      "##क्षीय": 5395,
      "रहेगी": 5396,
      "सभ्यता": 5397,
      "मोबाइल": 5398,
      "##ैरह": 5399,
      "खान": 5400,
      "तात": 5401,
      "##वों": 5402,
      "अधिव": 5403,
      "##ाजे": 5404,
      "##ष्टा": 5405,
      "सुनता": 5406,
      "संसदीय": 5407,
      "बां": 5408,
      "##लक": 5409,
      "श्रृंखला": 5410,
      "सफेद": 5411,
      "रद्द": 5412,
      "लाओ": 5413,
      "सतह": 5414,
      "बारी": 5415,
      "मृत": 5416,
      "##वर्ड": 5417,
      "पढ़ा": 5418,
      "अपेक्षित": 5419,
      "##ेंड": 5420,
      "बढ़ती": 5421,
      "फार्म": 5422,
      "पोर्ट": 5423,
      "सन्द": 5424,
      "हड्ड": 5425,
      "##गढ़": 5426,
      "##्ज़": 5427,
      "संगम": 5428,
      "निकाला": 5429,
      "तकनीक": 5430,
      "पड": 5431,
      "##ष्म": 5432,
      "प्रविष्ट": 5433,
      "मोमिनीन": 5434,
      "सरकशी": 5435,
      "##शो": 5436,
      "औरत": 5437,
      "मुद्": 5438,
      "दस्तावेज़": 5439,
      "एख्त": 5440,
      "लेखन": 5441,
      "फ़िरऔन": 5442,
      "पुरानी": 5443,
      "विश्वविद्यालयों": 5444,
      "रिया": 5445,
      "सन": 5446,
      "हार्": 5447,
      "सकेंगे": 5448,
      "ख़ौ": 5449,
      "अभिप्रेत": 5450,
      "चलाने": 5451,
      "प्रेरणा": 5452,
      "निगर": 5453,
      "निष्": 5454,
      "बहुतेरे": 5455,
      "संयंत्र": 5456,
      "टैग": 5457,
      "असमर्थ": 5458,
      "तिथि": 5459,
      "##ut": 5460,
      "##कां": 5461,
      "जुलाई": 5462,
      "वीर": 5463,
      "फिली": 5464,
      "##बि": 5465,
      "ज़ालिमों": 5466,
      "तलाश": 5467,
      "##भाविक": 5468,
      "नद": 5469,
      "सीधी": 5470,
      "मध्यम": 5471,
      "प्रारंभिक": 5472,
      "लानेवालो": 5473,
      "##मति": 5474,
      "उन्होने": 5475,
      "मानवीय": 5476,
      "काफिरों": 5477,
      "जीत": 5478,
      "##ांग": 5479,
      "##क़त": 5480,
      "कमांड": 5481,
      "भरी": 5482,
      "हॉ": 5483,
      "##मती": 5484,
      "##इल": 5485,
      "नाते": 5486,
      "सिविल": 5487,
      "##वां": 5488,
      "हिंसा": 5489,
      "प्रशासनिक": 5490,
      "1961": 5491,
      "##िष्ठ": 5492,
      "##दीक": 5493,
      "सौर": 5494,
      "##दिन": 5495,
      "महात्मा": 5496,
      "##न्दर": 5497,
      "##राईल": 5498,
      "कन": 5499,
      "##क्रिय": 5500,
      "समझता": 5501,
      ">>": 5502,
      "स्वतः": 5503,
      "उक्त": 5504,
      "मक्": 5505,
      "स्वाम": 5506,
      "##तिश": 5507,
      "##ंचित": 5508,
      "हला": 5509,
      "##मेल": 5510,
      "अनुदान": 5511,
      "समर्पित": 5512,
      "एंड": 5513,
      "##चरण": 5514,
      "क़दम": 5515,
      "विन्यास": 5516,
      "##क्क": 5517,
      "लूत": 5518,
      "उतारा": 5519,
      "क़त्ल": 5520,
      "ऑनलाइन": 5521,
      "ग़ौर": 5522,
      "भंडारण": 5523,
      "##िकों": 5524,
      "सराह": 5525,
      "संबद्ध": 5526,
      "रेलवे": 5527,
      "##ट्र": 5528,
      "प्रथा": 5529,
      "निच": 5530,
      "तुरंत": 5531,
      "##न्थ": 5532,
      "##जार": 5533,
      "दुः": 5534,
      "मक्का": 5535,
      "##ोटो": 5536,
      "यूनिट": 5537,
      "गिन": 5538,
      "दान": 5539,
      "दाह": 5540,
      "##हल": 5541,
      "प्री": 5542,
      "समझे": 5543,
      "सोचा": 5544,
      "कृतज्ञ": 5545,
      "भंडार": 5546,
      "सावधान": 5547,
      "अभिय": 5548,
      "##ोधित": 5549,
      "किसान": 5550,
      "प्रकाशन": 5551,
      "फ़िल्म": 5552,
      "मुद्दों": 5553,
      "##णन": 5554,
      "काला": 5555,
      "समन्वय": 5556,
      "##तल": 5557,
      "बच्चा": 5558,
      "सम्पूर्ण": 5559,
      "अँ": 5560,
      "चाहा": 5561,
      "टुकड़े": 5562,
      "##ैया": 5563,
      "##अप": 5564,
      "एकमात्र": 5565,
      "याच": 5566,
      "मंडल": 5567,
      "रहस्य": 5568,
      "##ंगिक": 5569,
      "##द्धा": 5570,
      "बनाये": 5571,
      "पहुंचा": 5572,
      "जुट": 5573,
      "केरल": 5574,
      "चुना": 5575,
      "दुश्म": 5576,
      "पर्वत": 5577,
      "##नात्मक": 5578,
      "निभ": 5579,
      "बाकी": 5580,
      "आएँ": 5581,
      "समझौते": 5582,
      "कार्यान्वयन": 5583,
      "पुष्टि": 5584,
      "शिखर": 5585,
      "##्रेट": 5586,
      "##ग्ध": 5587,
      "##त्": 5588,
      "##ेंसी": 5589,
      "परस": 5590,
      "रूस": 5591,
      "बिगाड़": 5592,
      "इला": 5593,
      "वस्त्र": 5594,
      "निगरानी": 5595,
      "##ww": 5596,
      "हमको": 5597,
      "मुंह": 5598,
      "इसराईल": 5599,
      "काफ़िरों": 5600,
      "32": 5601,
      "##पंथ": 5602,
      "नेअमत": 5603,
      "रेश": 5604,
      "##ंजन": 5605,
      "60": 5606,
      "www": 5607,
      "##भ्र": 5608,
      "तुम्हे": 5609,
      ").": 5610,
      "##Comment": 5611,
      "बोली": 5612,
      "2007": 5613,
      "कंपनियों": 5614,
      "चेहरे": 5615,
      "महाराष्ट्र": 5616,
      "##णिक": 5617,
      "191": 5618,
      "समीक्षा": 5619,
      "ब्राह्म": 5620,
      "चाहें": 5621,
      "2012": 5622,
      "सेटिंग": 5623,
      "भेजी": 5624,
      "क़िस्म": 5625,
      "सें": 5626,
      "##शक्ति": 5627,
      "कुफ्र": 5628,
      "तकलीफ़": 5629,
      "खड़ी": 5630,
      "##्टा": 5631,
      "##काब": 5632,
      "सर्वोत्तम": 5633,
      "##ome": 5634,
      "प्लग": 5635,
      "लिमिट": 5636,
      "असर": 5637,
      "प्रतिष्ठित": 5638,
      "मोहम्मद": 5639,
      "नु": 5640,
      "वकी": 5641,
      "##परी": 5642,
      "प्रचलित": 5643,
      "##ामान": 5644,
      "##ादे": 5645,
      "अभिक": 5646,
      "विनिमय": 5647,
      "मॉडल": 5648,
      "##ूष": 5649,
      "##न्दी": 5650,
      "##ार्ज": 5651,
      "उपयोक्ता": 5652,
      "अनुसूचित": 5653,
      "गौ": 5654,
      "प्रतिस्प": 5655,
      "वर्गों": 5656,
      "शहरों": 5657,
      "पर्यटन": 5658,
      "जानवरों": 5659,
      "##सूर": 5660,
      "बनाता": 5661,
      "विवेक": 5662,
      "देखना": 5663,
      "सरकश": 5664,
      "लेती": 5665,
      "योजनाओं": 5666,
      "हक": 5667,
      "##िने": 5668,
      "पाँच": 5669,
      "बिंदु": 5670,
      "कष्ट": 5671,
      "अनुरोध": 5672,
      "टेक": 5673,
      "दिना": 5674,
      "##दास": 5675,
      "आमाल": 5676,
      "सत्याप": 5677,
      "छाप": 5678,
      "धु": 5679,
      "ध्वनि": 5680,
      "गुजरात": 5681,
      "स्वस्थ": 5682,
      "जलव": 5683,
      "अमान": 5684,
      "नाप": 5685,
      "##र्की": 5686,
      "विद्र": 5687,
      "जगत": 5688,
      "##र्जन": 5689,
      "##ार्थी": 5690,
      "निशानियों": 5691,
      "मिनट": 5692,
      "##एगा": 5693,
      "ख़ैर": 5694,
      "उपा": 5695,
      "पाद": 5696,
      "भरा": 5697,
      "कहेगा": 5698,
      "नियुक्ति": 5699,
      "भावी": 5700,
      "जुल": 5701,
      "लंबी": 5702,
      "प्रेस": 5703,
      "##्यवाद": 5704,
      "ढूंढ": 5705,
      "फरवरी": 5706,
      "##क़ा": 5707,
      "बोस": 5708,
      "चिकित्स": 5709,
      "##ंठ": 5710,
      "##बो": 5711,
      "निष्कर्ष": 5712,
      "यहूदी": 5713,
      "फ़रिश्तों": 5714,
      "दर्दनाक": 5715,
      "##वेदन": 5716,
      "सचेत": 5717,
      "खज": 5718,
      "प्रतिनिधि": 5719,
      "विभाजित": 5720,
      "लिमिटेड": 5721,
      "गर्भ": 5722,
      "महल": 5723,
      "##भावना": 5724,
      "##शास्त्र": 5725,
      "विद्यालय": 5726,
      "प्रारूप": 5727,
      "चैनल": 5728,
      "निरीक्षण": 5729,
      "कनेक्शन": 5730,
      "खत्म": 5731,
      "ड़": 5732,
      "##ुण": 5733,
      "अभिन": 5734,
      "##ंघन": 5735,
      "मस्जिद": 5736,
      "29": 5737,
      "##धारी": 5738,
      "तंग": 5739,
      "मिलेगी": 5740,
      "त्वचा": 5741,
      "मिलियन": 5742,
      "कपड़े": 5743,
      "उपर": 5744,
      "प्रतियोग": 5745,
      "¤«": 5746,
      "रण": 5747,
      "##ेंज": 5748,
      "##रीबी": 5749,
      "दिव्य": 5750,
      "हार्दिक": 5751,
      "कब्": 5752,
      "##्फ": 5753,
      "छु": 5754,
      "आएगा": 5755,
      "सम्भव": 5756,
      "##यात": 5757,
      "मानना": 5758,
      "उज": 5759,
      "मक": 5760,
      "अगला": 5761,
      "##हाई": 5762,
      "सहन": 5763,
      "##ME": 5764,
      "##क्रिप": 5765,
      "दिखाने": 5766,
      "पृष्ठभूमि": 5767,
      "भ्रम": 5768,
      "उतना": 5769,
      "देखी": 5770,
      "##दूरी": 5771,
      "जितनी": 5772,
      "##op": 5773,
      "संक्रमण": 5774,
      "डूब": 5775,
      "नज़": 5776,
      "कहे": 5777,
      "आजादी": 5778,
      "लगाए": 5779,
      "##ॉल्ट": 5780,
      "मजदूर": 5781,
      "मृ": 5782,
      "##ादिर": 5783,
      "स्वीकृति": 5784,
      "कारणों": 5785,
      "बल्ले": 5786,
      "कैं": 5787,
      "गहरी": 5788,
      "जवाह": 5789,
      "##फ़ी": 5790,
      "भागी": 5791,
      "बदलें": 5792,
      "ईसाई": 5793,
      "कठिनाई": 5794,
      "इंग्ल": 5795,
      "पूर्ति": 5796,
      "जुड़": 5797,
      "पौधों": 5798,
      "भट": 5799,
      "भेंट": 5800,
      "विरूद्ध": 5801,
      "एव": 5802,
      "##र्दा": 5803,
      "नीतियों": 5804,
      "पाब": 5805,
      "##लैंड": 5806,
      "##ॉट": 5807,
      "##्रदाय": 5808,
      "देगें": 5809,
      "##विज्ञान": 5810,
      "लम्ब": 5811,
      "##विधि": 5812,
      "काफ़िर": 5813,
      "##india": 5814,
      "##गन": 5815,
      "2001": 5816,
      "कड़ी": 5817,
      "##काव": 5818,
      "</": 5819,
      "##दंड": 5820,
      "दिनांक": 5821,
      "##ख्यात": 5822,
      "##कृष्ण": 5823,
      "मुक्ति": 5824,
      "महीनों": 5825,
      "बाबू": 5826,
      "छात्रों": 5827,
      "धम": 5828,
      "##ाड़": 5829,
      "मरने": 5830,
      "अर्ध": 5831,
      "##ीकृत": 5832,
      "##नाह": 5833,
      "अनुश": 5834,
      "##ब्ब": 5835,
      "भटक": 5836,
      "2018": 5837,
      "नौकरी": 5838,
      "वास": 5839,
      "##मतों": 5840,
      "डिफ़": 5841,
      "शिक्षक": 5842,
      "##शाही": 5843,
      "जिम्मेदारी": 5844,
      "##र्ज़": 5845,
      "सहमत": 5846,
      "पीने": 5847,
      "संरक्षक": 5848,
      "गार": 5849,
      "पोषण": 5850,
      "फु": 5851,
      "##ow": 5852,
      "संह": 5853,
      "##ागर": 5854,
      "इनसे": 5855,
      "##थी": 5856,
      "राजस्थान": 5857,
      "स्वाभाविक": 5858,
      "छोड़ा": 5859,
      "उद्घाटन": 5860,
      "यौ": 5861,
      "नेत्र": 5862,
      "अनि": 5863,
      "उपस्थिति": 5864,
      "##ावर": 5865,
      "कोशिका": 5866,
      "हिमालय": 5867,
      "जलवायु": 5868,
      "भक्ति": 5869,
      "##सों": 5870,
      "बचाव": 5871,
      "det": 5872,
      "नेपाल": 5873,
      "##मार्ग": 5874,
      "##ासत": 5875,
      "समुद्री": 5876,
      "##ॉन्ट": 5877,
      "फेंक": 5878,
      "संध्या": 5879,
      "##ास्ट": 5880,
      "राजधानी": 5881,
      "क़ुब": 5882,
      "##र्मी": 5883,
      "पैरवी": 5884,
      "मछली": 5885,
      "ठोस": 5886,
      "प्रान्त": 5887,
      "हितों": 5888,
      "समावेश": 5889,
      "क़ुबूल": 5890,
      "##्नि": 5891,
      "कर्तव्य": 5892,
      "कच्च": 5893,
      "##पचारिक": 5894,
      "##ेयार": 5895,
      "अरबी": 5896,
      "लम्": 5897,
      "गुफा": 5898,
      "##तावनी": 5899,
      "विद": 5900,
      "ज़ोर": 5901,
      "##स्फ": 5902,
      "चीज़े": 5903,
      "परसतिश": 5904,
      "अमल": 5905,
      "समूहों": 5906,
      "रहमान": 5907,
      "विज्ञ": 5908,
      "##क्षिप्त": 5909,
      "कामों": 5910,
      "आवश्यकताओं": 5911,
      "खण्ड": 5912,
      "माने": 5913,
      "##ुति": 5914,
      "विपणन": 5915,
      "चेतावनी": 5916,
      "खराब": 5917,
      "असह": 5918,
      "शर्तों": 5919,
      "##सेंस": 5920,
      "##लिंग": 5921,
      "##ाज़त": 5922,
      "क्रिकेट": 5923,
      "सुविधाएं": 5924,
      "उद्ध": 5925,
      "अवधार": 5926,
      "डाउनलोड": 5927,
      "मिलाकर": 5928,
      "खतरा": 5929,
      "समानता": 5930,
      "देवता": 5931,
      "समृद्धि": 5932,
      "मुख़": 5933,
      "सामूह": 5934,
      "##कालिक": 5935,
      "मनुष्यों": 5936,
      "उन्नत": 5937,
      "ढांचे": 5938,
      "##यु": 5939,
      "##ाजन": 5940,
      "##ावल": 5941,
      "बाहम": 5942,
      "डराने": 5943,
      "##ident": 5944,
      "फर्म": 5945,
      "##ेश्वर": 5946,
      "बेटा": 5947,
      "अलब": 5948,
      "उभर": 5949,
      "शरण": 5950,
      "##नें": 5951,
      "##ानिक": 5952,
      "सीमाओं": 5953,
      "प्राधिकरण": 5954,
      "बाग़ों": 5955,
      "अली": 5956,
      "गरीबी": 5957,
      "परम्प": 5958,
      "एका": 5959,
      "स्वर्ण": 5960,
      "बादशाह": 5961,
      "अंतः": 5962,
      "दरिया": 5963,
      "वारिस": 5964,
      "अन्तर्गत": 5965,
      "बक": 5966,
      "पहलू": 5967,
      "बजट": 5968,
      "छुटकारा": 5969,
      "press": 5970,
      "अर्ज़": 5971,
      "लिंक": 5972,
      "01": 5973,
      "चिप": 5974,
      "##भि": 5975,
      "नील": 5976,
      "अग्रिम": 5977,
      "चाहती": 5978,
      "##ंडा": 5979,
      "गवर्": 5980,
      "बैक": 5981,
      "प्रकाशना": 5982,
      "आलोचना": 5983,
      "घूम": 5984,
      "शक्तिशाली": 5985,
      "उल्लेखनीय": 5986,
      "मिस्र": 5987,
      "गांवों": 5988,
      "बटन": 5989,
      "निष्ठ": 5990,
      "मुकाब": 5991,
      "द्विप": 5992,
      "##देव": 5993,
      "गू": 5994,
      "चाय": 5995,
      "सरपर": 5996,
      "##ोत्तर": 5997,
      "तत्वों": 5998,
      "##भारत": 5999,
      "president": 6000,
      "चिन्ह": 6001,
      "##चार्य": 6002,
      "अपनाया": 6003,
      "दाखिल": 6004,
      "##ofindia": 6005,
      "detail": 6006,
      "##िसी": 6007,
      "##जाति": 6008,
      "आभ": 6009,
      "ग्ल": 6010,
      "##re": 6011,
      "##्यूब": 6012,
      "चीनी": 6013,
      "चीजों": 6014,
      "पड़ती": 6015,
      "छिपा": 6016,
      "बस्तियों": 6017,
      "हाज़": 6018,
      "लगती": 6019,
      "बनकर": 6020,
      "भारतीयों": 6021,
      "¤¬": 6022,
      "क़रीब": 6023,
      "ड्राइ": 6024,
      "प्रतिस्पर्": 6025,
      "presidentofindia": 6026,
      "आदान": 6027,
      "ज़कात": 6028,
      "चिंत": 6029,
      "2005": 6030,
      "बचाने": 6031,
      "release": 6032,
      "संहिता": 6033,
      "तस्व": 6034,
      "दास": 6035,
      "##िगर": 6036,
      "##क्षी": 6037,
      "##माना": 6038,
      "वैसा": 6039,
      "सामूहिक": 6040,
      "चुनौ": 6041,
      "गिरफ्तार": 6042,
      "कार्ब": 6043,
      "क़ादिर": 6044,
      "मैत्री": 6045,
      "पौधे": 6046,
      "गहन": 6047,
      "##मर": 6048,
      "अग्रणी": 6049,
      "अनुमोदन": 6050,
      "नंबर": 6051,
      "##षित": 6052,
      "करम": 6053,
      "जिसपर": 6054,
      "पीड़": 6055,
      "राजस्व": 6056,
      "राहे": 6057,
      "आसमानों": 6058,
      "असाधारण": 6059,
      "शोक": 6060,
      "सांप": 6061,
      "दैनिक": 6062,
      "स्वप": 6063,
      "जोड़ने": 6064,
      "##ंध्र": 6065,
      "##स्थापित": 6066,
      "कमज़": 6067,
      "परिचय": 6068,
      "आब": 6069,
      "लगाना": 6070,
      "जनरल": 6071,
      "##चालित": 6072,
      "रोका": 6073,
      "अकेले": 6074,
      "रवीन्द्रनाथ": 6075,
      "##विक": 6076,
      "निकले": 6077,
      "##्रांत": 6078,
      "##जनन": 6079,
      "पार्": 6080,
      "प्रवृत्ति": 6081,
      "झुक": 6082,
      "##लिया": 6083,
      "इस्लामी": 6084,
      "डिफ़ॉल्ट": 6085,
      "यो": 6086,
      "##ठा": 6087,
      "कोय": 6088,
      "बारह": 6089,
      "व्यक्तित्व": 6090,
      "पूछो": 6091,
      "खोलने": 6092,
      "तीसरे": 6093,
      "विविधता": 6094,
      "प्यार": 6095,
      "कॉन्फ़": 6096,
      "to": 6097,
      "क्रांति": 6098,
      "##ल्य": 6099,
      "परे": 6100,
      "पक्षों": 6101,
      "उल्लंघन": 6102,
      "दुर्घ": 6103,
      "शिक्षण": 6104,
      "##िच": 6105,
      "##पात": 6106,
      "‘‘": 6107,
      "##जित": 6108,
      "काश": 6109,
      "##िलों": 6110,
      "निष्क्रिय": 6111,
      "ग्राफ": 6112,
      "नृत्य": 6113,
      "भाष्": 6114,
      "इमार": 6115,
      "विहित": 6116,
      "##ग्रस्त": 6117,
      "निष्पादन": 6118,
      "अस्पताल": 6119,
      "शिशु": 6120,
      "दोज़": 6121,
      "अस्वी": 6122,
      "##श्वास": 6123,
      "##िड़": 6124,
      "##ॉर्ड": 6125,
      "बांध": 6126,
      "एहद": 6127,
      "पॉ": 6128,
      "पंड": 6129,
      "भंग": 6130,
      "##ॉलर": 6131,
      "खोलें": 6132,
      "अध्याप": 6133,
      "परम्परा": 6134,
      "लु": 6135,
      "##ेंद्र": 6136,
      "राहत": 6137,
      "विमर्श": 6138,
      "सरपरस्त": 6139,
      "##िस्टर": 6140,
      "बेल": 6141,
      "##त्ते": 6142,
      "पड़ेगा": 6143,
      "कम्पनी": 6144,
      "प्रवृत्त": 6145,
      "वकील": 6146,
      "लिंग": 6147,
      "ताज": 6148,
      "##ist": 6149,
      "##रेख": 6150,
      "##क्रो": 6151,
      "बैंकिंग": 6152,
      "सितंबर": 6153,
      "प्रदूषण": 6154,
      "##ाबेस": 6155,
      "##ुम्ब": 6156,
      "बढ़ने": 6157,
      "ताकत": 6158,
      "औषध": 6159,
      "संवर्धन": 6160,
      "ऊपरी": 6161,
      "सवार": 6162,
      "समुचित": 6163,
      "अल्": 6164,
      "अज्ञात": 6165,
      "भेजने": 6166,
      "लाइसेंस": 6167,
      "कागज": 6168,
      "अक्त": 6169,
      "युक्ति": 6170,
      "प्रारम्भ": 6171,
      "वाक़िफ़": 6172,
      "st": 6173,
      "मिथ": 6174,
      "लाना": 6175,
      "जायें": 6176,
      "उपकरणों": 6177,
      "वर्गी": 6178,
      "अत्याचारी": 6179,
      "##कोश": 6180,
      "पैमाने": 6181,
      "पदार्थों": 6182,
      "तह": 6183,
      "तिल": 6184,
      "प्रणाल": 6185,
      "घाटी": 6186,
      "निराश": 6187,
      "##वाने": 6188,
      "अंतरिक्ष": 6189,
      "बौद्धिक": 6190,
      "साइट": 6191,
      "लेगा": 6192,
      "बाधा": 6193,
      "सामान्यतः": 6194,
      "2006": 6195,
      "for": 6196,
      "##मंडल": 6197,
      "##िवेश": 6198,
      "स्कीम": 6199,
      "ब्रिटेन": 6200,
      "विद्वान": 6201,
      "वाणिज्यिक": 6202,
      "##रू": 6203,
      "क़स": 6204,
      "साहस": 6205,
      "##वृत्ति": 6206,
      "दुर्घटना": 6207,
      "##न्ट": 6208,
      "स्ट्र": 6209,
      "संप्र": 6210,
      "मोड़": 6211,
      "फायदा": 6212,
      "##्यूल": 6213,
      "स्वभाव": 6214,
      "जहाज": 6215,
      "विनाश": 6216,
      "समाय": 6217,
      "जादूगर": 6218,
      "##पत": 6219,
      "जातियों": 6220,
      "डिजाइन": 6221,
      "36": 6222,
      "अख": 6223,
      "दिला": 6224,
      "बिहार": 6225,
      "##ख़बरी": 6226,
      "याचिका": 6227,
      "अकार": 6228,
      "चाँ": 6229,
      "ट्रे": 6230,
      "प्रतिबंध": 6231,
      "मंदिरों": 6232,
      "अब्द": 6233,
      "यहूद": 6234,
      "##न्दा": 6235,
      "##िटल": 6236,
      "##सनीय": 6237,
      "साहित्यिक": 6238,
      "अत्याचार": 6239,
      "¤¶": 6240,
      "निर्देशिका": 6241,
      "हलाल": 6242,
      "मादा": 6243,
      "लान": 6244,
      "दावे": 6245,
      "नान": 6246,
      "मरा": 6247,
      "##धानिक": 6248,
      "दुर्भ": 6249,
      "ज़रिए": 6250,
      "दह": 6251,
      "पोजी": 6252,
      "फज़ल": 6253,
      "बिन्द": 6254,
      "##हाल": 6255,
      "##्रोल": 6256,
      "ईमानवाले": 6257,
      "हिंदुस्तान": 6258,
      "खतर": 6259,
      "चतु": 6260,
      "दलील": 6261,
      "##लाल": 6262,
      "पैसे": 6263,
      "ब्राउ": 6264,
      "चेक": 6265,
      "##ao": 6266,
      "पुरा": 6267,
      "बाध्य": 6268,
      "अक्षर": 6269,
      "कू": 6270,
      "##धिकारी": 6271,
      "बैठा": 6272,
      "स्मरण": 6273,
      "प्रविष्टि": 6274,
      "##ाफ": 6275,
      "मिटाएँ": 6276,
      "प्रतियोगिता": 6277,
      "08": 6278,
      "##दस्त": 6279,
      "मुला": 6280,
      "##तन्य": 6281,
      "साझा": 6282,
      "##ौरन": 6283,
      "पुरुषों": 6284,
      "निर्मा": 6285,
      "चंद्र": 6286,
      "इन्सान": 6287,
      "यूरोपीय": 6288,
      "पिल": 6289,
      "धारणा": 6290,
      "चीजें": 6291,
      "##गारी": 6292,
      "आख़ेरत": 6293,
      "जीन": 6294,
      "##शनी": 6295,
      "##बूत": 6296,
      "##फू": 6297,
      "##राबाद": 6298,
      "निकलने": 6299,
      "मक़": 6300,
      "नेशनल": 6301,
      "उपास": 6302,
      "##ाइयों": 6303,
      "हाज़िर": 6304,
      "अक्तूबर": 6305,
      "वार्": 6306,
      "##तार": 6307,
      "आचरण": 6308,
      "##िकीय": 6309,
      "##साफ़": 6310,
      "विरासत": 6311,
      "डेस्": 6312,
      "अलबत्ता": 6313,
      "वंचित": 6314,
      "पैके": 6315,
      "परिभाषित": 6316,
      "अन्तिम": 6317,
      "कथन": 6318,
      "वेद": 6319,
      "##कोप": 6320,
      "कमरे": 6321,
      "दाम": 6322,
      "इसपर": 6323,
      "डाय": 6324,
      "##शः": 6325,
      "अस्थायी": 6326,
      "##-#-#-#-#": 6327,
      "नती": 6328,
      "सैन": 6329,
      "##षा": 6330,
      "पथभ्र": 6331,
      "#-#-#-#-#": 6332,
      "क़ुद": 6333,
      "सहमति": 6334,
      "लड़की": 6335,
      "यथास्थ": 6336,
      "##उंड": 6337,
      "पीढ़ी": 6338,
      "सोने": 6339,
      "अवसरों": 6340,
      "आमंत्र": 6341,
      "१५": 6342,
      "##स्म": 6343,
      "विक्रय": 6344,
      "बुलाया": 6345,
      "##ad": 6346,
      "संक्षिप्त": 6347,
      "पाकी": 6348,
      "घटक": 6349,
      "दक्षिणी": 6350,
      "##कल्प": 6351,
      "अधिकरण": 6352,
      "ज़बर": 6353,
      "190": 6354,
      "टिप्पणी": 6355,
      "##कु": 6356,
      "##us": 6357,
      "##ंतरण": 6358,
      "प्रसंग": 6359,
      "वरिष्ठ": 6360,
      "##नाटक": 6361,
      "##िली": 6362,
      "योग्यता": 6363,
      "डेस्कट": 6364,
      "कुमार": 6365,
      "प्रतिबद्ध": 6366,
      "गढ़": 6367,
      "घुम": 6368,
      "दिमा": 6369,
      "##ंपर": 6370,
      "##िग": 6371,
      "जोड़ा": 6372,
      "उर्व": 6373,
      "पच": 6374,
      "सदी": 6375,
      "##दर्शिता": 6376,
      "सच्ची": 6377,
      "तकलीफ": 6378,
      "दम": 6379,
      "प्रबंधक": 6380,
      "##लाने": 6381,
      "##मंड": 6382,
      "##ासा": 6383,
      "बजे": 6384,
      "एहसान": 6385,
      "मानी": 6386,
      "##यें": 6387,
      "हरि": 6388,
      "असल": 6389,
      "रेडियो": 6390,
      "ऊंचाई": 6391,
      "##ोनें": 6392,
      "पोजीशन": 6393,
      "##og": 6394,
      "रेख": 6395,
      "नस्ल": 6396,
      "अकेला": 6397,
      "कॉन्फ़िगर": 6398,
      "दुर्भाग": 6399,
      "डेस्कटॉप": 6400,
      "औरतें": 6401,
      "कारोबार": 6402,
      "उपलब्धि": 6403,
      "सम्पर्क": 6404,
      "आज़मा": 6405,
      "जम्म": 6406,
      "पॉल": 6407,
      "जीवा": 6408,
      "अंग्रेज": 6409,
      "पुकारा": 6410,
      "पोत": 6411,
      "ट्रै": 6412,
      "चमक": 6413,
      "खून": 6414,
      "सेक": 6415,
      "मूलभूत": 6416,
      "न्यायिक": 6417,
      ".)": 6418,
      "कक्षा": 6419,
      "झों": 6420,
      "##भेद": 6421,
      "हलाक": 6422,
      "नै": 6423,
      "मुर": 6424,
      "बेट": 6425,
      "उपयोगकर्ता": 6426,
      "00": 6427,
      "##ँट": 6428,
      "काउ": 6429,
      "इंडियन": 6430,
      "तापमान": 6431,
      "महाराजा": 6432,
      "सराहना": 6433,
      "(%": 6434,
      "##ac": 6435,
      "चुक": 6436,
      "मददगार": 6437,
      "तंत्रिका": 6438,
      "आदमियों": 6439,
      "उत्तरदायी": 6440,
      "द्विपक्षीय": 6441,
      "कहला": 6442,
      "पेंशन": 6443,
      "##लित": 6444,
      "विनिर्माण": 6445,
      "रिक्त": 6446,
      "विद्यार्थी": 6447,
      "स्वामित्व": 6448,
      "पंख": 6449,
      "साझे": 6450,
      "आपसे": 6451,
      "##परि": 6452,
      "जम्मू": 6453,
      "आंध्र": 6454,
      "बाय": 6455,
      "##ाहट": 6456,
      "पुनर्व": 6457,
      "कोशिकाओं": 6458,
      "कुदरत": 6459,
      "दुःख": 6460,
      "लानत": 6461,
      "\"%": 6462,
      "अर्जित": 6463,
      "पंडित": 6464,
      "ग्री": 6465,
      "##ंस्": 6466,
      "उपे": 6467,
      "बहस": 6468,
      "असली": 6469,
      "##ंशिक": 6470,
      "व्युत": 6471,
      "मनोर": 6472,
      "75": 6473,
      "रानी": 6474,
      "##वानी": 6475,
      "##पूर": 6476,
      "##चस्प": 6477,
      "##ँव": 6478,
      "रसायन": 6479,
      "##क्सा": 6480,
      "##दु": 6481,
      "##नीति": 6482,
      "यथास्थिति": 6483,
      "इसीलिए": 6484,
      "युवाओं": 6485,
      "अनाज": 6486,
      "कॉल": 6487,
      "सरी": 6488,
      "मेम": 6489,
      "विनय": 6490,
      "कमज़ोर": 6491,
      "शास्त्र": 6492,
      "शराब": 6493,
      "##ाएगा": 6494,
      "निकाह": 6495,
      "##ांकन": 6496,
      "कर्नाटक": 6497,
      "इंजीनिय": 6498,
      "क़ाबू": 6499,
      "अभिगम": 6500,
      "इलेक्ट्रॉन": 6501,
      "आबादी": 6502,
      "कस": 6503,
      "संदाय": 6504,
      "##ज़ाम": 6505,
      "भड़क": 6506,
      "सेल": 6507,
      "जोड़े": 6508,
      "धातु": 6509,
      "शोर": 6510,
      "शेय": 6511,
      "##वै": 6512,
      "##हे": 6513,
      "कोट": 6514,
      "परिक": 6515,
      "ग्रस्त": 6516,
      "##सिंह": 6517,
      "गहरे": 6518,
      "छू": 6519,
      "##पथ": 6520,
      "##ोड़": 6521,
      "##क्कर": 6522,
      "पहुंचने": 6523,
      "उद्यान": 6524,
      "दोज़ख़": 6525,
      "##ag": 6526,
      "देगी": 6527,
      "##ंचाई": 6528,
      "इलाज": 6529,
      "मानता": 6530,
      "##क्रिप्ट": 6531,
      "जाऊ": 6532,
      "2008": 6533,
      "बेहश्त": 6534,
      "दर्जे": 6535,
      "लकड़ी": 6536,
      "उठे": 6537,
      "##ंसिल": 6538,
      "फ्रांस": 6539,
      "चू": 6540,
      "तत्त्व": 6541,
      "लाएँ": 6542,
      "प्रजात": 6543,
      "तसबीह": 6544,
      "##ानुसार": 6545,
      "हमे": 6546,
      "##as": 6547,
      "##ड़िया": 6548,
      "छाया": 6549,
      "प्रतिदिन": 6550,
      "##ोपण": 6551,
      "¥": 6552,
      "##ation": 6553,
      "##िलाभ": 6554,
      "##000": 6555,
      "आँखों": 6556,
      "संग्र": 6557,
      "मुर्द": 6558,
      "दिलचस्प": 6559,
      "बोला": 6560,
      "साहब": 6561,
      "खनि": 6562,
      "##वारों": 6563,
      "##बाजी": 6564,
      "##IN": 6565,
      "पूर्वा": 6566,
      "क्षण": 6567,
      "पुष्प": 6568,
      "निकाले": 6569,
      "निकालने": 6570,
      "अधिसूचना": 6571,
      "बिट": 6572,
      "सड़": 6573,
      "विभागों": 6574,
      "एल्": 6575,
      "माय": 6576,
      "##पूर्ति": 6577,
      "परिवेश": 6578,
      "तुझ": 6579,
      "समर्थित": 6580,
      "##ियान्व": 6581,
      "con": 6582,
      "गठित": 6583,
      "##ातर": 6584,
      "फ़ॉन्ट": 6585,
      "अहं": 6586,
      "जायेंगे": 6587,
      "पश": 6588,
      "लार": 6589,
      "##पेट": 6590,
      "अवश": 6591,
      "डालते": 6592,
      "ख़ौफ": 6593,
      "घुट": 6594,
      "ताब": 6595,
      "पाप": 6596,
      "##ल्लम": 6597,
      "प्रतिभूति": 6598,
      "कामया": 6599,
      "रुचि": 6600,
      "उच्चतर": 6601,
      "आखिर": 6602,
      "स्वप्न": 6603,
      "##धक": 6604,
      "बोलते": 6605,
      "चैतन्य": 6606,
      "प्रेषित": 6607,
      "फ़रमा": 6608,
      "जिम्मेदार": 6609,
      "दुश्मन": 6610,
      "##ोतों": 6611,
      "##बाल": 6612,
      "##इस": 6613,
      "काले": 6614,
      "न्यास": 6615,
      "संतु": 6616,
      "पुकारते": 6617,
      "अट": 6618,
      "आश्व": 6619,
      "कैसी": 6620,
      "वस्तुत": 6621,
      "बचत": 6622,
      "साक्ष्य": 6623,
      "आज्ञाकारी": 6624,
      "##शोथ": 6625,
      "१८": 6626,
      "##नेक्ट": 6627,
      "लौटा": 6628,
      "वृत्त": 6629,
      "नाह": 6630,
      "##ैट": 6631,
      "रखकर": 6632,
      "दुर्भाग्य": 6633,
      "छत": 6634,
      "फोटो": 6635,
      "##रेखा": 6636,
      "##ंपरिक": 6637,
      "भांति": 6638,
      "सावधानी": 6639,
      "जला": 6640,
      "संचालित": 6641,
      "सिद्धांतों": 6642,
      "तस्वीर": 6643,
      "चट्ट": 6644,
      "##रस": 6645,
      "##ोति": 6646,
      "अगरचे": 6647,
      "महाभारत": 6648,
      "यथार्थ": 6649,
      "पंजीकृत": 6650,
      "कराना": 6651,
      "स्वचालित": 6652,
      "बीस": 6653,
      "पथभ्रष्ट": 6654,
      "फूट": 6655,
      "रिव": 6656,
      "रिज": 6657,
      "##oc": 6658,
      "##ढ़े": 6659,
      "बिछ": 6660,
      "गहराई": 6661,
      "टॉ": 6662,
      "तद": 6663,
      "बडी": 6664,
      "##मुच": 6665,
      "मौजिज़": 6666,
      "राव": 6667,
      "उतारी": 6668,
      "##्रेम": 6669,
      "लगाते": 6670,
      "जायेगी": 6671,
      "गौरव": 6672,
      "उग": 6673,
      "पनाह": 6674,
      "जानकर": 6675,
      "अकाद": 6676,
      "आरंभिक": 6677,
      "कर्ण": 6678,
      "##पंथी": 6679,
      "रहम": 6680,
      "द्वि": 6681,
      "अंकित": 6682,
      "संबोधित": 6683,
      "नाक": 6684,
      "यानी": 6685,
      "अभिलाभ": 6686,
      "प्रश्नों": 6687,
      "##ुरा": 6688,
      "##घर": 6689,
      "समितियों": 6690,
      "##िल्ल": 6691,
      "अवय": 6692,
      "##िम्ब": 6693,
      "##दायक": 6694,
      "कॉलेज": 6695,
      "##चलन": 6696,
      "दिसंबर": 6697,
      "वसी": 6698,
      "##ex": 6699,
      "##ारह": 6700,
      "परिचित": 6701,
      "स्वीकृत": 6702,
      "सम्बंध": 6703,
      "भगवान्": 6704,
      "सहेजें": 6705,
      "अमरीका": 6706,
      "ऑडियो": 6707,
      "यहीं": 6708,
      "हैद": 6709,
      "तरीकों": 6710,
      "संतुलन": 6711,
      "विद्रोह": 6712,
      "गुज़": 6713,
      "वार्ता": 6714,
      "09": 6715,
      "शिल्प": 6716,
      "##ंधन": 6717,
      "सहारा": 6718,
      "सिंध": 6719,
      "मंज़": 6720,
      "45": 6721,
      "गै": 6722,
      "##ंभव": 6723,
      "न्यायालयों": 6724,
      "ग्राहकों": 6725,
      "फीस": 6726,
      "जमी": 6727,
      "प्रास": 6728,
      "कायम": 6729,
      "देह": 6730,
      "##ापति": 6731,
      "##वहार": 6732,
      "##ीस": 6733,
      "मुताब": 6734,
      "साथियों": 6735,
      "##ंदगी": 6736,
      "हाथी": 6737,
      "पहुंचे": 6738,
      "सचमुच": 6739,
      "गर्द": 6740,
      "##त्तर": 6741,
      "परो": 6742,
      "बाक़ी": 6743,
      "वय": 6744,
      "##नन": 6745,
      "##ाज़ा": 6746,
      "मूर्त": 6747,
      "रेड": 6748,
      "लड़क": 6749,
      "प्रतिकूल": 6750,
      "टाल": 6751,
      "##कना": 6752,
      "##ातों": 6753,
      "निगाह": 6754,
      "अनुय": 6755,
      "सिंचाई": 6756,
      "खतरे": 6757,
      "##क्की": 6758,
      "जितने": 6759,
      "रजिस्ट": 6760,
      "औपचारिक": 6761,
      "पार्क": 6762,
      "परत": 6763,
      "पासवर्ड": 6764,
      "धन्यवाद": 6765,
      "पेशे": 6766,
      "कृपा": 6767,
      "प्लस": 6768,
      "टैब": 6769,
      "##ियॉ": 6770,
      "##कीर्ण": 6771,
      "पुरूष": 6772,
      "संभावित": 6773,
      "संवेदन": 6774,
      "जंगल": 6775,
      "भूत": 6776,
      "किन्": 6777,
      "##प्रद": 6778,
      "एकदम": 6779,
      "पहन": 6780,
      "पाता": 6781,
      "पारंपरिक": 6782,
      "अगली": 6783,
      "हस्तक्षेप": 6784,
      "अजी": 6785,
      "तृ": 6786,
      "वापसी": 6787,
      "झूठे": 6788,
      "पढ": 6789,
      "हमला": 6790,
      "फरिश्ते": 6791,
      "राजक": 6792,
      "##्राट": 6793,
      "पक्षी": 6794,
      "लिखते": 6795,
      "आकलन": 6796,
      "प्राधिकार": 6797,
      "वनस्प": 6798,
      "##eat": 6799,
      "अंतराल": 6800,
      "हैदराबाद": 6801,
      "गर्व": 6802,
      "होगे": 6803,
      "##सीसी": 6804,
      "गद्य": 6805,
      "क़रार": 6806,
      "बढ़ते": 6807,
      "पड़ने": 6808,
      "स्टेशन": 6809,
      "केंद्रित": 6810,
      "##दल": 6811,
      "अमरीकी": 6812,
      "समूद": 6813,
      "तेरा": 6814,
      "उत्तेज": 6815,
      "पुस्तिका": 6816,
      "पहाड़ी": 6817,
      "ईरान": 6818,
      "पाइ": 6819,
      "प्रजनन": 6820,
      "दूँगा": 6821,
      "वर्णित": 6822,
      "घेर": 6823,
      "ज्व": 6824,
      "##बरा": 6825,
      "प्रबन्ध": 6826,
      "मुगल": 6827,
      "बेर": 6828,
      "##ुदेव": 6829,
      "लड़का": 6830,
      "सिद्धान्त": 6831,
      "मातृ": 6832,
      "मित्रों": 6833,
      "डॉलर": 6834,
      "सव": 6835,
      "##काता": 6836,
      "राजभाषा": 6837,
      "शिक्षकों": 6838,
      "तुर्की": 6839,
      "मधुम": 6840,
      "पैकेज": 6841,
      "रिज़": 6842,
      "##लांग": 6843,
      "##ग्रहण": 6844,
      "पाकीज़ा": 6845,
      "##nd": 6846,
      "##तापूर्वक": 6847,
      "##क्राम": 6848,
      "##ष्णु": 6849,
      "संतोष": 6850,
      "मौलिक": 6851,
      "वाज": 6852,
      "शांत": 6853,
      "##AME": 6854,
      "##ld": 6855,
      "कारक": 6856,
      "2002": 6857,
      "मज़बूत": 6858,
      "¥": 6859,
      "##रलाल": 6860,
      "रिकार्ड": 6861,
      "अनुसूची": 6862,
      "ऑप": 6863,
      "##ुज": 6864,
      "करत": 6865,
      "रहित": 6866,
      "प्रतिदान": 6867,
      "क्रियान्व": 6868,
      "परिवारों": 6869,
      "आतंकवादी": 6870,
      "घनिष्ठ": 6871,
      "##निंग": 6872,
      "त्रुटिः": 6873,
      "गुरू": 6874,
      "टाइम": 6875,
      "घड़": 6876,
      "##पित": 6877,
      "##नेह": 6878,
      "निवार": 6879,
      "##साइ": 6880,
      "चाहेंगे": 6881,
      "व्यापारी": 6882,
      "##र्दू": 6883,
      "सम्पत्ति": 6884,
      "डाली": 6885,
      "गुज": 6886,
      "विभेद": 6887,
      "चीज़ें": 6888,
      "तैयारी": 6889,
      "प्रक्रियाओं": 6890,
      "जुड़ा": 6891,
      "पुस्तकों": 6892,
      "पिछली": 6893,
      "घात": 6894,
      "##ङ्": 6895,
      "जापान": 6896,
      "उपखंड": 6897,
      "बहन": 6898,
      "कहां": 6899,
      "दीजिए": 6900,
      "##ेन्ट": 6901,
      "वास्तविकता": 6902,
      "परिसर": 6903,
      "qu": 6904,
      "फिट": 6905,
      "बोध": 6906,
      "सद्": 6907,
      "हिल": 6908,
      "##फोन": 6909,
      "अनुज्ञात": 6910,
      "विवरणी": 6911,
      "अपराधी": 6912,
      "व्यावहार": 6913,
      "क़समें": 6914,
      "नक़": 6915,
      "करु": 6916,
      "होगें": 6917,
      "याची": 6918,
      "##ध्यक्ष": 6919,
      "आनु": 6920,
      "गर्मी": 6921,
      "मिश्रण": 6922,
      "जर्मनी": 6923,
      "उभ": 6924,
      "##ाही": 6925,
      "रूपों": 6926,
      "बेटों": 6927,
      "जवाहरलाल": 6928,
      "क्रांत": 6929,
      "सेक्टर": 6930,
      "उतनी": 6931,
      "सहभाग": 6932,
      "दरख्त": 6933,
      "वसूली": 6934,
      "कीजिए": 6935,
      "रूपांत": 6936,
      "देखोगे": 6937,
      "संशोधित": 6938,
      "फौ": 6939,
      "मानस": 6940,
      "निवासी": 6941,
      "##ामान्य": 6942,
      "एयर": 6943,
      "जू": 6944,
      "##यक": 6945,
      "मुल्क": 6946,
      "उन्होनें": 6947,
      "कार्यकला": 6948,
      "##जीवी": 6949,
      "##ांछ": 6950,
      "छोड": 6951,
      "टर्म": 6952,
      "फौरन": 6953,
      "##न्य": 6954,
      "##िपि": 6955,
      "सम्बन्धित": 6956,
      "संभवतः": 6957,
      "iii": 6958,
      "तमिलना": 6959,
      "दार्": 6960,
      "##वाँ": 6961,
      "ज़बान": 6962,
      "पत्रिका": 6963,
      "ढेर": 6964,
      "##सार": 6965,
      "मुकद": 6966,
      "उर्दू": 6967,
      "##गरी": 6968,
      "##मक": 6969,
      "सुन्दर": 6970,
      "##न्तर": 6971,
      "उद्देश्यों": 6972,
      "##कांक्षा": 6973,
      "मानवता": 6974,
      "तारा": 6975,
      "##ापक": 6976,
      "व्यस्त": 6977,
      "विश्वसनीय": 6978,
      "##्यापी": 6979,
      "दरबार": 6980,
      "##क्षणिक": 6981,
      "गुणों": 6982,
      "फरमाया": 6983,
      "भूख": 6984,
      "##द्दीन": 6985,
      "मारा": 6986,
      "##16": 6987,
      "##राइल": 6988,
      "चलती": 6989,
      "33": 6990,
      "ऑफ़": 6991,
      "कव": 6992,
      "बडे": 6993,
      "अमर": 6994,
      "##ate": 6995,
      "अपनाने": 6996,
      "सन्देह": 6997,
      "सम्राट": 6998,
      "मेह": 6999,
      "##्यूशन": 7000,
      "##शब्द": 7001,
      "##ज़े": 7002,
      "##डीई": 7003,
      "एहकाम": 7004,
      "घु": 7005,
      "##ion": 7006,
      "##्रु": 7007,
      "चुकता": 7008,
      "प्रसंस्": 7009,
      "सकेगी": 7010,
      "##वृत्त": 7011,
      "##ुमा": 7012,
      "अधिकारिता": 7013,
      "##ोहन": 7014,
      "सम्पन्न": 7015,
      "झूठा": 7016,
      "किलोमीटर": 7017,
      "पीड़ित": 7018,
      "##नल": 7019,
      "क्रांतिक": 7020,
      "90": 7021,
      "सकारात्मक": 7022,
      "##म्मत": 7023,
      "परोक्ष": 7024,
      "आंशिक": 7025,
      "पोल": 7026,
      "प्रांत": 7027,
      "सम्मानित": 7028,
      "शानदार": 7029,
      "खिस": 7030,
      "##तांत्रिक": 7031,
      "##ंटन": 7032,
      "लक्ष्म": 7033,
      "खबर": 7034,
      "नाब": 7035,
      "रखती": 7036,
      "घटा": 7037,
      "गांधीजी": 7038,
      "राज़ी": 7039,
      "दि": 7040,
      "कहें": 7041,
      "अभ्यास": 7042,
      "अनुपालन": 7043,
      "मासिक": 7044,
      "सैन्य": 7045,
      "##सेट": 7046,
      "##च्छिक": 7047,
      "स्तरों": 7048,
      "पोस्ट": 7049,
      "विनि": 7050,
      "प्रयोक्ता": 7051,
      "डालने": 7052,
      "अंग्रेजों": 7053,
      "आर्": 7054,
      "हार्ड": 7055,
      "##ैम": 7056,
      "##्पर": 7057,
      "सुसंगत": 7058,
      "अपरि": 7059,
      "श्वेत": 7060,
      "अय": 7061,
      "फलस्वरूप": 7062,
      "प्रतिष्ठा": 7063,
      "ख्वाहिश": 7064,
      "¥": 7065,
      "##रचना": 7066,
      "इसल": 7067,
      "उग्र": 7068,
      "सवाब": 7069,
      "स्थाना": 7070,
      "व्यवस्थित": 7071,
      "Comment": 7072,
      "##ृद्धि": 7073,
      "##र्फ़": 7074,
      "साधनों": 7075,
      "##किम": 7076,
      "भेजें": 7077,
      "रोगों": 7078,
      "कट्टर": 7079,
      "क्रमशः": 7080,
      "बूझ": 7081,
      "खर": 7082,
      "धूप": 7083,
      "भर्ती": 7084,
      "पीछा": 7085,
      "##ुप्त": 7086,
      "आशय": 7087,
      "नजात": 7088,
      "सेन": 7089,
      "व्युत्प": 7090,
      "##eather": 7091,
      "/-": 7092,
      "शल्य": 7093,
      "##लभ": 7094,
      "दोहरा": 7095,
      "1999": 7096,
      "इरादा": 7097,
      "¤": 7098,
      "##र्गी": 7099,
      "##क्तिक": 7100,
      "इनपुट": 7101,
      "गतिविधि": 7102,
      "नौका": 7103,
      "डिग्री": 7104,
      "”-": 7105,
      "जाया": 7106,
      "उठाना": 7107,
      "रोकते": 7108,
      "प्रबल": 7109,
      "परा": 7110,
      "##िनल": 7111,
      "मरियम": 7112,
      "स्वाधीन": 7113,
      "02": 7114,
      "पुत": 7115,
      "बिर": 7116,
      "##ण्य": 7117,
      "संभाल": 7118,
      "ध्वज": 7119,
      "प्रात": 7120,
      "##ाज़ी": 7121,
      "ज्योति": 7122,
      "प्लेट": 7123,
      "छा": 7124,
      "##ोश": 7125,
      "श्रीमती": 7126,
      "आएगी": 7127,
      "फ़ाइलें": 7128,
      "संगठित": 7129,
      "कच": 7130,
      "##श्ता": 7131,
      "मूर्": 7132,
      "वाद्य": 7133,
      "बिन्दु": 7134,
      "बिस": 7135,
      "##्को": 7136,
      "पत्न": 7137,
      "एजेंस": 7138,
      "ठहराया": 7139,
      "हथियार": 7140,
      "मुद्दे": 7141,
      "घास": 7142,
      "नज": 7143,
      "बिन": 7144,
      "कोष": 7145,
      "स्वाद": 7146,
      "आधारभूत": 7147,
      "कृतज्ञता": 7148,
      "कीटों": 7149,
      "जाग": 7150,
      "निष": 7151,
      "परिभाषा": 7152,
      "##इयां": 7153,
      "quot": 7154,
      "सेंट": 7155,
      "पांड": 7156,
      "आउटपुट": 7157,
      "मुशरिक": 7158,
      "क़ुदरत": 7159,
      "बट": 7160,
      "मसल": 7161,
      "संपन्न": 7162,
      "संदेय": 7163,
      "फट": 7164,
      "##एच": 7165,
      "##्वान": 7166,
      "वृद्ध": 7167,
      "उपायों": 7168,
      "मोटर": 7169,
      "भक्त": 7170,
      "सूचित": 7171,
      "दुकान": 7172,
      "संपादित": 7173,
      "किन्हीं": 7174,
      "मतभेद": 7175,
      "१९९": 7176,
      "सूरज": 7177,
      "##ay": 7178,
      "संपदा": 7179,
      "ट्यूब": 7180,
      "करूँ": 7181,
      "एकीकृत": 7182,
      "बताता": 7183,
      "जीवों": 7184,
      "आपसी": 7185,
      "##ष्कार": 7186,
      "बुत": 7187,
      "##वाया": 7188,
      "##ामिन": 7189,
      "##ंसक": 7190,
      "इजाज़त": 7191,
      "लम्बी": 7192,
      "उगा": 7193,
      "##ve": 7194,
      "पन": 7195,
      "बहाद": 7196,
      "नकारात्मक": 7197,
      "हां": 7198,
      "##च्छा": 7199,
      "पैसा": 7200,
      "देनेवाला": 7201,
      "¤": 7202,
      "कंट": 7203,
      "##ावी": 7204,
      "मान्य": 7205,
      "मजबूर": 7206,
      "##भाग्य": 7207,
      "परेशान": 7208,
      "डोम": 7209,
      "नवं": 7210,
      "काली": 7211,
      "सकल": 7212,
      "मोमिनों": 7213,
      "हँसी": 7214,
      "दिमाग": 7215,
      "आधा": 7216,
      "चाहो": 7217,
      "2011": 7218,
      "सतत": 7219,
      "अहि": 7220,
      "मुकदम": 7221,
      "नाहक़": 7222,
      "व्यावहारिक": 7223,
      "ईंधन": 7224,
      "ग्रे": 7225,
      "दस्त": 7226,
      "##अल": 7227,
      "लंबाई": 7228,
      "वैज्ञानिकों": 7229,
      "मौजिज़े": 7230,
      "##िकाएं": 7231,
      "तीनों": 7232,
      "मशीनरी": 7233,
      "##गोलिक": 7234,
      "07": 7235,
      "##ूनों": 7236,
      "##AN": 7237,
      "चलाया": 7238,
      "जॉ": 7239,
      "##क्ता": 7240,
      "हमपर": 7241,
      "डरता": 7242,
      "भरपूर": 7243,
      "पढ़ते": 7244,
      "कोलकाता": 7245,
      "इष्ट": 7246,
      "##क़े": 7247,
      "मानने": 7248,
      "कमाई": 7249,
      "##केल": 7250,
      "संधि": 7251,
      "##ायों": 7252,
      "##सीय": 7253,
      "एजेंसी": 7254,
      "नर्म": 7255,
      "स्टी": 7256,
      "##नत": 7257,
      "बनना": 7258,
      "ग्रन्थ": 7259,
      "आदर": 7260,
      "तथ्यों": 7261,
      "साक्षी": 7262,
      "अवधारणा": 7263,
      "दार्शन": 7264,
      "उड़ा": 7265,
      "##तिल": 7266,
      "देशी": 7267,
      "कारा": 7268,
      "घुस": 7269,
      "##िणी": 7270,
      "निध": 7271,
      "कुबूल": 7272,
      "महाद": 7273,
      "भाग्य": 7274,
      "चुनौतियों": 7275,
      "39": 7276,
      "##ान्तर": 7277,
      "##ोजक": 7278,
      "अंततः": 7279,
      "भौगोलिक": 7280,
      "##फेसर": 7281,
      "##सास": 7282,
      "बनता": 7283,
      "वैकल्प": 7284,
      "पड़ते": 7285,
      "इबर": 7286,
      "कनेक्ट": 7287,
      "##प्ति": 7288,
      "##णता": 7289,
      "जानना": 7290,
      "##मि": 7291,
      "##र्ता": 7292,
      "अफगान": 7293,
      "काफिर": 7294,
      "धोखे": 7295,
      "पोष": 7296,
      "करनेवाली": 7297,
      "उन्हे": 7298,
      "##्रेता": 7299,
      "संपादन": 7300,
      "नाश": 7301,
      "प्रोटोक": 7302,
      "##्ज़त": 7303,
      "नज़दीक": 7304,
      "अतीत": 7305,
      "घन": 7306,
      "##्जा": 7307,
      "##ख्यान": 7308,
      "##द्दी": 7309,
      "अपनाई": 7310,
      "मिटा": 7311,
      "सिरे": 7312,
      "नवंबर": 7313,
      "खेत": 7314,
      "##एव": 7315,
      "##ch": 7316,
      "बरकत": 7317,
      "मुलाकात": 7318,
      "त्य": 7319,
      "##िरा": 7320,
      "##सलों": 7321,
      "काबा": 7322,
      "संज": 7323,
      "प्रतिफल": 7324,
      "दूँ": 7325,
      "बादल": 7326,
      "ढांचा": 7327,
      "वैकल्पिक": 7328,
      "##गामी": 7329,
      "पाओगे": 7330,
      "आमद": 7331,
      "##ाइलों": 7332,
      "पारस्प": 7333,
      "पहुँची": 7334,
      "1947": 7335,
      "उल्लिखित": 7336,
      "अंडे": 7337,
      "पेर": 7338,
      "फा": 7339,
      "बम": 7340,
      "कुश": 7341,
      "##ब्ध": 7342,
      "हिमा": 7343,
      "परिवर्तनों": 7344,
      "पदों": 7345,
      "पृथक": 7346,
      "शासक": 7347,
      "##नात": 7348,
      "कुर": 7349,
      "वस्तुएं": 7350,
      "अस्थि": 7351,
      "बंदर": 7352,
      "##राशि": 7353,
      "##ोधन": 7354,
      "बचने": 7355,
      "हजारों": 7356,
      "झील": 7357,
      "##षद्": 7358,
      "##ार्इ": 7359,
      "##ाबाद": 7360,
      "पत्रों": 7361,
      "इंग्लैंड": 7362,
      "पाये": 7363,
      "##weather": 7364,
      "##ापरी": 7365,
      "नाफर": 7366,
      "प्रोफेसर": 7367,
      "गर्भा": 7368,
      "ब्राह्मण": 7369,
      "एप": 7370,
      "##ँग": 7371,
      "##दिरा": 7372,
      "प्रशास": 7373,
      "प्रसाद": 7374,
      "उलट": 7375,
      "##am": 7376,
      "##ढ़ा": 7377,
      "समझना": 7378,
      "तबाही": 7379,
      "गणित": 7380,
      "देवताओं": 7381,
      "नदियों": 7382,
      "अखिल": 7383,
      "##14": 7384,
      "बनाओ": 7385,
      "सीता": 7386,
      "सीडी": 7387,
      "राष्ट्रों": 7388,
      "लगाकर": 7389,
      "पूर्णता": 7390,
      "भुला": 7391,
      "गारंटी": 7392,
      "##वती": 7393,
      "कार्यरत": 7394,
      "समुदायों": 7395,
      "डिप": 7396,
      "बर्फ": 7397,
      "वांछ": 7398,
      "##पक": 7399,
      "##ॉर्म": 7400,
      "प्रभावशाली": 7401,
      "विद्वानों": 7402,
      "वग": 7403,
      "##ver": 7404,
      "हैस": 7405,
      "शैक्षणिक": 7406,
      "मुहम्मद": 7407,
      "अस्वीकार": 7408,
      "तमिलनाडु": 7409,
      "ठाक": 7410,
      "केडीई": 7411,
      "इंजीनियर": 7412,
      "500": 7413,
      "##वधि": 7414,
      "ज़िक्र": 7415,
      "लीग": 7416,
      "ख़बरदार": 7417,
      "आह्वान": 7418,
      "पारस्परिक": 7419,
      "क्रेड": 7420,
      "ढल": 7421,
      "करवा": 7422,
      "##्रीम": 7423,
      "सिर्फ़": 7424,
      "सौभाग्य": 7425,
      "बचे": 7426,
      "##ाधिकार": 7427,
      "##त्रिम": 7428,
      "##ूमत": 7429,
      "शिक्षित": 7430,
      "उत्पादक": 7431,
      "बताते": 7432,
      "सहयोगी": 7433,
      "##रम": 7434,
      "##णियों": 7435,
      "##ir": 7436,
      "काय": 7437,
      "##्वे": 7438,
      "##ृत्ति": 7439,
      "देखेंगे": 7440,
      "कुशलता": 7441,
      "अतएव": 7442,
      "मुकदमा": 7443,
      "तन": 7444,
      "रिश्ते": 7445,
      "##ृंग": 7446,
      "इन्त": 7447,
      "पुराना": 7448,
      "बरसा": 7449,
      "बहुमत": 7450,
      "बाइ": 7451,
      "मग़": 7452,
      "##चाप": 7453,
      "##रीन": 7454,
      "आरक्षित": 7455,
      "लोकतांत्रिक": 7456,
      "जुड़ी": 7457,
      "लंबा": 7458,
      "##बाब": 7459,
      "पूर्णतः": 7460,
      "वाहन": 7461,
      "बल्लेबाज": 7462,
      "05": 7463,
      "तप": 7464,
      "सकी": 7465,
      "स्न": 7466,
      "लिखना": 7467,
      "सच्चाई": 7468,
      "##ब्लिक": 7469,
      "चिकित्सक": 7470,
      "ऊतक": 7471,
      "##ल्ली": 7472,
      "मेघ": 7473,
      "##फ़त": 7474,
      "##हरों": 7475,
      "मतदान": 7476,
      "##कम्प": 7477,
      "अमी": 7478,
      "तस्": 7479,
      "##तन्त्र": 7480,
      "कालेज": 7481,
      "बेकार": 7482,
      "भरें": 7483,
      "स्तरीय": 7484,
      "##जरत": 7485,
      "189": 7486,
      "प्रस्तावित": 7487,
      "खिलाड़ी": 7488,
      "रोज़े": 7489,
      "अज्ञान": 7490,
      "##बीन": 7491,
      "##ताअत": 7492,
      "अनुस्म": 7493,
      "फुट": 7494,
      "रन": 7495,
      "188": 7496,
      "कम्प्यूटर": 7497,
      "##दृश्य": 7498,
      "प्रसंस्करण": 7499,
      "वैदिक": 7500,
      "प्रयोगशाला": 7501,
      "पड़ो": 7502,
      "कर्मों": 7503,
      "अग्नि": 7504,
      "दक्षता": 7505,
      "दर्शाता": 7506,
      "इकाइयों": 7507,
      "दीक्षा": 7508,
      "वाणी": 7509,
      "मूत्र": 7510,
      "गीता": 7511,
      "साझीदार": 7512,
      "प्रातः": 7513,
      "34": 7514,
      "निभा": 7515,
      "महिल": 7516,
      "सिफ़ार": 7517,
      "पहुँचने": 7518,
      "115": 7519,
      "संवेद": 7520,
      "उत्तरदायित्व": 7521,
      "प्रत्या": 7522,
      "##ूल्य": 7523,
      "प्रतिरोध": 7524,
      "पहाड़ों": 7525,
      "डाक्टर": 7526,
      "टाइप": 7527,
      "इंत": 7528,
      "चोरी": 7529,
      "##ुश": 7530,
      "##्रो": 7531,
      "##ेंच": 7532,
      "असामान्य": 7533,
      "स्टेट": 7534,
      "नूर": 7535,
      "शंकर": 7536,
      "##ोरा": 7537,
      "##ताज": 7538,
      "शेयरों": 7539,
      "उधर": 7540,
      "फूँ": 7541,
      "##12": 7542,
      "विट": 7543,
      "प्राणी": 7544,
      "कृत्रिम": 7545,
      "2004": 7546,
      "पूछते": 7547,
      "भावनाओं": 7548,
      "गाँव": 7549,
      "ओपन": 7550,
      "चश्म": 7551,
      "लोह": 7552,
      "##his": 7553,
      "निधन": 7554,
      "अनुचित": 7555,
      "##ेक्स": 7556,
      "वैय": 7557,
      "##ोन्म": 7558,
      "सफलतापूर्वक": 7559,
      "दाहिने": 7560,
      "त्वर": 7561,
      "नल": 7562,
      "सजा": 7563,
      "निर्व": 7564,
      "अपेक्षाकृत": 7565,
      "छुट्टी": 7566,
      "पेय": 7567,
      "##शित": 7568,
      "##णि": 7569,
      "##खन": 7570,
      "कोर्ट": 7571,
      "##तेह": 7572,
      "उपज": 7573,
      "विचारधारा": 7574,
      "लेखकों": 7575,
      "इन्हीं": 7576,
      "अफसोस": 7577,
      "लंदन": 7578,
      "१०": 7579,
      "बिग": 7580,
      "मौका": 7581,
      "आईटी": 7582,
      "ज़्याद": 7583,
      "चुपके": 7584,
      "रिट": 7585,
      "सना": 7586,
      "##कस": 7587,
      "##्रित": 7588,
      "घटित": 7589,
      "गोरा": 7590,
      "दिसम्बर": 7591,
      "##ानुभूति": 7592,
      "वैसी": 7593,
      "स्तन": 7594,
      "चौड़ाई": 7595,
      "संग्रहालय": 7596,
      "##स्फोट": 7597,
      "इताअत": 7598,
      "किल": 7599,
      "लोकसभा": 7600,
      "उपलब्धता": 7601,
      "घाटा": 7602,
      "सीखने": 7603,
      "वाम": 7604,
      "##ुखी": 7605,
      "विष्णु": 7606,
      "##ायतों": 7607,
      "व्यर्थ": 7608,
      "संपादक": 7609,
      "संस्थापित": 7610,
      "रखनेवालों": 7611,
      "प्राधिकृत": 7612,
      "पान": 7613,
      "##ाणु": 7614,
      "##पय": 7615,
      "##th": 7616,
      "अन्ज": 7617,
      "गईं": 7618,
      "खुल्लम": 7619,
      "मंत्रि": 7620,
      "नवम्बर": 7621,
      "नकद": 7622,
      "निष्ठा": 7623,
      "##ेरा": 7624,
      "##ियाई": 7625,
      "##ामय": 7626,
      "ख़िला": 7627,
      "गाड़ी": 7628,
      "आँखें": 7629,
      "नकदी": 7630,
      "चखो": 7631,
      "##कन": 7632,
      "##ाग्र": 7633,
      "फिरते": 7634,
      "मिलना": 7635,
      "पार्ट": 7636,
      "हुकूमत": 7637,
      "रामायण": 7638,
      "शिर्क": 7639,
      "परिश्रम": 7640,
      "कैंसर": 7641,
      "सिफ़ारिश": 7642,
      "चावल": 7643,
      "##्थान": 7644,
      "अवरोध": 7645,
      "योजनाएं": 7646,
      "गयीं": 7647,
      "इबरत": 7648,
      "क्रेडिट": 7649,
      "रूह": 7650,
      "##AT": 7651,
      "##ासीन": 7652,
      "##ंदर्य": 7653,
      "व्यापारिक": 7654,
      "टिकट": 7655,
      "नफ": 7656,
      "##ुमान": 7657,
      "उपरा": 7658,
      "आपदा": 7659,
      "क्रय": 7660,
      "सर्वथा": 7661,
      "संगणक": 7662,
      "बग़": 7663,
      "रॉ": 7664,
      "##रेत": 7665,
      "##स्तान": 7666,
      "मूर्ति": 7667,
      "रेग": 7668,
      "चमत": 7669,
      "##ालों": 7670,
      "##कारिता": 7671,
      "सूच": 7672,
      "##एमई": 7673,
      "लम्बे": 7674,
      "चट": 7675,
      "बछ": 7676,
      "बंबई": 7677,
      "##वश": 7678,
      "अनुदेश": 7679,
      "क्रोध": 7680,
      "डालें": 7681,
      "संतुष्ट": 7682,
      "बडा": 7683,
      "##डन": 7684,
      "अनन्त": 7685,
      "डालो": 7686,
      "मुख्यतः": 7687,
      "तीसरा": 7688,
      "वस्तुतः": 7689,
      "##yp": 7690,
      "संचित": 7691,
      "##स्तीन": 7692,
      "समझो": 7693,
      "सुनकर": 7694,
      "सौंदर्य": 7695,
      "चौथा": 7696,
      "गले": 7697,
      "शरार": 7698,
      "##गों": 7699,
      "##बु": 7700,
      "ज़िम्मे": 7701,
      "खनिज": 7702,
      "आजीव": 7703,
      "##ूण": 7704,
      "##िरण": 7705,
      "सुनो": 7706,
      "2003": 7707,
      "नुक़": 7708,
      "पचास": 7709,
      "इंजीनियरी": 7710,
      "तनाव": 7711,
      "##पेश": 7712,
      "##्सों": 7713,
      "फ़िल्टर": 7714,
      "भव": 7715,
      "##ng": 7716,
      "सुले": 7717,
      "बहि": 7718,
      "क़्यों": 7719,
      "सुनाई": 7720,
      "नरम": 7721,
      "समर्पण": 7722,
      "गिनती": 7723,
      "ईमेल": 7724,
      "##राज": 7725,
      "##os": 7726,
      "##ावान": 7727,
      "इन्द्र": 7728,
      "##झा": 7729,
      "परवाह": 7730,
      "##बरदार": 7731,
      "अन्याय": 7732,
      "##ण्डल": 7733,
      "सामान्यतया": 7734,
      "हटाने": 7735,
      "तौरेत": 7736,
      "हममें": 7737,
      "पहच": 7738,
      "##श्चात": 7739,
      "##्रेलिया": 7740,
      "मुशरे": 7741,
      "नवी": 7742,
      "मद्र": 7743,
      "उपदेश": 7744,
      "स्थितियों": 7745,
      "03": 7746,
      "वासी": 7747,
      "मेज": 7748,
      "अनुक्रम": 7749,
      "चलना": 7750,
      "##भाषण": 7751,
      "सृष्टि": 7752,
      "शक्तियां": 7753,
      "कार्यान्वित": 7754,
      "¤": 7755,
      "संकल्पना": 7756,
      "##ायनिक": 7757,
      "परंपरागत": 7758,
      "बगैर": 7759,
      "खजूर": 7760,
      "विजे": 7761,
      "बीत": 7762,
      "185": 7763,
      "केंद्रों": 7764,
      "रचनात्मक": 7765,
      "हकदार": 7766,
      "व्युत्पन्न": 7767,
      "अन्जाम": 7768,
      "or": 7769,
      "कवियों": 7770,
      "बन्ध": 7771,
      "भाइयों": 7772,
      "##संख्य": 7773,
      "समू": 7774,
      "स्रोतों": 7775,
      "पंजाबी": 7776,
      "लिपि": 7777,
      "हैसियत": 7778,
      "##जु": 7779,
      "##खर": 7780,
      "अंग्रेज़ी": 7781,
      "ठहराते": 7782,
      "सभापति": 7783,
      "ज्यादती": 7784,
      "उपेक्षा": 7785,
      "आवि": 7786,
      "##थे": 7787,
      "कुट": 7788,
      "चाहूंगा": 7789,
      "उद्यमों": 7790,
      "सुलेमान": 7791,
      "wh": 7792,
      "हड़": 7793,
      "##वली": 7794,
      "##काना": 7795,
      "सबका": 7796,
      "अवल": 7797,
      "बीबी": 7798,
      "कृति": 7799,
      "नौकर": 7800,
      "वरन्": 7801,
      "धान": 7802,
      "##भोग": 7803,
      "रचनाओं": 7804,
      "मित्रता": 7805,
      "सफाई": 7806,
      "शाखाओं": 7807,
      "वजन": 7808,
      "##di": 7809,
      "तीर्थ": 7810,
      "तीसरी": 7811,
      "प्रचालन": 7812,
      "70": 7813,
      "##ध्व": 7814,
      "हुये": 7815,
      "विकासशील": 7816,
      "अतिथ": 7817,
      "रिकॉर्ड": 7818,
      "फायदे": 7819,
      "तिहाई": 7820,
      "##्रदायिक": 7821,
      "वग़": 7822,
      "सीन": 7823,
      "कति": 7824,
      "पाना": 7825,
      "##चन्द्र": 7826,
      "उपग्रह": 7827,
      "सुनी": 7828,
      "स्पर्श": 7829,
      "ज्ञापन": 7830,
      "दूरस्थ": 7831,
      "कानूनों": 7832,
      "प्रमाणित": 7833,
      "बालों": 7834,
      "क्रियाकला": 7835,
      "ज़रूरत": 7836,
      "स्त्रियाँ": 7837,
      "चेन्न": 7838,
      "मुकाबले": 7839,
      "मद्रास": 7840,
      "असी": 7841,
      "दबा": 7842,
      "##ुड": 7843,
      "##क्तियों": 7844,
      "बेस": 7845,
      "##ंतरित": 7846,
      "वसीयत": 7847,
      "नो": 7848,
      "##ूर्त": 7849,
      "आजाद": 7850,
      "यात्र": 7851,
      "प्रसारण": 7852,
      "झुठलाने": 7853,
      "कुफ्फार": 7854,
      "प्रदत्त": 7855,
      "मुशरेकीन": 7856,
      "अंद": 7857,
      "##दाताओं": 7858,
      "याक़": 7859,
      "##क़ात": 7860,
      "वैष्ण": 7861,
      "कलाकार": 7862,
      "खतरनाक": 7863,
      "रिजर्व": 7864,
      "शेर": 7865,
      "मेर": 7866,
      "##्वीप": 7867,
      "गवर्नर": 7868,
      "##खार": 7869,
      "निरूप": 7870,
      "मेहन": 7871,
      "प्रवर्तन": 7872,
      "आस्तियों": 7873,
      "##फो": 7874,
      "याता": 7875,
      "आयकर": 7876,
      "##ड़ीसा": 7877,
      "भरने": 7878,
      "पाठक": 7879,
      "बालक": 7880,
      "##स्तीनी": 7881,
      "चाँद": 7882,
      "अद्व": 7883,
      "लल": 7884,
      "##सेना": 7885,
      "##ंचल": 7886,
      "दिखाए": 7887,
      "बताने": 7888,
      "ब्रह्मा": 7889,
      "कतिपय": 7890,
      "आस्था": 7891,
      "खैर": 7892,
      "धूम": 7893,
      "##स्तु": 7894,
      "प्रतिवादी": 7895,
      "दुश": 7896,
      "शीत": 7897,
      "गोद": 7898,
      "पुस्तकें": 7899,
      "मोटे": 7900,
      "अधिवेशन": 7901,
      "आजीविका": 7902,
      "ढूँ": 7903,
      "पक्का": 7904,
      "##AR": 7905,
      "सौदा": 7906,
      "बोलने": 7907,
      "प्रोटीन": 7908,
      "##वाणी": 7909,
      "सकने": 7910,
      "##ेनिस": 7911,
      "रासायनिक": 7912,
      "पहलुओं": 7913,
      "दस्तावेजों": 7914,
      "37": 7915,
      "इल्": 7916,
      "दांत": 7917,
      "सर्वज्ञ": 7918,
      "बरबाद": 7919,
      "##olor": 7920,
      "##----": 7921,
      "क्यो": 7922,
      "नमूना": 7923,
      "प्रणालियों": 7924,
      "नक़ल": 7925,
      "छि": 7926,
      "अभ्य": 7927,
      "पढ़ी": 7928,
      "कविताओं": 7929,
      "##सूत्र": 7930,
      "परिस्थिति": 7931,
      "तलाक़": 7932,
      "आमंत्रित": 7933,
      "अजीब": 7934,
      "यानि": 7935,
      "##ेला": 7936,
      "##ब्बा": 7937,
      "अक्ल": 7938,
      "धनराशि": 7939,
      "पेट्रोल": 7940,
      "संयोजन": 7941,
      "सितम्बर": 7942,
      "क्रांतिकारी": 7943,
      "यातायात": 7944,
      "पाव": 7945,
      "बहा": 7946,
      "शस्त्र": 7947,
      "##ऊद": 7948,
      "आवेद": 7949,
      "लक्ष्यों": 7950,
      "ऊंची": 7951,
      "कश्त": 7952,
      "फसलों": 7953,
      "लड": 7954,
      "सोल": 7955,
      "“%": 7956,
      "वग़ैरह": 7957,
      "आकांक्षा": 7958,
      "इराक": 7959,
      "उभार": 7960,
      "टो": 7961,
      "मंगल": 7962,
      "वरीय": 7963,
      "ह्र": 7964,
      "जैन": 7965,
      "जाएँगें": 7966,
      "ऊँची": 7967,
      "अज्र": 7968,
      "संगणना": 7969,
      "दार्शनिक": 7970,
      "जेह": 7971,
      "##व्यापी": 7972,
      "##रीद": 7973,
      "##विंद": 7974,
      "क़ब्ल": 7975,
      "सरदारों": 7976,
      "रुक": 7977,
      "छोड़े": 7978,
      "अर्जन": 7979,
      "धोखा": 7980,
      "परहेज़गारी": 7981,
      "गलती": 7982,
      "विकलांग": 7983,
      "मेहरबानी": 7984,
      "दशकों": 7985,
      "फिलीस्तीनी": 7986,
      "पशुओं": 7987,
      "सत्या": 7988,
      "##स्र": 7989,
      "##um": 7990,
      "लाभों": 7991,
      "बलि": 7992,
      "पुस्तकालय": 7993,
      "अफ़सोस": 7994,
      "स्वाधीनता": 7995,
      "हिमाचल": 7996,
      "##ागल": 7997,
      "पाँव": 7998,
      "साक्षात": 7999,
      "रम": 8000,
      "समेक": 8001,
      "फ़ाय": 8002,
      "##ंक्शन": 8003,
      "पूर्ववर्ती": 8004,
      "आदत": 8005,
      "मारने": 8006,
      "##ort": 8007,
      "06": 8008,
      "तदन": 8009,
      "प्रेमच": 8010,
      "छिपाते": 8011,
      "स्कूलों": 8012,
      "होटल": 8013,
      "##ायिक": 8014,
      "पूर": 8015,
      "सम्बद्ध": 8016,
      "खोलकर": 8017,
      "अनुमोदित": 8018,
      "पडे": 8019,
      "##ार्म": 8020,
      "मुआ": 8021,
      "प्रतिप": 8022,
      "आवरण": 8023,
      "प्रौद्योगिक": 8024,
      "वाक्य": 8025,
      "इक": 8026,
      "दलों": 8027,
      "वेश": 8028,
      "##वण": 8029,
      "##ँस": 8030,
      "बढ़ता": 8031,
      "परहेज़गार": 8032,
      "कूटशब्द": 8033,
      "पंथ": 8034,
      "बेटी": 8035,
      "मरम्मत": 8036,
      "चित्रण": 8037,
      "प्रभार्य": 8038,
      "प्रिंटर": 8039,
      "वनस्पति": 8040,
      "घृ": 8041,
      "सर्": 8042,
      "##ाधिक": 8043,
      "##ub": 8044,
      "##दीक़": 8045,
      "##ess": 8046,
      "##ेडकर": 8047,
      "तालाब": 8048,
      "घेरे": 8049,
      "##ूर्व": 8050,
      "##ric": 8051,
      "##ुलित": 8052,
      "सोम": 8053,
      "जरुर": 8054,
      "##lation": 8055,
      "सोचते": 8056,
      "कार्यालयों": 8057,
      "नुक़सान": 8058,
      "बड़": 8059,
      "##चिक": 8060,
      "विधिक": 8061,
      "विस्फोट": 8062,
      "##ावली": 8063,
      "तरल": 8064,
      "खुल्ला": 8065,
      "ऊंचे": 8066,
      "जिब": 8067,
      "ढा": 8068,
      "थोप": 8069,
      "मख़": 8070,
      "हरी": 8071,
      "##ction": 8072,
      "वर्मा": 8073,
      "सबकी": 8074,
      "##ार्थियों": 8075,
      "मध्यस्थ": 8076,
      "टीका": 8077,
      "दिखाते": 8078,
      "अभिभाषण": 8079,
      "विनियमन": 8080,
      "कार्बन": 8081,
      "मेमोरी": 8082,
      "प्रोटोकॉल": 8083,
      "##चेंज": 8084,
      "मोहन": 8085,
      "बांग्ल": 8086,
      "जंगली": 8087,
      "चक": 8088,
      "##OR": 8089,
      "रहकर": 8090,
      "प्रतिज्ञा": 8091,
      "मानों": 8092,
      "रुजू": 8093,
      "##डीएफ": 8094,
      "चौप": 8095,
      "अन्द": 8096,
      "परहेज़गारों": 8097,
      "सरीही": 8098,
      "याक़ूब": 8099,
      "04": 8100,
      "बसव": 8101,
      "छिपी": 8102,
      "परिपक्व": 8103,
      "##ूकता": 8104,
      "बनायी": 8105,
      "बेज": 8106,
      "##क्षरता": 8107,
      "किराये": 8108,
      "पाबन्दी": 8109,
      "बहादुर": 8110,
      "\",": 8111,
      "इख्त": 8112,
      "नास": 8113,
      "##गोर": 8114,
      "##श्रे": 8115,
      "##ीदा": 8116,
      "##टो": 8117,
      "##डो": 8118,
      "हाउस": 8119,
      "कराता": 8120,
      "हर्ष": 8121,
      "##पो": 8122,
      "##लियों": 8123,
      "##ल्ले": 8124,
      "लगने": 8125,
      "##प्राप्त": 8126,
      "ट्रैक": 8127,
      "डिजिटल": 8128,
      "##tem": 8129,
      "उड़ीसा": 8130,
      "शादी": 8131,
      "##ख्व": 8132,
      "##ंधे": 8133,
      "सूजन": 8134,
      "मानदंड": 8135,
      "मिश्रित": 8136,
      "लाएँगे": 8137,
      "वादी": 8138,
      "##जनों": 8139,
      "##यू": 8140,
      "##ूलन": 8141,
      "मंडप": 8142,
      "आज़माइश": 8143,
      "नर्स": 8144,
      "रुस": 8145,
      "मैच": 8146,
      "##संरचना": 8147,
      "विद्या": 8148,
      "कुम": 8149,
      "छप": 8150,
      "##ेंडर": 8151,
      "रूपये": 8152,
      "अवर": 8153,
      "रजिस्टर": 8154,
      "हिन्दुस्तान": 8155,
      "झिल": 8156,
      "कराई": 8157,
      "##ितियां": 8158,
      "पीड़ा": 8159,
      "##यंती": 8160,
      "1956": 8161,
      "सैनिकों": 8162,
      "सत्यापित": 8163,
      "बिख": 8164,
      "सिम": 8165,
      "##ंगों": 8166,
      "अव्य": 8167,
      "सदस्यता": 8168,
      "बचपन": 8169,
      "48": 8170,
      "अड्ड": 8171,
      "ठहरे": 8172,
      "नाय": 8173,
      "मन्द": 8174,
      "१२": 8175,
      "##व्यों": 8176,
      "##फिक़": 8177,
      "##स्सी": 8178,
      "##ेटी": 8179,
      "2009": 8180,
      "लेखापरी": 8181,
      "##ोक्त": 8182,
      "##बों": 8183,
      "उत्कृष्टता": 8184,
      "भड़कती": 8185,
      "रिज़र्व": 8186,
      "##्यून": 8187,
      "सहानुभूति": 8188,
      "ज़बरदस्त": 8189,
      "एजेंसियों": 8190,
      "¤": 8191,
      "सुश": 8192,
      "दादाओं": 8193,
      "पेशेवर": 8194,
      "निवारण": 8195,
      "अटक": 8196,
      "रहीं": 8197,
      "##घन": 8198,
      "##wor": 8199,
      "कारख": 8200,
      "##विदा": 8201,
      "मानकों": 8202,
      "मोती": 8203,
      "सर्विस": 8204,
      "उत्पादकता": 8205,
      "वितरित": 8206,
      "नाफ़र": 8207,
      "बरसाया": 8208,
      "टर्मिनल": 8209,
      "ध्य": 8210,
      "##पल": 8211,
      "महफू": 8212,
      "नमक": 8213,
      "व्याख्यान": 8214,
      "एमएस": 8215,
      "##हीत": 8216,
      "तुम्": 8217,
      "सुचर": 8218,
      "संतान": 8219,
      "हारून": 8220,
      "सिलस": 8221,
      "पार्श्व": 8222,
      "नाव": 8223,
      "भव्य": 8224,
      "##भुत": 8225,
      "निवेदन": 8226,
      "किताबों": 8227,
      "किनारा": 8228,
      "वन्य": 8229,
      "अपराधियों": 8230,
      "Con": 8231,
      "क्ला": 8232,
      "नायक": 8233,
      "ह्य": 8234,
      "##हद": 8235,
      "##हान": 8236,
      "सूरत": 8237,
      "बाढ़": 8238,
      "¤": 8239,
      "आधे": 8240,
      "भत्ता": 8241,
      "##ैण्ड": 8242,
      "निर्गम": 8243,
      "प्रतिर": 8244,
      "शुरूआ": 8245,
      "प्रभाग": 8246,
      "टेलीफोन": 8247,
      "मुकदमे": 8248,
      "ओवर": 8249,
      "कड़": 8250,
      "हाइड": 8251,
      "##न्ज": 8252,
      "##ैंक": 8253,
      "मोहलत": 8254,
      "अध्यक्षता": 8255,
      "कथित": 8256,
      "आमदनी": 8257,
      "चिर": 8258,
      "चक्कर": 8259,
      "##20": 8260,
      "##र्वेद": 8261,
      "दाऊद": 8262,
      "जरूरतों": 8263,
      "जागरूकता": 8264,
      "वैयक्तिक": 8265,
      "इंग": 8266,
      "दंत": 8267,
      "फलों": 8268,
      "वाइ": 8269,
      "विडियो": 8270,
      "मुल": 8271,
      "##र्थी": 8272,
      "गिरा": 8273,
      "परिकल्पना": 8274,
      "नाबार्ड": 8275,
      "अरे": 8276,
      "ऊँट": 8277,
      "##र्मा": 8278,
      "अपवाद": 8279,
      "##ात्रि": 8280,
      "निचले": 8281,
      "त्वरित": 8282,
      "vi": 8283,
      "##ैधानिक": 8284,
      "लेट": 8285,
      "स्था": 8286,
      "राष्ट्री": 8287,
      "गुणा": 8288,
      "आन्द": 8289,
      "जयंती": 8290,
      "दमन": 8291,
      "शर": 8292,
      "समीकरण": 8293,
      "बातिल": 8294,
      "आकर्षण": 8295,
      "धमकी": 8296,
      "अफगानिस्तान": 8297,
      "पाय": 8298,
      "##र्ते": 8299,
      "अपार": 8300,
      "मुअ": 8301,
      "##लाइ": 8302,
      "##साई": 8303,
      "प्रतिभूत": 8304,
      "##ख़बर": 8305,
      "महफूज़": 8306,
      "खाल": 8307,
      "शर्म": 8308,
      "##खाव": 8309,
      "किमी": 8310,
      "##ास्": 8311,
      "स्थूल": 8312,
      "पक्षियों": 8313,
      "जाननेवाला": 8314,
      "मराठी": 8315,
      "नतीजा": 8316,
      "ताक": 8317,
      "कैम": 8318,
      "पूछता": 8319,
      "तरीक़े": 8320,
      "तत्स": 8321,
      "नारायण": 8322,
      "प्रावधानों": 8323,
      "अनुशासन": 8324,
      "छः": 8325,
      "##यल": 8326,
      "##ढे": 8327,
      "गोली": 8328,
      "एख्तेयार": 8329,
      "##वेद": 8330,
      "##13": 8331,
      "मजदूरी": 8332,
      "श्ल": 8333,
      "##डिंग": 8334,
      "होश": 8335,
      "##नीतिक": 8336,
      "इनको": 8337,
      "चरम": 8338,
      "प्रवाहित": 8339,
      "वगैरह": 8340,
      ",–": 8341,
      "item": 8342,
      "ट्रेड": 8343,
      "##टकों": 8344,
      "विधा": 8345,
      "##ज़न": 8346,
      "कारगर": 8347,
      "समर्थक": 8348,
      "सुचरिता": 8349,
      "अनाथ": 8350,
      "ऋष": 8351,
      "थल": 8352,
      "बश": 8353,
      "अधिकृत": 8354,
      "कार्यपालिका": 8355,
      "अवकाश": 8356,
      "घोड़े": 8357,
      "खि": 8358,
      "चूक": 8359,
      "##थित": 8360,
      "व्यष्टि": 8361,
      "राधा": 8362,
      "बिता": 8363,
      "कैल": 8364,
      "##्बत": 8365,
      "इलाकों": 8366,
      "##साइटी": 8367,
      "मंग": 8368,
      "स्वदेश": 8369,
      "दीं": 8370,
      "##ोल्यूशन": 8371,
      "अतिमान": 8372,
      "लाखों": 8373,
      "ज्यादातर": 8374,
      "मेहनत": 8375,
      "बांग्लादेश": 8376,
      "आलेख": 8377,
      "२०": 8378,
      "इस्प": 8379,
      "कार्मिक": 8380,
      "##च्छेदन": 8381,
      "सोसाइटी": 8382,
      "सार्वभ": 8383,
      "मुनाफ़": 8384,
      "भागीदार": 8385,
      "लाई": 8386,
      "शिष्ट": 8387,
      "कोने": 8388,
      "जबर": 8389,
      "##ंटित": 8390,
      "विदेशों": 8391,
      "संग्राम": 8392,
      "शब्": 8393,
      "मुज": 8394,
      "बढ़ाना": 8395,
      "डॉक्टर": 8396,
      "आंकड़े": 8397,
      "फॉर्म": 8398,
      "टैगोर": 8399,
      "ऑस्ट": 8400,
      "पागल": 8401,
      "##nome": 8402,
      "आपात": 8403,
      "निपटान": 8404,
      "चिह्नित": 8405,
      "रेशम": 8406,
      "फ्रेम": 8407,
      "हज़ार": 8408,
      "##ेड़": 8409,
      "कर्ज": 8410,
      "##र्चे": 8411,
      "किश": 8412,
      "##सेस": 8413,
      "##ल्फ": 8414,
      "नींद": 8415,
      "पढ़ाई": 8416,
      "निकलते": 8417,
      "लड़कियों": 8418,
      "बूट": 8419,
      "##त्थ": 8420,
      "##ण्ट": 8421,
      "##ov": 8422,
      "करूँगा": 8423,
      "इसहा": 8424,
      "##ासित": 8425,
      "##राए": 8426,
      "क्षम": 8427,
      "डालना": 8428,
      "मज़े": 8429,
      "##ाजनक": 8430,
      "यहूदियों": 8431,
      "वैष्णव": 8432,
      "दार": 8433,
      "तक़": 8434,
      "##स्थल": 8435,
      "घरवालों": 8436,
      "गणतंत्र": 8437,
      "ग्रीन": 8438,
      "टेनिस": 8439,
      "फू": 8440,
      "##िन्त": 8441,
      "बीवियों": 8442,
      "आर्य": 8443,
      "प्रशिक्षित": 8444,
      "सेनाओं": 8445,
      "फूलों": 8446,
      "आंखों": 8447,
      "इमारत": 8448,
      "वरीयता": 8449,
      "अटल": 8450,
      "##णे": 8451,
      "##्टवेयर": 8452,
      "माफ़": 8453,
      "माउस": 8454,
      "श्रो": 8455,
      "खरीदने": 8456,
      "##बोर्ड": 8457,
      "इसहाक़": 8458,
      "सार्थ": 8459,
      "हरा": 8460,
      "##शुदा": 8461,
      "##ैप": 8462,
      "##ig": 8463,
      "केस": 8464,
      "बनाती": 8465,
      "डिब": 8466,
      "केश": 8467,
      "संक्षेप": 8468,
      "नेको": 8469,
      "उपलब्धियों": 8470,
      "##पीसी": 8471,
      "शर्तें": 8472,
      "चिंतन": 8473,
      "##कारियों": 8474,
      "##ंगें": 8475,
      "आनुवंश": 8476,
      "sh": 8477,
      "कोर": 8478,
      "भीड़": 8479,
      "नामों": 8480,
      "मील": 8481,
      "पर्यवे": 8482,
      "उत्सव": 8483,
      "दुर्लभ": 8484,
      "com": 8485,
      "इधर": 8486,
      "मचा": 8487,
      "शपथ": 8488,
      "##दूत": 8489,
      "लेबल": 8490,
      "जानों": 8491,
      "प्रतिल": 8492,
      "बढ़े": 8493,
      "आजकल": 8494,
      "##ंबेडकर": 8495,
      "उदय": 8496,
      "एशियाई": 8497,
      "लाह": 8498,
      "निवेशकों": 8499,
      "उपनिवेश": 8500,
      "खासकर": 8501,
      "प्लगइन": 8502,
      "बेटियाँ": 8503,
      "##क्रामक": 8504,
      "गड़": 8505,
      "जिलों": 8506,
      "मर्य": 8507,
      "वसा": 8508,
      "##ोव": 8509,
      "##्हा": 8510,
      "स्विच": 8511,
      "संवैधानिक": 8512,
      "उपभोग": 8513,
      "मण": 8514,
      "हानिक": 8515,
      "##तकों": 8516,
      "##लय": 8517,
      "##ef": 8518,
      "कोमल": 8519,
      "##श्यक": 8520,
      "सर्वप्र": 8521,
      "कानों": 8522,
      "##राग": 8523,
      "निर्धन": 8524,
      "गुट": 8525,
      "माफ": 8526,
      "यात्री": 8527,
      "186": 8528,
      "##stel": 8529,
      "आकर्षक": 8530,
      "समायोजन": 8531,
      "कना": 8532,
      "दत्त": 8533,
      "धूल": 8534,
      "##ंर": 8535,
      "मुब": 8536,
      "##ख़्या": 8537,
      "##क्के": 8538,
      "इस्लामवादी": 8539,
      "बरसात": 8540,
      "वृत्ति": 8541,
      "##ैश": 8542,
      "##जीवन": 8543,
      "##पीआई": 8544,
      "##भूषण": 8545,
      "माहौल": 8546,
      "ज़्यादती": 8547,
      "सार्वभौम": 8548,
      "##stellation": 8549,
      "गूगल": 8550,
      "प्रासंगिक": 8551,
      "बग़ैर": 8552,
      "क़्योंकि": 8553,
      "”।": 8554,
      "हिस्सों": 8555,
      "पूर्णतया": 8556,
      "मरयम": 8557,
      "नियंत्रक": 8558,
      "कहानियों": 8559,
      "गंध": 8560,
      "मुम": 8561,
      "##ौलत": 8562,
      "##ियाद": 8563,
      "##िएशन": 8564,
      "बीवी": 8565,
      "पट्ट": 8566,
      "झुठलाते": 8567,
      "सिखाया": 8568,
      "तित": 8569,
      "नं": 8570,
      "नक्": 8571,
      "##शक": 8572,
      "##णुओं": 8573,
      "##ER": 8574,
      "##ितु": 8575,
      "निबंध": 8576,
      "मुन्त": 8577,
      "मेड": 8578,
      "ग़ुल": 8579,
      "##संचार": 8580,
      "##गुण": 8581,
      "पूजते": 8582,
      "मंजूर": 8583,
      "एकत्रित": 8584,
      "गेह": 8585,
      "##्यक": 8586,
      "##नेवाला": 8587,
      "कार्यकारी": 8588,
      "##िटर": 8589,
      "फरिश्तों": 8590,
      "अभिने": 8591,
      "शान्ति": 8592,
      "वर्गीकरण": 8593,
      "इस्पात": 8594,
      "##ोदय": 8595,
      "##ैब": 8596,
      "##ul": 8597,
      "पराज": 8598,
      "##्षेप": 8599,
      "समता": 8600,
      "सुदूर": 8601,
      "##व्यवहार": 8602,
      "2010": 8603,
      "कॉपी": 8604,
      "हल्का": 8605,
      "शोषण": 8606,
      "##ुअल": 8607,
      "विवे": 8608,
      "बुढ़": 8609,
      "डालर": 8610,
      "पड़ोस": 8611,
      "अंगों": 8612,
      "परिसंप": 8613,
      "महान्": 8614,
      "ऊंचा": 8615,
      "##्रीकरण": 8616,
      "##लीस": 8617,
      "##स्थापन": 8618,
      "दीवारों": 8619,
      "पुरात": 8620,
      "मंजूरी": 8621,
      "डोमेन": 8622,
      "ओब": 8623,
      "##वट": 8624,
      "##मों": 8625,
      "##ब्बे": 8626,
      "संकलन": 8627,
      "इज्ज़त": 8628,
      "तत्कालीन": 8629,
      "मरी": 8630,
      "##पोषण": 8631,
      "##ॉग": 8632,
      "प्रक्षेप": 8633,
      "विघ": 8634,
      "अपूर्ण": 8635,
      "समकालीन": 8636,
      "स्वर्ग": 8637,
      "करेगें": 8638,
      "नमूने": 8639,
      "##दस्ती": 8640,
      "##ृश": 8641,
      "##SL": 8642,
      "देनी": 8643,
      "राजी": 8644,
      "कैप": 8645,
      "लौटने": 8646,
      "श्रद्धा": 8647,
      "अवज्ञाकारी": 8648,
      "विज्ञापन": 8649,
      "ड्राइव": 8650,
      "झिल्ली": 8651,
      "लपेट": 8652,
      "प्रकोप": 8653,
      "##राती": 8654,
      "मेगा": 8655,
      "प्रतिवर्ष": 8656,
      "अवसंरचना": 8657,
      "बदौलत": 8658,
      "अमृत": 8659,
      "उन्नयन": 8660,
      "यूसुफ़": 8661,
      "##क्साइड": 8662,
      "लहर": 8663,
      "हाइ": 8664,
      "१६": 8665,
      "उपर्य": 8666,
      "स्वे": 8667,
      "##ख़्त": 8668,
      "आशंका": 8669,
      "औषधि": 8670,
      "उत्तराधिकारी": 8671,
      "अद्": 8672,
      "किरण": 8673,
      "पहुंचाने": 8674,
      "लड़ने": 8675,
      "वक्तव्य": 8676,
      "सालेह": 8677,
      "सलाहकार": 8678,
      "ज़िम्मेदारी": 8679,
      "इलेक्ट्रॉनिक": 8680,
      "दाँ": 8681,
      "रवि": 8682,
      "प्राप": 8683,
      "फ़ाइलों": 8684,
      "परिणामों": 8685,
      "पते": 8686,
      "##शंकर": 8687,
      "##पोर्ट": 8688,
      "##्स्य": 8689,
      "पेशी": 8690,
      "निरन्तर": 8691,
      "##ener": 8692,
      "फौज": 8693,
      "शुरूआत": 8694,
      "इतर": 8695,
      "कण": 8696,
      "गज": 8697,
      "##र्ची": 8698,
      "प्रजा": 8699,
      "क़ब्र": 8700,
      "##परक": 8701,
      "नेताजी": 8702,
      "कच्चे": 8703,
      "रोट": 8704,
      "##ग्रा": 8705,
      "##संद": 8706,
      "##ast": 8707,
      "##कोष": 8708,
      "##ाइश": 8709,
      "क्रमा": 8710,
      "लौटकर": 8711,
      "गाँधी": 8712,
      "सत्यापन": 8713,
      "एण्ड": 8714,
      "##खिक": 8715,
      "##डऋ": 8716,
      "##ैक्ट": 8717,
      "इसमे": 8718,
      "अनुकरण": 8719,
      "राजमार्ग": 8720,
      "##स्कर": 8721,
      "समझाने": 8722,
      "किसने": 8723,
      "##गमन": 8724,
      "समस्याएं": 8725,
      "रूए": 8726,
      "##age": 8727,
      "अवयव": 8728,
      "फिटकार": 8729,
      "ठे": 8730,
      "ढाल": 8731,
      "हफ्त": 8732,
      "हमले": 8733,
      "अन्वेष": 8734,
      "##ँचा": 8735,
      "पकड़े": 8736,
      "नाटकों": 8737,
      "1948": 8738,
      "शास्त्री": 8739,
      "शेख": 8740,
      "विटामिन": 8741,
      ",\"": 8742,
      "आकृति": 8743,
      "फिरे": 8744,
      "कम्ब": 8745,
      "तालिका": 8746,
      "इसलिये": 8747,
      "कबीर": 8748,
      "पांव": 8749,
      "वाज़े": 8750,
      "##िकेशन": 8751,
      "##ज़ब": 8752,
      "पाओ": 8753,
      "लाभांश": 8754,
      "आईसी": 8755,
      "सोचने": 8756,
      "द्रव": 8757,
      "निषे": 8758,
      "जेहाद": 8759,
      "65": 8760,
      "आधी": 8761,
      "गठ": 8762,
      "फसाद": 8763,
      "बही": 8764,
      "##ैद": 8765,
      "##ter": 8766,
      "अनिव": 8767,
      "निर्वाह": 8768,
      "अवगत": 8769,
      "प्रशंस": 8770,
      "रोज़ा": 8771,
      "एसोस": 8772,
      "लौटना": 8773,
      "प्राणियों": 8774,
      "फिलीस्तीन": 8775,
      "मूर्ख": 8776,
      "##श्रेष्ठ": 8777,
      "श्लोक": 8778,
      "खौल": 8779,
      "##कक्ष": 8780,
      "##ड़ना": 8781,
      "नियन्त्र": 8782,
      "प्रसव": 8783,
      "दूरसंचार": 8784,
      "बताओ": 8785,
      "संदत्त": 8786,
      "पुराण": 8787,
      "42": 8788,
      "##गित": 8789,
      "##ट्स": 8790,
      "##ंतव्य": 8791,
      "अधिर": 8792,
      "मिलन": 8793,
      "##निहित": 8794,
      "##वीर": 8795,
      "प्रोफ़": 8796,
      "राजकुमार": 8797,
      "शब्दा": 8798,
      "ग्य": 8799,
      "जमे": 8800,
      "##म्र": 8801,
      "##्यूम": 8802,
      "निकला": 8803,
      "उठता": 8804,
      "कतरा": 8805,
      "सर्वप्रथम": 8806,
      "¥": 8807,
      "रूपरेखा": 8808,
      "अक्ट": 8809,
      "माइक्रो": 8810,
      "po": 8811,
      "मसी": 8812,
      "##भक्त": 8813,
      "##ऍं": 8814,
      "अवस्थित": 8815,
      "बनो": 8816,
      "पीछला": 8817,
      "झुका": 8818,
      "ठाकुर": 8819,
      "##वकों": 8820,
      "##ान्": 8821,
      "संगत": 8822,
      "##स्से": 8823,
      "फ़साद": 8824,
      "बारिश": 8825,
      "छोड़ने": 8826,
      "राजाओं": 8827,
      "सृजित": 8828,
      "दरवाज़े": 8829,
      "Ch": 8830,
      "आघात": 8831,
      "ब्रे": 8832,
      "##टकर": 8833,
      "समापन": 8834,
      "##विश्वास": 8835,
      "ज़लील": 8836,
      "##and": 8837,
      "रुए": 8838,
      "##itle": 8839,
      "187": 8840,
      "जहाँन": 8841,
      "उलटे": 8842,
      "डाटाबेस": 8843,
      "बाँध": 8844,
      "महासागर": 8845,
      "नोक": 8846,
      "##रखाव": 8847,
      "##वेल": 8848,
      "##ap": 8849,
      "कर्ता": 8850,
      "बहुदेव": 8851,
      "##क़्ति": 8852,
      "कलाम": 8853,
      "निकलता": 8854,
      "पुकारो": 8855,
      "निर्माता": 8856,
      "300": 8857,
      "अच": 8858,
      "##टने": 8859,
      "##राबी": 8860,
      "##दिश": 8861,
      "सूझ": 8862,
      "असंभव": 8863,
      "समाजवादी": 8864,
      "सुधारने": 8865,
      "संग्रहण": 8866,
      "क्री": 8867,
      "लड़े": 8868,
      "सज़": 8869,
      "हाज": 8870,
      "११": 8871,
      "विच": 8872,
      "रातों": 8873,
      "##पटल": 8874,
      "पंचांग": 8875,
      "बताना": 8876,
      "गर्भाशय": 8877,
      ".–": 8878,
      "##11": 8879,
      "ख़ान": 8880,
      "रखरखाव": 8881,
      "रंगम": 8882,
      "सजदे": 8883,
      "जिंदगी": 8884,
      "खुशख़बरी": 8885,
      "मॉड्यूल": 8886,
      "अधिसूचित": 8887,
      "किलोग्राम": 8888,
      "चित": 8889,
      "जाहिर": 8890,
      "पठ": 8891,
      "##हारी": 8892,
      "साक्षरता": 8893,
      "दिखाना": 8894,
      "सुनवाई": 8895,
      "खोजने": 8896,
      "श्रद्ध": 8897,
      "prh2": 8898,
      "हरेक": 8899,
      "गुलाम": 8900,
      "पादप": 8901,
      "मजदूरों": 8902,
      "अकादमी": 8903,
      "घमंड": 8904,
      "चारा": 8905,
      "नह": 8906,
      "व्र": 8907,
      "वात": 8908,
      "करेंः": 8909,
      "बनाएं": 8910,
      "स्तम्भ": 8911,
      "त्रि": 8912,
      "एनआई": 8913,
      "दशमल": 8914,
      "बॉक्स": 8915,
      "प्रतिबद्धता": 8916,
      "फो": 8917,
      "प्रम": 8918,
      "प्रॉ": 8919,
      "प्रोज": 8920,
      "सोव": 8921,
      "रोशनी": 8922,
      "मज़दूरी": 8923,
      "सम्भावना": 8924,
      "झगड़े": 8925,
      "दोषी": 8926,
      "ऊँचे": 8927,
      "किराया": 8928,
      "##शिष्ट": 8929,
      "##षक": 8930,
      "##मोहन": 8931,
      "##ox": 8932,
      "अनुभूति": 8933,
      "##म्भीर": 8934,
      "नियोजन": 8935,
      "मामूली": 8936,
      "##ोत्स": 8937,
      "पुनर": 8938,
      "अरु": 8939,
      "माँगता": 8940,
      "इलाह": 8941,
      "इंच": 8942,
      "##सिब": 8943,
      "##बन": 8944,
      "##ँजी": 8945,
      "##नाइट": 8946,
      "उत्पा": 8947,
      "पूर्वक": 8948,
      "निमित्त": 8949,
      "title": 8950,
      "अपितु": 8951,
      "समाह": 8952,
      "सुगम": 8953,
      "एक्सचेंज": 8954,
      "विवश": 8955,
      "दरवाजे": 8956,
      "दशमलव": 8957,
      "55": 8958,
      "##मार": 8959,
      "पूर्वोत्तर": 8960,
      "स्वीकार्य": 8961,
      "उठाकर": 8962,
      "केन्द्रों": 8963,
      "भेदभाव": 8964,
      "मधुमेह": 8965,
      "अमीर": 8966,
      "इल्ज़ाम": 8967,
      "पेट्रोलियम": 8968,
      "उपहार": 8969,
      "सामुद": 8970,
      "असंत": 8971,
      "....": 8972,
      "सड़कों": 8973,
      "एल्गोर": 8974,
      "घाव": 8975,
      "यकीन": 8976,
      "##चंद्र": 8977,
      "##महल": 8978,
      "नींव": 8979,
      "सदनों": 8980,
      "पुनरा": 8981,
      "सालों": 8982,
      "अहिंसा": 8983,
      "पतन": 8984,
      "शान्त": 8985,
      "हाई": 8986,
      "हंस": 8987,
      "##लाप": 8988,
      "क़ी": 8989,
      "सूचक": 8990,
      "पैरों": 8991,
      "लड़ते": 8992,
      "150": 8993,
      "पत्नियों": 8994,
      "शरारत": 8995,
      "उपर्युक्त": 8996,
      ")-": 8997,
      "चर्च": 8998,
      "टू": 8999,
      "##ूती": 9000,
      "मौज़": 9001,
      "रोचक": 9002,
      "निकालना": 9003,
      "कपड़ा": 9004,
      "हड्डी": 9005,
      "आन्दोलन": 9006,
      "उछ": 9007,
      "घबरा": 9008,
      "टक": 9009,
      "थै": 9010,
      "ध्रु": 9011,
      "##शिंग": 9012,
      "##ुले": 9013,
      "##tr": 9014,
      "कीटना": 9015,
      "कार्यवाह": 9016,
      "##र्दे": 9017,
      "##वत्": 9018,
      "प्रचुर": 9019,
      "सौंपा": 9020,
      "यौन": 9021,
      "गम्भीर": 9022,
      "तख्त": 9023,
      "फर्": 9024,
      "##id": 9025,
      "होस्ट": 9026,
      "कमेटी": 9027,
      "##वलोकन": 9028,
      "सर्वश्रेष्ठ": 9029,
      "##िकीकरण": 9030,
      "ट्रांस": 9031,
      "मुहैया": 9032,
      "स्थिरता": 9033,
      "##डों": 9034,
      "##ON": 9035,
      "##नाई": 9036,
      "अनुकम्प": 9037,
      "असत्य": 9038,
      "हालात": 9039,
      "एक्सट": 9040,
      "फ़रमाया": 9041,
      "आश्रम": 9042,
      "गीतों": 9043,
      "##हीनता": 9044,
      "हिन्दुओं": 9045,
      "स्वच्छता": 9046,
      "भटका": 9047,
      "वांछित": 9048,
      "##रानी": 9049,
      "जिनपर": 9050,
      "दरगु": 9051,
      "किताबें": 9052,
      "बेहद": 9053,
      "बदलना": 9054,
      "##द्वीप": 9055,
      "बढा": 9056,
      "उन्मूलन": 9057,
      "वाक़िफकार": 9058,
      "झगड़ते": 9059,
      "##स्टर": 9060,
      "##लर": 9061,
      "##क्ल": 9062,
      "##्रिक": 9063,
      "##कोर": 9064,
      "कहती": 9065,
      "##ब्बत": 9066,
      "कामक": 9067,
      "जानेवाले": 9068,
      "विशेषाधिकार": 9069,
      "किताबे": 9070,
      "मंत्रियों": 9071,
      "साझीदारी": 9072,
      "झगड़ा": 9073,
      "पसंदीदा": 9074,
      "प्रदाह": 9075,
      "मैत्रीपूर्ण": 9076,
      "स्नान": 9077,
      "अनुस्मृति": 9078,
      "तदनुसार": 9079,
      ")...": 9080,
      "छोर": 9081,
      "ढ़": 9082,
      "##सूद": 9083,
      "##उंट": 9084,
      "प्रगा": 9085,
      "##क्ष्य": 9086,
      "दुर्ग": 9087,
      "अम्ल": 9088,
      "अंतरित": 9089,
      "बताए": 9090,
      "धर्मों": 9091,
      "निरपेक्ष": 9092,
      "स्नातक": 9093,
      "निभाई": 9094,
      "शंक": 9095,
      "सैक": 9096,
      "##ॉर्ट": 9097,
      "साकार": 9098,
      "##ुत्": 9099,
      "##ूरो": 9100,
      "स्नेह": 9101,
      "कमीशन": 9102,
      "धीमी": 9103,
      "गिर्द": 9104,
      "##प्पा": 9105,
      "जीवाणु": 9106,
      "सत्याग्रह": 9107,
      "वाज़ेए": 9108,
      "गेट": 9109,
      "वक्र": 9110,
      "परदे": 9111,
      "बहका": 9112,
      "##ांजल": 9113,
      "सख्ती": 9114,
      "पेटेंट": 9115,
      "आयुर्वेद": 9116,
      "##शुल्क": 9117,
      "टेप": 9118,
      "नफ़": 9119,
      "बसे": 9120,
      "सर्ज": 9121,
      "##ऊँ": 9122,
      "##्मा": 9123,
      "सिने": 9124,
      "पैदावार": 9125,
      "त्रिप": 9126,
      "बजाए": 9127,
      "विधाय": 9128,
      "सोचता": 9129,
      "प्रतिनिधियों": 9130,
      "##ect": 9131,
      "अक्टूबर": 9132,
      "##र्सी": 9133,
      "मुहा": 9134,
      "##ष्कृत": 9135,
      "##ंबित": 9136,
      "अप्रिय": 9137,
      "उत्सर्जन": 9138,
      "दीक्षांत": 9139,
      "ओबामा": 9140,
      "नाज": 9141,
      "रंज": 9142,
      "हिर": 9143,
      "##स्मिक": 9144,
      "##ak": 9145,
      "##ुलर": 9146,
      "##ोरम": 9147,
      "लिखें": 9148,
      "बच्चन": 9149,
      "मनाया": 9150,
      "परेशानी": 9151,
      "संवेदनशील": 9152,
      "##ew": 9153,
      "बढ़ाया": 9154,
      "##शीदा": 9155,
      "मनोरंजन": 9156,
      "गर्दन": 9157,
      "##धर्म": 9158,
      "##तिर": 9159,
      "अनो": 9160,
      "अस्व": 9161,
      "गतिशील": 9162,
      "अप्रत्य": 9163,
      "बाज़ार": 9164,
      "छिपे": 9165,
      "श्रमिक": 9166,
      "अभिव्यक्त": 9167,
      "क्रमांक": 9168,
      "¤·": 9169,
      "दै": 9170,
      "पब्लिक": 9171,
      "##ूतों": 9172,
      "##हृ": 9173,
      "अधिकाधिक": 9174,
      "पीडीएफ": 9175,
      "समझी": 9176,
      "गिरोहों": 9177,
      "इंदिरा": 9178,
      "रसी": 9179,
      "हिला": 9180,
      "विगत": 9181,
      "चुंब": 9182,
      "##दर्शक": 9183,
      "आकस्मिक": 9184,
      "स्मारक": 9185,
      "सशस्त्र": 9186,
      "उपाधि": 9187,
      "साक्षात्कार": 9188,
      "ध्येय": 9189,
      "गंतव्य": 9190,
      "पायी": 9191,
      "##ैड": 9192,
      "##un": 9193,
      "पढ़कर": 9194,
      "आगमन": 9195,
      "यूं": 9196,
      "१९८": 9197,
      "चेहरा": 9198,
      "मांसपेश": 9199,
      "नस्": 9200,
      "सटी": 9201,
      "##मिक": 9202,
      "कोण": 9203,
      "दुखी": 9204,
      "##ब्ल्यू": 9205,
      "prh0": 9206,
      "38": 9207,
      "चिल": 9208,
      "तारों": 9209,
      "नाल": 9210,
      "बांस": 9211,
      "##वीय": 9212,
      "स्वै": 9213,
      "कहकर": 9214,
      "बनते": 9215,
      "रोब": 9216,
      "जर्मन": 9217,
      "कोयला": 9218,
      "मले": 9219,
      "देशवासियों": 9220,
      "अंगूर": 9221,
      "दौरा": 9222,
      "पर्यटकों": 9223,
      "तयशुदा": 9224,
      "आज़ाद": 9225,
      "नाफ़रमानी": 9226,
      "दरगुज़र": 9227,
      "झा": 9228,
      "##बिल": 9229,
      "##डियों": 9230,
      "सेवान": 9231,
      "सब्ज": 9232,
      "##जातीय": 9233,
      "सिंहासन": 9234,
      "ख़ुशी": 9235,
      "इंकार": 9236,
      "अभियुक्त": 9237,
      "अनिवासी": 9238,
      "आधिकार": 9239,
      "भयान": 9240,
      "##ाफ़": 9241,
      "##लि": 9242,
      "##ओएस": 9243,
      "##हक़": 9244,
      "##pp": 9245,
      "प्रता": 9246,
      "जोड": 9247,
      "मुहर": 9248,
      "##ुतोष": 9249,
      "निश्चिन्त": 9250,
      "उपयोगिता": 9251,
      "पारिश": 9252,
      "न्यायपालिका": 9253,
      "शाही": 9254,
      "रंगमंच": 9255,
      "प्रगाढ़": 9256,
      "..": 9257,
      "यती": 9258,
      "ज़ब": 9259,
      "सबब": 9260,
      "विनम्र": 9261,
      "मजिस्ट": 9262,
      "नीतिगत": 9263,
      "उलझ": 9264,
      "फेफ": 9265,
      "इट": 9266,
      "निल": 9267,
      "##हाली": 9268,
      "##ियस": 9269,
      "सेवन": 9270,
      "समेट": 9271,
      "विशुद्ध": 9272,
      "माध": 9273,
      "अभिल": 9274,
      "##ाटी": 9275,
      "रोम": 9276,
      "उड़ान": 9277,
      "सुलझ": 9278,
      ".-": 9279,
      "अण्ड": 9280,
      "जरा": 9281,
      "जॉन": 9282,
      "पिक": 9283,
      "फोल्डर": 9284,
      "##पना": 9285,
      "##पहर": 9286,
      "##ुकता": 9287,
      "##ब्रे": 9288,
      "सुग": 9289,
      "लगेगा": 9290,
      "मुख्यालय": 9291,
      "संघीय": 9292,
      "तेज़": 9293,
      "हिंदुओं": 9294,
      "निर्देशों": 9295,
      "इच्छुक": 9296,
      "मुताबिक": 9297,
      "ग्यारह": 9298,
      "बजा": 9299,
      "संव्यवहार": 9300,
      "आयाम": 9301,
      "बादशाही": 9302,
      "दुग्ध": 9303,
      "स्टार": 9304,
      "##ाकू": 9305,
      "##िम्मत": 9306,
      "आँक": 9307,
      "संवेदना": 9308,
      "घृणा": 9309,
      "भूट": 9310,
      "##खों": 9311,
      "विरा": 9312,
      "जिसमे": 9313,
      "##्रेषण": 9314,
      "निक्षेप": 9315,
      "श्रील": 9316,
      "मरत": 9317,
      "सेवानिव": 9318,
      "कन्न": 9319,
      "थाम": 9320,
      "लोप": 9321,
      "##जुट": 9322,
      "##ानंद": 9323,
      "यहॉ": 9324,
      "सांख्य": 9325,
      "सुपु": 9326,
      "भरत": 9327,
      "सुधारों": 9328,
      "संकाय": 9329,
      "विस्तारित": 9330,
      "नोटिस": 9331,
      "अहमद": 9332,
      "तदबीर": 9333,
      "हार्डवेयर": 9334,
      "भोग": 9335,
      "##पार": 9336,
      "स्थलों": 9337,
      "उत्": 9338,
      "रखेगा": 9339,
      "पैनल": 9340,
      "परिषद्": 9341,
      "रोमा": 9342,
      "आगाह": 9343,
      "परियोजनाएं": 9344,
      "आशुतोष": 9345,
      "कदाचित": 9346,
      "आश्वासन": 9347,
      "ग़ुलाम": 9348,
      "##य्या": 9349,
      "##टका": 9350,
      "बदकार": 9351,
      "विधियों": 9352,
      "अनुभवों": 9353,
      "इन्होंने": 9354,
      "##ांकित": 9355,
      "##बूझ": 9356,
      "जगत्": 9357,
      "इंजीनियरिंग": 9358,
      "टेल": 9359,
      "तमा": 9360,
      "स्ल": 9361,
      "संक्रिया": 9362,
      "पढ़ना": 9363,
      "निस्बत": 9364,
      "मुर्दों": 9365,
      "टाइम्स": 9366,
      "be": 9367,
      "औजार": 9368,
      "तारे": 9369,
      "##जाम": 9370,
      "##िज़ा": 9371,
      "सको": 9372,
      "##ढ़ियों": 9373,
      "##त्तियों": 9374,
      "दरों": 9375,
      "कैद": 9376,
      "अनुमत": 9377,
      "स्क्रिप्ट": 9378,
      "1950": 9379,
      "अध्यापक": 9380,
      "action": 9381,
      "हिम्मत": 9382,
      "##विन": 9383,
      "##ोई": 9384,
      "##बर्ग": 9385,
      "##नेस": 9386,
      "स्वतन्त्र": 9387,
      "चलाए": 9388,
      "अग्रसर": 9389,
      "निर्वाचित": 9390,
      "परिपूर्ण": 9391,
      "उन्नति": 9392,
      "अभिप्र": 9393,
      "बुतों": 9394,
      "खातों": 9395,
      "छेद": 9396,
      "जुदा": 9397,
      "दण्ड": 9398,
      "नवा": 9399,
      "यों": 9400,
      "##ूवत": 9401,
      "##मिया": 9402,
      "##ियाना": 9403,
      "##्तान": 9404,
      "परित": 9405,
      "विख्यात": 9406,
      "निदान": 9407,
      "##ालीस": 9408,
      "लीजिए": 9409,
      "1992": 9410,
      "अंधा": 9411,
      "कठिनाइयों": 9412,
      "बेचने": 9413,
      "कब्जा": 9414,
      "समाहित": 9415,
      "अनुकम्पा": 9416,
      ":%": 9417,
      "UR": 9418,
      "कूद": 9419,
      "जता": 9420,
      "झेल": 9421,
      "##बारी": 9422,
      "निगे": 9423,
      "##सरत": 9424,
      "सोना": 9425,
      "बोहत": 9426,
      "##र्पण": 9427,
      "इच्छाओं": 9428,
      "क़समों": 9429,
      "##रूद्दीन": 9430,
      "समेकित": 9431,
      "आधिकारिक": 9432,
      "बोहतान": 9433,
      "रात्रि": 9434,
      "सता": 9435,
      "##ेरी": 9436,
      "##्टर्स": 9437,
      "##सील": 9438,
      "##लेखन": 9439,
      "झूठी": 9440,
      "परिचालन": 9441,
      "मख़लू": 9442,
      "\\\\": 9443,
      "खां": 9444,
      "जज़ा": 9445,
      "बाई": 9446,
      "रच": 9447,
      "##फ्र": 9448,
      "##af": 9449,
      "मर्दों": 9450,
      "अपमानित": 9451,
      "एख्तियार": 9452,
      "झोंक": 9453,
      "64": 9454,
      "नॉ": 9455,
      "मोर": 9456,
      "##्युन": 9457,
      "एकजुट": 9458,
      "कार्ट": 9459,
      "बेहत": 9460,
      "वर्षो": 9461,
      "पटल": 9462,
      "भ्रष्टा": 9463,
      "चट्टान": 9464,
      "करूंगा": 9465,
      "##किट": 9466,
      "##योग्य": 9467,
      "भेजता": 9468,
      "जीवंत": 9469,
      "विधवा": 9470,
      "##बाबू": 9471,
      "श्रीलंका": 9472,
      "दर्जा": 9473,
      "वान": 9474,
      "किले": 9475,
      "संकीर्ण": 9476,
      "पहना": 9477,
      "##ाइम": 9478,
      "परिवर्": 9479,
      "नियोक्ता": 9480,
      "यूआर": 9481,
      "अत्याचारियों": 9482,
      "न्यूय": 9483,
      "किशोर": 9484,
      "सार्थक": 9485,
      "एंव": 9486,
      "खुर": 9487,
      "##ादर": 9488,
      "अनंत": 9489,
      "बेन": 9490,
      "##टीएम": 9491,
      "आगामी": 9492,
      "प्रिंट": 9493,
      "कार्यकलापों": 9494,
      "कनाडा": 9495,
      "##थन": 9496,
      "##मानों": 9497,
      "व्यास": 9498,
      "राजपत्र": 9499,
      "विकिरण": 9500,
      "जनजात": 9501,
      "संस्थागत": 9502,
      "रंगों": 9503,
      "प्रौढ़": 9504,
      "खोला": 9505,
      "काटने": 9506,
      "जैविक": 9507,
      "संजाल": 9508,
      "भयानक": 9509,
      "ढी": 9510,
      "नकल": 9511,
      "##मैन": 9512,
      "##डक": 9513,
      "##ताएं": 9514,
      "##ियारों": 9515,
      "निविदा": 9516,
      "##रेब": 9517,
      "##विड": 9518,
      "क़िब": 9519,
      "पुनर्ग": 9520,
      "तसदीक़": 9521,
      "एवोल्यूशन": 9522,
      "नाफरमानी": 9523,
      "अटकल": 9524,
      "##ंड़": 9525,
      "##han": 9526,
      "निंदा": 9527,
      "हुज़": 9528,
      "कमर": 9529,
      "##ख़ी": 9530,
      "मैन": 9531,
      "तमन्ना": 9532,
      "ठहराए": 9533,
      "43": 9534,
      "आस्त": 9535,
      "वहन": 9536,
      "इलाहाबाद": 9537,
      "iv": 9538,
      "डेल": 9539,
      "नस": 9540,
      "यज्ञ": 9541,
      "वें": 9542,
      "##ey": 9543,
      "निर्द": 9544,
      "##ंडे": 9545,
      "मानद": 9546,
      "##त्ती": 9547,
      "मैथ": 9548,
      "स्टॉक": 9549,
      "भूक": 9550,
      "उम्मत": 9551,
      "डेटाबेस": 9552,
      "योनि": 9553,
      "आज्ञ": 9554,
      "इश": 9555,
      "खपत": 9556,
      "चोर": 9557,
      "नारी": 9558,
      "रिफ": 9559,
      "##ेन्द्र": 9560,
      "##यार": 9561,
      "##हब": 9562,
      "##aa": 9563,
      "##घोष": 9564,
      "स्वाय": 9565,
      "अभिन्न": 9566,
      "बढ़ी": 9567,
      "दौलत": 9568,
      "वरना": 9569,
      "पाएगा": 9570,
      "हिमन": 9571,
      "मधुर": 9572,
      "नाइट": 9573,
      "##्रोजन": 9574,
      "##्यु": 9575,
      "विचित्र": 9576,
      "अनदे": 9577,
      "भारती": 9578,
      "कंप्यूट": 9579,
      "बैठने": 9580,
      "अर्पित": 9581,
      "मंत्रालयों": 9582,
      "पोशीदा": 9583,
      "यात्रियों": 9584,
      "कश्ती": 9585,
      ");": 9586,
      "अय्य": 9587,
      "गत": 9588,
      "##मूर्ति": 9589,
      "##्टन": 9590,
      "दोपहर": 9591,
      "ईमानदारी": 9592,
      "असमान": 9593,
      "##यंकर": 9594,
      "सल्त": 9595,
      "भूभाग": 9596,
      "निष्पक्ष": 9597,
      "is": 9598,
      "अश्व": 9599,
      "भगत": 9600,
      "वॉ": 9601,
      "##दह": 9602,
      "##तरी": 9603,
      "परजीवी": 9604,
      "संयोग": 9605,
      "हम्द": 9606,
      "सुपर": 9607,
      "विश्राम": 9608,
      "##श्न": 9609,
      "फ़ज़ल": 9610,
      "व्याकरण": 9611,
      "प्रगतिशील": 9612,
      "सन्देश": 9613,
      "फरमाएगा": 9614,
      "##ोचित": 9615,
      "##_01": 9616,
      "##स्सा": 9617,
      "अभिर": 9618,
      "दुबारा": 9619,
      "गोला": 9620,
      "निपटने": 9621,
      "मक़सूद": 9622,
      "गिल": 9623,
      "पाएँगे": 9624,
      "लची": 9625,
      "१७": 9626,
      "##नीत": 9627,
      "बादलों": 9628,
      "यूनियन": 9629,
      "शास्त्रीय": 9630,
      "सचिवालय": 9631,
      "आचार": 9632,
      "आभूषण": 9633,
      "कों": 9634,
      "घायल": 9635,
      "बित": 9636,
      "सिया": 9637,
      "##शिला": 9638,
      "बुक": 9639,
      "हिजरत": 9640,
      "##प्रति": 9641,
      "पाठकों": 9642,
      "गतिविधियां": 9643,
      "इंजन": 9644,
      "शासित": 9645,
      "अमानत": 9646,
      "on": 9647,
      "ऋतु": 9648,
      "सफ़": 9649,
      "##ंय": 9650,
      "##तो": 9651,
      "##बोध": 9652,
      "##19": 9653,
      "किराए": 9654,
      "प्रतिबि": 9655,
      "##ार्द": 9656,
      "गोवा": 9657,
      "सारणी": 9658,
      "निर्णायक": 9659,
      "गुमान": 9660,
      "केन्द्रित": 9661,
      "विधानसभा": 9662,
      "तेलु": 9663,
      "वसूल": 9664,
      "धुंध": 9665,
      "कहलाता": 9666,
      "what": 9667,
[...]
