{
  "version": "1.0",
  "truncation": null,
  "padding": null,
  "added_tokens": [
    {
      "id": 0,
      "content": "[UNK]",
      "single_word": false,
      "lstrip": false,
      "rstrip": false,
      "normalized": false,
      "special": true
    },
    {
      "id": 1,
      "content": "[PAD]",
      "single_word": false,
      "lstrip": false,
      "rstrip": false,
      "normalized": false,
      "special": true
    },
    {
      "id": 2,
      "content": "[CLS]",
      "single_word": false,
      "lstrip": false,
      "rstrip": false,
      "normalized": false,
      "special": true
    },
    {
      "id": 3,
      "content": "[SEP]",
      "single_word": false,
      "lstrip": false,
      "rstrip": false,
      "normalized": false,
      "special": true
    },
    {
      "id": 4,
      "content": "[MASK]",
      "single_word": false,
      "lstrip": false,
      "rstrip": false,
      "normalized": false,
      "special": true
    }
  ],
  "normalizer": null,
  "pre_tokenizer": {
    "type": "Whitespace"
  },
  "post_processor": {
    "type": "TemplateProcessing",
    "single": [
      {
        "SpecialToken": {
          "id": "[CLS]",
          "type_id": 0
        }
      },
      {
        "Sequence": {
          "id": "A",
          "type_id": 0
        }
      },
      {
        "SpecialToken": {
          "id": "[SEP]",
          "type_id": 0
        }
      }
    ],
    "pair": [
      {
        "SpecialToken": {
          "id": "[CLS]",
          "type_id": 0
        }
      },
      {
        "Sequence": {
          "id": "A",
          "type_id": 0
        }
      },
      {
        "SpecialToken": {
          "id": "[SEP]",
          "type_id": 0
        }
      },
      {
        "Sequence": {
          "id": "B",
          "type_id": 1
        }
      },
      {
        "SpecialToken": {
          "id": "[SEP]",
          "type_id": 1
        }
      }
    ],
    "special_tokens": {
      "[CLS]": {
        "id": "[CLS]",
        "ids": [
          2
        ],
        "tokens": [
          "[CLS]"
        ]
      },
      "[SEP]": {
        "id": "[SEP]",
        "ids": [
          3
        ],
        "tokens": [
          "[SEP]"
        ]
      }
    }
  },
  "decoder": null,
  "model": {
    "type": "WordPiece",
    "unk_token": "[UNK]",
    "continuing_subword_prefix": "##",
    "max_input_chars_per_word": 100,
    "vocab": {
      "[UNK]": 0,
      "[PAD]": 1,
      "[CLS]": 2,
      "[SEP]": 3,
      "[MASK]": 4,
      "\u0014": 5,
      "\u001b": 6,
      "!": 7,
      "\"": 8,
      "#": 9,
      "$": 10,
      "%": 11,
      "&": 12,
      "'": 13,
      "(": 14,
      ")": 15,
      "*": 16,
      "+": 17,
      ",": 18,
      "-": 19,
      ".": 20,
      "/": 21,
      "0": 22,
      "1": 23,
      "2": 24,
      "3": 25,
      "4": 26,
      "5": 27,
      "6": 28,
      "7": 29,
      "8": 30,
      "9": 31,
      ":": 32,
      ";": 33,
      "<": 34,
      "=": 35,
      ">": 36,
      "?": 37,
      "@": 38,
      "A": 39,
      "B": 40,
      "C": 41,
      "D": 42,
      "E": 43,
      "F": 44,
      "G": 45,
      "H": 46,
      "I": 47,
      "J": 48,
      "K": 49,
      "L": 50,
      "M": 51,
      "N": 52,
      "O": 53,
      "P": 54,
      "Q": 55,
      "R": 56,
      "S": 57,
      "T": 58,
      "U": 59,
      "V": 60,
      "W": 61,
      "X": 62,
      "Y": 63,
      "Z": 64,
      "[": 65,
      "\\": 66,
      "]": 67,
      "^": 68,
      "_": 69,
      "`": 70,
      "a": 71,
      "b": 72,
      "c": 73,
      "d": 74,
      "e": 75,
      "f": 76,
      "g": 77,
      "h": 78,
      "i": 79,
      "j": 80,
      "k": 81,
      "l": 82,
      "m": 83,
      "n": 84,
      "o": 85,
      "p": 86,
      "q": 87,
      "r": 88,
      "s": 89,
      "t": 90,
      "u": 91,
      "v": 92,
      "w": 93,
      "x": 94,
      "y": 95,
      "z": 96,
      "{": 97,
      "}": 98,
      "~": 99,
      "": 100,
      "": 101,
      "": 102,
      "": 103,
      "": 104,
      "": 105,
      "": 106,
      "": 107,
      "": 108,
      "": 109,
      "": 110,
      "": 111,
      "": 112,
      "": 113,
      "": 114,
      "": 115,
      "": 116,
      "": 117,
      "": 118,
      "": 119,
      "": 120,
      "": 121,
      "": 122,
      "": 123,
      "": 124,
      "": 125,
      "": 126,
      "": 127,
      "¡": 128,
      "¢": 129,
      "£": 130,
      "¤": 131,
      "¥": 132,
      "¦": 133,
      "§": 134,
      "¨": 135,
      "©": 136,
      "ª": 137,
      "«": 138,
      "¬": 139,
      "®": 140,
      "¯": 141,
      "°": 142,
      "±": 143,
      "²": 144,
      "³": 145,
      "´": 146,
      "µ": 147,
      "¶": 148,
      "·": 149,
      "¸": 150,
      "¹": 151,
      "º": 152,
      "¼": 153,
      "½": 154,
      "¾": 155,
      "¿": 156,
      "Â": 157,
      "Ä": 158,
      "Æ": 159,
      "Ç": 160,
      "É": 161,
      "Ê": 162,
      "Î": 163,
      "Ð": 164,
      "Ó": 165,
      "Ö": 166,
      "×": 167,
      "Ú": 168,
      "Û": 169,
      "Ü": 170,
      "à": 171,
      "á": 172,
      "â": 173,
      "ä": 174,
      "æ": 175,
      "ç": 176,
      "è": 177,
      "é": 178,
      "í": 179,
      "ñ": 180,
      "ò": 181,
      "ó": 182,
      "õ": 183,
      "ö": 184,
      "÷": 185,
      "ú": 186,
      "ü": 187,
      "ý": 188,
      "þ": 189,
      "ā": 190,
      "Ă": 191,
      "Ą": 192,
      "ą": 193,
      "Ć": 194,
      "ć": 195,
      "Č": 196,
      "č": 197,
      "ď": 198,
      "Ę": 199,
      "Ě": 200,
      "ě": 201,
      "Ĺ": 202,
      "ĺ": 203,
      "Ľ": 204,
      "ľ": 205,
      "ł": 206,
      "Ň": 207,
      "ň": 208,
      "ő": 209,
      "ŕ": 210,
      "ř": 211,
      "Ś": 212,
      "ś": 213,
      "Ş": 214,
      "ş": 215,
      "Š": 216,
      "š": 217,
      "Ţ": 218,
      "ţ": 219,
      "Ť": 220,
      "ť": 221,
      "ů": 222,
      "ż": 223,
      "Ž": 224,
      "ž": 225,
      "ɓ": 226,
      "ʼ": 227,
      "ˇ": 228,
      "˙": 229,
      "˚": 230,
      "˛": 231,
      "˝": 232,
      "̀": 233,
      "́": 234,
      "̃": 235,
      "̄": 236,
      "̈": 237,
      "̊": 238,
      "̧": 239,
      ";": 240,
      "Δ": 241,
      "Θ": 242,
      "Λ": 243,
      "Π": 244,
      "Ω": 245,
      "β": 246,
      "γ": 247,
      "θ": 248,
      "ι": 249,
      "κ": 250,
      "λ": 251,
      "μ": 252,
      "ν": 253,
      "π": 254,
      "τ": 255,
      "φ": 256,
      "ψ": 257,
      "ω": 258,
      "ώ": 259,
      "Ѕ": 260,
      "Д": 261,
      "С": 262,
      "Т": 263,
      "У": 264,
      "Ч": 265,
      "ж": 266,
      "и": 267,
      "ю": 268,
      "є": 269,
      "֦": 270,
      "ֹ": 271,
      "،": 272,
      "آ": 273,
      "إ": 274,
      "ا": 275,
      "ت": 276,
      "ج": 277,
      "ح": 278,
      "ر": 279,
      "س": 280,
      "ق": 281,
      "ل": 282,
      "م": 283,
      "ن": 284,
      "ँ": 285,
      "ं": 286,
      "ः": 287,
      "अ": 288,
      "आ": 289,
      "इ": 290,
      "ई": 291,
      "उ": 292,
      "ऊ": 293,
      "ऋ": 294,
      "ऌ": 295,
      "ऍ": 296,
      "ऎ": 297,
      "ए": 298,
      "ऐ": 299,
      "ऑ": 300,
      "ऒ": 301,
      "ओ": 302,
      "औ": 303,
      "क": 304,
      "ख": 305,
      "ग": 306,
      "घ": 307,
      "ङ": 308,
      "च": 309,
      "छ": 310,
      "ज": 311,
      "झ": 312,
      "ञ": 313,
      "ट": 314,
      "ठ": 315,
      "ड": 316,
      "ढ": 317,
      "ण": 318,
      "त": 319,
      "थ": 320,
      "द": 321,
      "ध": 322,
      "न": 323,
      "प": 324,
      "फ": 325,
      "ब": 326,
      "भ": 327,
      "म": 328,
      "य": 329,
      "र": 330,
      "ल": 331,
      "ळ": 332,
      "व": 333,
      "श": 334,
      "ष": 335,
      "स": 336,
      "ह": 337,
      "़": 338,
      "ऽ": 339,
      "ा": 340,
      "ि": 341,
      "ी": 342,
      "ु": 343,
      "ू": 344,
      "ृ": 345,
      "ॄ": 346,
      "ॅ": 347,
      "ॆ": 348,
      "े": 349,
      "ै": 350,
      "ॉ": 351,
      "ॊ": 352,
      "ो": 353,
      "ौ": 354,
      "्": 355,
      "ॐ": 356,
      "॑": 357,
      "॒": 358,
      "॓": 359,
      "॔": 360,
      "क़": 361,
      "ज़": 362,
      "ड़": 363,
      "फ़": 364,
      "य़": 365,
      "ॠ": 366,
      "ॡ": 367,
      "ॣ": 368,
      "।": 369,
      "॥": 370,
      "०": 371,
      "१": 372,
      "२": 373,
      "३": 374,
      "४": 375,
      "५": 376,
      "६": 377,
      "७": 378,
      "८": 379,
      "९": 380,
      "॰": 381,
      "ক": 382,
      "চ": 383,
      "ঠ": 384,
      "থ": 385,
      "দ": 386,
      "ন": 387,
      "ব": 388,
      "ভ": 389,
      "র": 390,
      "ষ": 391,
      "স": 392,
      "া": 393,
      "ী": 394,
      "ু": 395,
      "্": 396,
      "પ": 397,
      "બ": 398,
      "ા": 399,
      "ુ": 400,
      "‍": 401,
      "‎": 402,
      "–": 403,
      "—": 404,
      "―": 405,
      "‘": 406,
      "’": 407,
      "“": 408,
      "”": 409,
      "„": 410,
      "†": 411,
      "‡": 412,
      "•": 413,
      "…": 414,
      "′": 415,
      "⁰": 416,
      "⁴": 417,
      "⁵": 418,
      "⁶": 419,
      "⁷": 420,
      "⁻": 421,
      "₀": 422,
      "₁": 423,
      "₂": 424,
      "€": 425,
      "₹": 426,
      "™": 427,
      "⅓": 428,
      "⅕": 429,
      "⅖": 430,
      "⅗": 431,
      "⅘": 432,
      "⅙": 433,
      "→": 434,
      "⇒": 435,
      "∂": 436,
      "−": 437,
      "∕": 438,
      "√": 439,
      "∞": 440,
      "∣": 441,
      "∨": 442,
      "≤": 443,
      "≥": 444,
      "⌈": 445,
      "⌉": 446,
      "⌊": 447,
      "⌋": 448,
      "⌘": 449,
      "⏎": 450,
      "─": 451,
      "■": 452,
      "☺": 453,
      "☻": 454,
      "♪": 455,
      "♫": 456,
      "➣": 457,
      "か": 458,
      "な": 459,
      "中": 460,
      "國": 461,
      "堀": 462,
      "字": 463,
      "漢": 464,
      "秦": 465,
      "设": 466,
      "": 467,
      "": 468,
      "￼": 469,
      "�": 470,
      "##ि": 471,
      "##म": 472,
      "##ल": 473,
      "##े": 474,
      "##ं": 475,
      "##द": 476,
      "##्": 477,
      "##र": 478,
      "##प": 479,
      "##ह": 480,
      "##त": 481,
      "##ा": 482,
      "##ष": 483,
      "##ट": 484,
      "##ी": 485,
      "##य": 486,
      "##क": 487,
      "##ख": 488,
      "##ए": 489,
      "##ँ": 490,
      "##D": 491,
      "##e": 492,
      "##s": 493,
      "##k": 494,
      "##t": 495,
      "##o": 496,
      "##p": 497,
      "##ऊ": 498,
      "##श": 499,
      "##ो": 500,
      "##ु": 501,
      "##ड": 502,
      "##ज": 503,
      "##़": 504,
      "##ृ": 505,
      "##न": 506,
      "##थ": 507,
      "##स": 508,
      "##ू": 509,
      "##M": 510,
      "##Y": 511,
      "##K": 512,
      "##व": 513,
      "##ब": 514,
      "##ण": 515,
      "##ः": 516,
      "##ै": 517,
      "##ग": 518,
      "##भ": 519,
      "##अ": 520,
      "##च": 521,
      "##4": 522,
      "##0": 523,
      "##5": 524,
      "##उ": 525,
      "##ध": 526,
      "##b": 527,
      "##j": 528,
      "##c": 529,
      "##ई": 530,
      "##7": 531,
      "##9": 532,
      "##g": 533,
      "##u": 534,
      "##a": 535,
      "##m": 536,
      "##l": 537,
      "##ङ": 538,
      "##r": 539,
      "##i": 540,
      "##y": 541,
      "##ढ": 542,
      "##ौ": 543,
      "##S": 544,
      "##P": 545,
      "##h": 546,
      "##1": 547,
      "##8": 548,
      "##3": 549,
      "##ठ": 550,
      "##ॉ": 551,
      "##d": 552,
      "##n": 553,
      "##आ": 554,
      "##छ": 555,
      "##इ": 556,
      "##C": 557,
      "##घ": 558,
      "##ॅ": 559,
      "##N": 560,
      "##फ": 561,
      "##f": 562,
      "##ञ": 563,
      "##2": 564,
      "##6": 565,
      "##T": 566,
      "##H": 567,
      "##A": 568,
      "##ओ": 569,
      "##-": 570,
      "##.": 571,
      "##Q": 572,
      "##R": 573,
      "##ऋ": 574,
      "##फ़": 575,
      "##U": 576,
      "##औ": 577,
      "##_": 578,
      "##w": 579,
      "##ॊ": 580,
      "##W": 581,
      "##õ": 582,
      "##ò": 583,
      "##É": 584,
      "##Æ": 585,
      "##Ê": 586,
      "##G": 587,
      "##!": 588,
      "##झ": 589,
      "##O": 590,
      "##v": 591,
      "##z": 592,
      "##Z": 593,
      "##:": 594,
      "##¯": 595,
      "##/": 596,
      "##I": 597,
      "##४": 598,
      "##१": 599,
      "##६": 600,
      "##३": 601,
      "##९": 602,
      "##ä": 603,
      "##Ž": 604,
      "##ú": 605,
      "##Ň": 606,
      "##?": 607,
      "##>": 608,
      "##̀": 609,
      "##¿": 610,
      "##L": 611,
      "##E": 612,
      "##ň": 613,
      "##x": 614,
      "##B": 615,
      "##q": 616,
      "##,": 617,
      "##F": 618,
      "##ऐ": 619,
      "##”": 620,
      "##ॆ": 621,
      "##७": 622,
      "##॔": 623,
      "##)": 624,
      "##'": 625,
      "##(": 626,
      "##": 627,
      "##५": 628,
      "##२": 629,
      "##": 630,
      "##०": 631,
      "##¾": 632,
      "##": 633,
      "##८": 634,
      "##;": 635,
      "##ऑ": 636,
      "##*": 637,
      "##]": 638,
      "##ા": 639,
      "##પ": 640,
      "##ુ": 641,
      "##": 642,
      "##%": 643,
      "##–": 644,
      "##֦": 645,
      "##।": 646,
      "###": 647,
      "##\"": 648,
      "##V": 649,
      "##ऎ": 650,
      "##ळ": 651,
      "##@": 652,
      "##X": 653,
      "##ऍ": 654,
      "##¨": 655,
      "##Ę": 656,
      "##…": 657,
      "##°": 658,
      "##": 659,
      "##<": 660,
      "##Т": 661,
      "##‘": 662,
      "##": 663,
      "##": 664,
      "##ऽ": 665,
      "##’": 666,
      "##ů": 667,
      "##í": 668,
      "##": 669,
      "##=": 670,
      "##Ş": 671,
      "##[": 672,
      "##¤": 673,
      "##Ч": 674,
      "##Ç": 675,
      "##\\": 676,
      "##ॄ": 677,
      "##®": 678,
      "##`": 679,
      "##‡": 680,
      "##$": 681,
      "##¡": 682,
      "##±": 683,
      "##²": 684,
      "##J": 685,
      "##ą": 686,
      "##": 687,
      "##̈": 688,
      "##": 689,
      "##¬": 690,
      "##}": 691,
      "##“": 692,
      "##": 693,
      "##~": 694,
      "##ʼ": 695,
      "##¥": 696,
      "##": 697,
      "##Ä": 698,
      "##": 699,
      "##": 700,
      "##Ĺ": 701,
      "##ऒ": 702,
      "##ŕ": 703,
      "##Ľ": 704,
      "##º": 705,
      "##॑": 706,
      "##ĺ": 707,
      "##": 708,
      "##«": 709,
      "##ˇ": 710,
      "##Ö": 711,
      "##Â": 712,
      "##ł": 713,
      "##é": 714,
      "##и": 715,
      "##§": 716,
      "##ó": 717,
      "##Ć": 718,
      "##£": 719,
      "##ş": 720,
      "##": 721,
      "##č": 722,
      "##¹": 723,
      "##⁰": 724,
      "##¦": 725,
      "##{": 726,
      "##—": 727,
      "##": 728,
      "##क़": 729,
      "##â": 730,
      "##‍": 731,
      "##è": 732,
      "##à": 733,
      "##¸": 734,
      "##ě": 735,
      "##": 736,
      "##॒": 737,
      "##ব": 738,
      "##ী": 739,
      "##ন": 740,
      "##্": 741,
      "##দ": 742,
      "##র": 743,
      "##া": 744,
      "##থ": 745,
      "##ɓ": 746,
      "##¶": 747,
      "##☻": 748,
      "##ś": 749,
      "##̊": 750,
      "##ř": 751,
      "##˙": 752,
      "##·": 753,
      "##Ţ": 754,
      "##Î": 755,
      "##š": 756,
      "##ţ": 757,
      "##́": 758,
      "##ő": 759,
      "##á": 760,
      "##©": 761,
      "##¼": 762,
      "##☺": 763,
      "##&": 764,
      "##॓": 765,
      "##‎": 766,
      "##Ó": 767,
      "##θ": 768,
      "##ώ": 769,
      "##�": 770,
      "##": 771,
      "##×": 772,
      "##÷": 773,
      "##ψ": 774,
      "##字": 775,
      "##ť": 776,
      "##ż": 777,
      "##ü": 778,
      "##˚": 779,
      "##Ă": 780,
      "##ক": 781,
      "##ু": 782,
      "##ভ": 783,
      "##ষ": 784,
      "##": 785,
      "##♫": 786,
      "##ऌ": 787,
      "##Ú": 788,
      "##^": 789,
      "##√": 790,
      "##": 791,
      "##′": 792,
      "##堀": 793,
      "##Ą": 794,
      "##স": 795,
      "##": 796,
      "##+": 797,
      "##ö": 798,
      "##ֹ": 799,
      "##ح": 800,
      "##ل": 801,
      "##π": 802,
      "##國": 803,
      "##य़": 804,
      "##ç": 805,
      "##إ": 806,
      "##س": 807,
      "##ا": 808,
      "##م": 809,
      "##♪": 810,
      "##": 811,
      "##̃": 812,
      "##ю": 813,
      "##": 814,
      "##": 815,
      "##": 816,
      "##∞": 817,
      "##−": 818,
      "##̧": 819,
      "##̄": 820,
      "##ड़": 821,
      "##": 822,
      "##Д": 823,
      "##Ě": 824,
      "##ॣ": 825,
      "##þ": 826,
      "##ñ": 827,
      "##¢": 828,
      "##ق": 829,
      "##ر": 830,
      "##آ": 831,
      "##ن": 832,
      "##ć": 833,
      "##ج": 834,
      "##ā": 835,
      "##ज़": 836,
      "##µ": 837,
      "##₹": 838,
      "##ж": 839,
      "##⌘": 840,
      "##": 841,
      "##な": 842,
      "##्र": 843,
      "##ार": 844,
      "के": 845,
      "है": 846,
      "##ें": 847,
      "##्य": 848,
      "##ों": 849,
      "में": 850,
      "##र्": 851,
      "##ान": 852,
      "##ता": 853,
      "प्र": 854,
      "##िय": 855,
      "की": 856,
      "##िक": 857,
      "##ने": 858,
      "कर": 859,
      "और": 860,
      "##्त": 861,
      "को": 862,
      "का": 863,
      "से": 864,
      "##ित": 865,
      "##ना": 866,
      "पर": 867,
      "##्व": 868,
      "कि": 869,
      "हो": 870,
      "वि": 871,
      "##ाल": 872,
      "##िया": 873,
      "सं": 874,
      "##िए": 875,
      "##्ष": 876,
      "इस": 877,
      "हैं": 878,
      "एक": 879,
      "##्ट": 880,
      "##ही": 881,
      "##ति": 882,
      "सम": 883,
      "##न्": 884,
      "जा": 885,
      "##ास": 886,
      "##ते": 887,
      "##ती": 888,
      "लिए": 889,
      "##ाय": 890,
      "##ाम": 891,
      "##के": 892,
      "##्थ": 893,
      "##ड़": 894,
      "नि": 895,
      "##ोग": 896,
      "##त्र": 897,
      "##से": 898,
      "अप": 899,
      "##हीं": 900,
      "##ां": 901,
      "यह": 902,
      "##ाह": 903,
      "##ाद": 904,
      "दे": 905,
      "##िल": 906,
      "नहीं": 907,
      "##क्ष": 908,
      "भी": 909,
      "अन": 910,
      "##सी": 911,
      "##ाज": 912,
      "जो": 913,
      "##री": 914,
      "##कार": 915,
      "ने": 916,
      "अध": 917,
      "या": 918,
      "##िस": 919,
      "##्या": 920,
      "##ष्ट": 921,
      "##नी": 922,
      "उस": 923,
      "##या": 924,
      "हम": 925,
      "##त्": 926,
      "किया": 927,
      "##का": 928,
      "करने": 929,
      "##था": 930,
      "##ाव": 931,
      "##क्त": 932,
      "रह": 933,
      "##ंग": 934,
      "कार": 935,
      "##िन": 936,
      "##ेश": 937,
      "##ारा": 938,
      "##कर": 939,
      "उन": 940,
      "सा": 941,
      "##ियों": 942,
      "उप": 943,
      "मु": 944,
      "##ले": 945,
      "तथा": 946,
      "ही": 947,
      "सक": 948,
      "##रा": 949,
      "##द्": 950,
      "##ाप": 951,
      "##की": 952,
      "था": 953,
      "हु": 954,
      "तो": 955,
      "##ूप": 956,
      "वह": 957,
      "##ाने": 958,
      "भार": 959,
      "##गा": 960,
      "ले": 961,
      "##वा": 962,
      "कु": 963,
      "आप": 964,
      "##ओं": 965,
      "##ूर्": 966,
      "##्प": 967,
      "##स्त": 968,
      "अनु": 969,
      "##ंद": 970,
      "##्री": 971,
      "सु": 972,
      "##सा": 973,
      "##ैं": 974,
      "##मा": 975,
      "द्व": 976,
      "गया": 977,
      "स्व": 978,
      "##ंध": 979,
      "##ला": 980,
      "##्च": 981,
      "##वि": 982,
      "स्थ": 983,
      "##ाग": 984,
      "अधिक": 985,
      "##ारी": 986,
      "##ंत": 987,
      "##न्ह": 988,
      "विश": 989,
      "किसी": 990,
      "रूप": 991,
      "रा": 992,
      "अपने": 993,
      "##्क": 994,
      "##रे": 995,
      "##्म": 996,
      "##द्ध": 997,
      "##ोज": 998,
      "वे": 999,
      "व्य": 1000,
      "##स्थ": 1001,
      "पह": 1002,
      "निर्": 1003,
      "द्वारा": 1004,
      "##ली": 1005,
      "##ात": 1006,
      "राज": 1007,
      "कार्य": 1008,
      "कह": 1009,
      "साथ": 1010,
      "##द्य": 1011,
      "वाल": 1012,
      "प्रति": 1013,
      "##ीन": 1014,
      "वर्": 1015,
      "जिस": 1016,
      "##भी": 1017,
      "##िर": 1018,
      "##िव": 1019,
      "##ुर": 1020,
      "##धार": 1021,
      "##ारे": 1022,
      "चाह": 1023,
      "मह": 1024,
      "##त्त": 1025,
      "उन्ह": 1026,
      "##ंड": 1027,
      "क्ष": 1028,
      "##योग": 1029,
      "##देश": 1030,
      "तक": 1031,
      "##में": 1032,
      "भारत": 1033,
      "##बंध": 1034,
      "##्ल": 1035,
      "कुछ": 1036,
      "मे": 1037,
      "राष्ट": 1038,
      "##ूल": 1039,
      "थे": 1040,
      "##ाना": 1041,
      "##ंत्र": 1042,
      "सह": 1043,
      "##रण": 1044,
      "जाता": 1045,
      "दो": 1046,
      "मैं": 1047,
      "बह": 1048,
      "##ुत": 1049,
      "##जी": 1050,
      "##क्ति": 1051,
      "##ढ़": 1052,
      "##म्": 1053,
      "साम": 1054,
      "थी": 1055,
      "##ाइ": 1056,
      "##क्र": 1057,
      "कोई": 1058,
      "##गी": 1059,
      "##दि": 1060,
      "सर": 1061,
      "##िख": 1062,
      "करना": 1063,
      "अव": 1064,
      "##न्द": 1065,
      "##गे": 1066,
      "होता": 1067,
      "जब": 1068,
      "लोग": 1069,
      "विक": 1070,
      "कम": 1071,
      "##नों": 1072,
      "जी": 1073,
      "##ृत": 1074,
      "दिया": 1075,
      "##ुल": 1076,
      "##ानी": 1077,
      "##चार": 1078,
      "##ूर": 1079,
      "##्स": 1080,
      "करें": 1081,
      "##्ञ": 1082,
      "##िश": 1083,
      "सी": 1084,
      "##न्न": 1085,
      "##्यों": 1086,
      "##ुन": 1087,
      "##ेत्र": 1088,
      "##ब्": 1089,
      "सकता": 1090,
      "##्रे": 1091,
      "रख": 1092,
      "मिल": 1093,
      "##्छ": 1094,
      "##कि": 1095,
      "इन": 1096,
      "##ूर्ण": 1097,
      "##िम": 1098,
      "##दा": 1099,
      "क्षेत्र": 1100,
      "##ाप्त": 1101,
      "समय": 1102,
      "करते": 1103,
      "##ाई": 1104,
      "##र्थ": 1105,
      "सू": 1106,
      "बी": 1107,
      "मान": 1108,
      "पू": 1109,
      "##च्च": 1110,
      "##ोक": 1111,
      "हुए": 1112,
      "जै": 1113,
      "19": 1114,
      "तर": 1115,
      "##िका": 1116,
      "##िप": 1117,
      "अपनी": 1118,
      "##मान": 1119,
      "करता": 1120,
      "तु": 1121,
      "उनके": 1122,
      "देख": 1123,
      "रहे": 1124,
      "##ीय": 1125,
      "##ाध": 1126,
      "##ंच": 1127,
      "राष्ट्र": 1128,
      "##ालय": 1129,
      "##कों": 1130,
      "##र्म": 1131,
      "रहा": 1132,
      "##ियम": 1133,
      "##त्य": 1134,
      "आव": 1135,
      "##भाव": 1136,
      "##ोट": 1137,
      "20": 1138,
      "अंत": 1139,
      "उत्": 1140,
      "##ोल": 1141,
      "सि": 1142,
      "##च्छ": 1143,
      "##ज़": 1144,
      "जाए": 1145,
      "##ेष": 1146,
      "देश": 1147,
      "सरकार": 1148,
      "##वन": 1149,
      "##ये": 1150,
      "अन्य": 1151,
      "बात": 1152,
      "अल": 1153,
      "संबंध": 1154,
      "##को": 1155,
      "बहुत": 1156,
      "##्ड": 1157,
      "बना": 1158,
      "सब": 1159,
      "##दान": 1160,
      "##ेल": 1161,
      "बाद": 1162,
      "##गर": 1163,
      "##ष्": 1164,
      "##स्": 1165,
      "विश्व": 1166,
      "वर्ष": 1167,
      "##ूस": 1168,
      "गु": 1169,
      "कहा": 1170,
      "##्रीय": 1171,
      "##चना": 1172,
      "##क्षा": 1173,
      "लग": 1174,
      "बन": 1175,
      "##िक्ष": 1176,
      "##ेद": 1177,
      "प्राप्त": 1178,
      "होने": 1179,
      "##िट": 1180,
      "उसके": 1181,
      "आय": 1182,
      "##ोंने": 1183,
      "##ाया": 1184,
      "##ूर्व": 1185,
      "##िये": 1186,
      "##र्श": 1187,
      "अभ": 1188,
      "दी": 1189,
      "##ज्ञ": 1190,
      "सभी": 1191,
      "##वाद": 1192,
      "##तीय": 1193,
      "चाहिए": 1194,
      "वाले": 1195,
      "##ौर": 1196,
      "##एं": 1197,
      "##ाँ": 1198,
      "##ड़ी": 1199,
      "##वं": 1200,
      "गई": 1201,
      "होती": 1202,
      "तरह": 1203,
      "क्या": 1204,
      "##करण": 1205,
      "##पति": 1206,
      "##र्व": 1207,
      "प्रकार": 1208,
      "##ड़े": 1209,
      "##श्य": 1210,
      "##गत": 1211,
      "विभ": 1212,
      "##धि": 1213,
      "उन्हें": 1214,
      "पा": 1215,
      "##ड़ा": 1216,
      "उसे": 1217,
      "सकते": 1218,
      "हुआ": 1219,
      "होगा": 1220,
      "##ंप": 1221,
      "उन्होंने": 1222,
      "##त्म": 1223,
      "पी": 1224,
      "##स्था": 1225,
      "राष्ट्रपति": 1226,
      "##द्योग": 1227,
      "जाने": 1228,
      "भारतीय": 1229,
      "विकास": 1230,
      "अस": 1231,
      "उत्प": 1232,
      "राज्य": 1233,
      "जान": 1234,
      "काम": 1235,
      "##दी": 1236,
      "लोगों": 1237,
      "न्य": 1238,
      "##जा": 1239,
      "एवं": 1240,
      "कारण": 1241,
      "पहले": 1242,
      "जन": 1243,
      "##िति": 1244,
      "##किन": 1245,
      "इसके": 1246,
      "हू": 1247,
      "क्र": 1248,
      "नी": 1249,
      "परि": 1250,
      "##ोजना": 1251,
      "मूल": 1252,
      "##ग्र": 1253,
      "##श्च": 1254,
      "##ोध": 1255,
      "नाम": 1256,
      "ऐसे": 1257,
      "##बर": 1258,
      "लेकिन": 1259,
      "गए": 1260,
      "पूर्व": 1261,
      "फ़": 1262,
      "##ाष": 1263,
      "##ुक्त": 1264,
      "दूस": 1265,
      "##्याप": 1266,
      "ला": 1267,
      "ये": 1268,
      "##पूर्ण": 1269,
      "भाग": 1270,
      "ग्र": 1271,
      "जि": 1272,
      "यदि": 1273,
      "व्यक्ति": 1274,
      "प्रश": 1275,
      "मुझ": 1276,
      "##र्त": 1277,
      "##रिक": 1278,
      "##िंग": 1279,
      "##माण": 1280,
      "##धान": 1281,
      "अनुस": 1282,
      "फिर": 1283,
      "##ेट": 1284,
      "##तर": 1285,
      "हमारे": 1286,
      "##ूम": 1287,
      "##ाली": 1288,
      "##ेक": 1289,
      "बढ़": 1290,
      "##जन": 1291,
      "##ियां": 1292,
      "पु": 1293,
      "परिव": 1294,
      "ऐसा": 1295,
      "चु": 1296,
      "##क्रम": 1297,
      "##तिक": 1298,
      "##नि": 1299,
      "प्रय": 1300,
      "##त्व": 1301,
      "##ास्त": 1302,
      "विशेष": 1303,
      "स्त": 1304,
      "##ून": 1305,
      "बि": 1306,
      "##ाक": 1307,
      "पै": 1308,
      "उनकी": 1309,
      "अब": 1310,
      "##ेज": 1311,
      "मुझे": 1312,
      "जाती": 1313,
      "समझ": 1314,
      "##ार्": 1315,
      "##न्त": 1316,
      "जह": 1317,
      "##वल": 1318,
      "मुख": 1319,
      "##ंट": 1320,
      "दिन": 1321,
      "##वर्": 1322,
      "##रों": 1323,
      "किए": 1324,
      "##on": 1325,
      "हि": 1326,
      "सद": 1327,
      "निक": 1328,
      "आर": 1329,
      "जीवन": 1330,
      "##ष्ठ": 1331,
      "ऐसी": 1332,
      "वै": 1333,
      "ओर": 1334,
      "शिक्ष": 1335,
      "##ंक": 1336,
      "##ील": 1337,
      "जैसे": 1338,
      "##िन्न": 1339,
      "चल": 1340,
      "बारे": 1341,
      "हुई": 1342,
      "##ोर": 1343,
      "##ूट": 1344,
      "##ुद्ध": 1345,
      "उपयोग": 1346,
      "आधार": 1347,
      "मन": 1348,
      "##फ़": 1349,
      "##दार": 1350,
      "रही": 1351,
      "होते": 1352,
      "##वी": 1353,
      "विचार": 1354,
      "बार": 1355,
      "##चित": 1356,
      "तुम": 1357,
      "सेवा": 1358,
      "##ुप": 1359,
      "पास": 1360,
      "क्यों": 1361,
      "##श्यक": 1362,
      "##ेत": 1363,
      "निय": 1364,
      "कृ": 1365,
      "##ची": 1366,
      "अथ": 1367,
      "बाह": 1368,
      "##द्र": 1369,
      "##00": 1370,
      "##ोप": 1371,
      "##िला": 1372,
      "लिख": 1373,
      "जिन": 1374,
      "##ाट": 1375,
      "##ेर": 1376,
      "न्याय": 1377,
      "आवश्यक": 1378,
      "उत्त": 1379,
      "बीच": 1380,
      "स्थान": 1381,
      "##ti": 1382,
      "केवल": 1383,
      "पार": 1384,
      "प्रदान": 1385,
      "प्रभाव": 1386,
      "अथवा": 1387,
      "प्रयोग": 1388,
      "##ंभ": 1389,
      "##ुक": 1390,
      "बद": 1391,
      "व्यव": 1392,
      "##सर": 1393,
      "##पर": 1394,
      "##ेय": 1395,
      "हों": 1396,
      "##्न": 1397,
      "##िता": 1398,
      "##कारी": 1399,
      "##ल्": 1400,
      "##प्र": 1401,
      "##क्षण": 1402,
      "##विध": 1403,
      "सहाय": 1404,
      "संस": 1405,
      "##me": 1406,
      "श्री": 1407,
      "##यन": 1408,
      "##फल": 1409,
      "दृ": 1410,
      "उत्पाद": 1411,
      "##ख्या": 1412,
      "अम": 1413,
      "##..": 1414,
      "सो": 1415,
      "##ंब": 1416,
      "निर्धार": 1417,
      "दिख": 1418,
      "##ताओं": 1419,
      "##शन": 1420,
      "##ाइल": 1421,
      "अपना": 1422,
      "##ृति": 1423,
      "मा": 1424,
      "##ताव": 1425,
      "##ज्ञान": 1426,
      "##र्ष": 1427,
      "अच्छ": 1428,
      "कै": 1429,
      "##दर्श": 1430,
      "उसकी": 1431,
      "##ोर्": 1432,
      "दोनों": 1433,
      "पुर": 1434,
      "आज": 1435,
      "दु": 1436,
      "कंप": 1437,
      "प्रत्य": 1438,
      "बे": 1439,
      "मौ": 1440,
      "वाली": 1441,
      "हर": 1442,
      "देने": 1443,
      "सर्व": 1444,
      "जिसमें": 1445,
      "अधिकार": 1446,
      "इसे": 1447,
      "##भव": 1448,
      "ब्र": 1449,
      "पहु": 1450,
      "धारा": 1451,
      "माम": 1452,
      "##भा": 1453,
      "योजना": 1454,
      "##ित्र": 1455,
      "201": 1456,
      "##खा": 1457,
      "स्प": 1458,
      "##ोष": 1459,
      "##ुट": 1460,
      "##लब्": 1461,
      "##ेम": 1462,
      "##ल्प": 1463,
      "अधिन": 1464,
      "जाना": 1465,
      "##त्ता": 1466,
      "राष्ट्रीय": 1467,
      "##ोह": 1468,
      "बैं": 1469,
      "भाष": 1470,
      "बल": 1471,
      "##ीक": 1472,
      "संप": 1473,
      "##यी": 1474,
      "उपलब्": 1475,
      "##tion": 1476,
      "तब": 1477,
      "हमें": 1478,
      "##चा": 1479,
      "##द्योगिक": 1480,
      "बै": 1481,
      "##एँ": 1482,
      "लिया": 1483,
      "##त्मक": 1484,
      "जर": 1485,
      "##an": 1486,
      "खु": 1487,
      "##ोड़": 1488,
      "अधिनियम": 1489,
      "व्याप": 1490,
      "##क्रिया": 1491,
      "##तः": 1492,
      "हूं": 1493,
      "##चे": 1494,
      "सामान": 1495,
      "सकती": 1496,
      "##डी": 1497,
      "##ब्द": 1498,
      "अगर": 1499,
      "##नेक": 1500,
      "करती": 1501,
      "विष": 1502,
      "##हार": 1503,
      "##व्य": 1504,
      "##ूत": 1505,
      "महत्व": 1506,
      "प्रस": 1507,
      "प्रण": 1508,
      "वस्त": 1509,
      "##ाब": 1510,
      "अध्य": 1511,
      "सबसे": 1512,
      "विर": 1513,
      "छोट": 1514,
      "शुर": 1515,
      "##मु": 1516,
      "उच्च": 1517,
      "लोक": 1518,
      "##मी": 1519,
      "##स्ट": 1520,
      "स्थाप": 1521,
      "##त्रा": 1522,
      "##लों": 1523,
      "शिक्षा": 1524,
      "वित": 1525,
      "अर्थ": 1526,
      "##ामी": 1527,
      "करे": 1528,
      "कभी": 1529,
      "pr": 1530,
      "बच्च": 1531,
      "##णी": 1532,
      "जाते": 1533,
      "प्रव": 1534,
      "निर": 1535,
      "##ाथ": 1536,
      "संग": 1537,
      "सूचना": 1538,
      "क्योंकि": 1539,
      "वृ": 1540,
      "उपलब्ध": 1541,
      "##दाय": 1542,
      "##ासन": 1543,
      "जहां": 1544,
      "स्ट": 1545,
      "##ांत": 1546,
      "स्थिति": 1547,
      "##ार्थ": 1548,
      "##ोड": 1549,
      "##्ता": 1550,
      "पुन": 1551,
      "##हर": 1552,
      "पत्र": 1553,
      "अधीन": 1554,
      "सदस": 1555,
      "तै": 1556,
      "निव": 1557,
      "होना": 1558,
      "वास्त": 1559,
      "दौर": 1560,
      "##बी": 1561,
      "##टी": 1562,
      "##ंतु": 1563,
      "शाम": 1564,
      "लगा": 1565,
      "विभिन्न": 1566,
      "##श्व": 1567,
      "##म्ह": 1568,
      "उठ": 1569,
      "##न्द्र": 1570,
      "योग": 1571,
      "इसल": 1572,
      "##न्ध": 1573,
      "उद्": 1574,
      "संस्थ": 1575,
      "पश्च": 1576,
      "##ंजी": 1577,
      "##र्क": 1578,
      "मै": 1579,
      "उनका": 1580,
      "केंद": 1581,
      "प्रक्रिया": 1582,
      "अंतर": 1583,
      "उसका": 1584,
      "तुम्ह": 1585,
      "##ाला": 1586,
      "सके": 1587,
      "अलग": 1588,
      "दूसरे": 1589,
      "उसने": 1590,
      "##काश": 1591,
      "अर्": 1592,
      "अंग": 1593,
      "##ंज": 1594,
      "सम्म": 1595,
      "##ारों": 1596,
      "##ame": 1597,
      "सहायता": 1598,
      "विव": 1599,
      "##ष्टि": 1600,
      "मुख्य": 1601,
      "##ानों": 1602,
      "##ित्व": 1603,
      "लाभ": 1604,
      "अति": 1605,
      "मध": 1606,
      "##ांग": 1607,
      "ज़": 1608,
      "##ेंगे": 1609,
      "घट": 1610,
      "इसलिए": 1611,
      "##es": 1612,
      "##ेन": 1613,
      "सुर": 1614,
      "भाव": 1615,
      "विषय": 1616,
      "लिये": 1617,
      "सामान्य": 1618,
      "वाला": 1619,
      "यु": 1620,
      "##तम": 1621,
      "##णा": 1622,
      "मूल्य": 1623,
      "भूम": 1624,
      "##ोजन": 1625,
      "##न्य": 1626,
      "लाग": 1627,
      "##ूह": 1628,
      "दर": 1629,
      "##क्": 1630,
      "##ादा": 1631,
      "##ाध्य": 1632,
      "##यार": 1633,
      "जाएगा": 1634,
      "ची": 1635,
      "शामिल": 1636,
      "दौरान": 1637,
      "कई": 1638,
      "ज्ञ": 1639,
      "200": 1640,
      "संबंधित": 1641,
      "आई": 1642,
      "##ण्ड": 1643,
      "##फी": 1644,
      "##्यान": 1645,
      "इसका": 1646,
      "उत्तर": 1647,
      "शब्द": 1648,
      "अनेक": 1649,
      "अनुसार": 1650,
      "भाषा": 1651,
      "पूर्ण": 1652,
      "##त्ति": 1653,
      "##ुष": 1654,
      "बदल": 1655,
      "दिल": 1656,
      "सम्": 1657,
      "वास्तव": 1658,
      "आपको": 1659,
      "##र्इ": 1660,
      "जल": 1661,
      "भर": 1662,
      "शक्ति": 1663,
      "मंत्र": 1664,
      "##रूप": 1665,
      "गां": 1666,
      "##तंत्र": 1667,
      "आध": 1668,
      "##्टर": 1669,
      "##er": 1670,
      "गये": 1671,
      "स्क": 1672,
      "##िज": 1673,
      "विद्य": 1674,
      "##पी": 1675,
      "वस्तु": 1676,
      "नियम": 1677,
      "हमारी": 1678,
      "दूर": 1679,
      "उद": 1680,
      "संख्या": 1681,
      "माल": 1682,
      "पता": 1683,
      "प्रौ": 1684,
      "##ावा": 1685,
      "कल": 1686,
      "निर्माण": 1687,
      "##धन": 1688,
      "जिसे": 1689,
      "सुन": 1690,
      "साह": 1691,
      "किस": 1692,
      "##शत": 1693,
      "तीन": 1694,
      "##मुख": 1695,
      "##तों": 1696,
      "संघ": 1697,
      "##यं": 1698,
      "##युक्त": 1699,
      "##शा": 1700,
      "##्टी": 1701,
      "##स्ताव": 1702,
      "अं": 1703,
      "पहुंच": 1704,
      "समु": 1705,
      "जु": 1706,
      "परिवर्त": 1707,
      "##काल": 1708,
      "उद्योग": 1709,
      "प्रक": 1710,
      "तैयार": 1711,
      "मेरे": 1712,
      "नई": 1713,
      "##गम": 1714,
      "देता": 1715,
      "##वान": 1716,
      "कान": 1717,
      "यहां": 1718,
      "बाहर": 1719,
      "पड़": 1720,
      "शुरू": 1721,
      "पृ": 1722,
      "##न्तु": 1723,
      "प्रयास": 1724,
      "खा": 1725,
      "##ांस": 1726,
      "रुप": 1727,
      "अग": 1728,
      "##िष्ट": 1729,
      "बैंक": 1730,
      "44": 1731,
      "आम": 1732,
      "कार्यक्रम": 1733,
      "बनाने": 1734,
      "वित्त": 1735,
      "समाज": 1736,
      "प्रतिशत": 1737,
      "अवसर": 1738,
      "स्तर": 1739,
      "आदि": 1740,
      "आर्थ": 1741,
      "##धिक": 1742,
      "##ोन": 1743,
      "इससे": 1744,
      "आपके": 1745,
      "##सल": 1746,
      "प्रौद्योगिक": 1747,
      "ख़": 1748,
      "पि": 1749,
      "होगी": 1750,
      "हाल": 1751,
      "प्रत्येक": 1752,
      "आर्थिक": 1753,
      "##ंस": 1754,
      "व्यक्त": 1755,
      "##बन्ध": 1756,
      "##al": 1757,
      "##ूद": 1758,
      "श्र": 1759,
      "##ॉल": 1760,
      "इत": 1761,
      "लेख": 1762,
      "मानव": 1763,
      "निर्धारित": 1764,
      "मध्य": 1765,
      "##ेड": 1766,
      "शी": 1767,
      "समस": 1768,
      "चि": 1769,
      "कर्म": 1770,
      "जनता": 1771,
      "##इट": 1772,
      "स्पष्ट": 1773,
      "##धी": 1774,
      "##दे": 1775,
      "महत्वपूर्ण": 1776,
      "बता": 1777,
      "समान": 1778,
      "आस": 1779,
      "बु": 1780,
      "जिसके": 1781,
      "##ेतु": 1782,
      "##ैन": 1783,
      "##ग्रह": 1784,
      "गयी": 1785,
      "##ेशन": 1786,
      "विदेश": 1787,
      "गति": 1788,
      "...": 1789,
      "प्रार": 1790,
      "हूँ": 1791,
      "परिण": 1792,
      "##ीकार": 1793,
      "माध्य": 1794,
      "##टर": 1795,
      "##ालन": 1796,
      "##जर": 1797,
      "मद": 1798,
      "सौ": 1799,
      "हेतु": 1800,
      "गुण": 1801,
      "करके": 1802,
      "रंग": 1803,
      "धर्म": 1804,
      "##एस": 1805,
      "##स्व": 1806,
      "ता": 1807,
      "आगे": 1808,
      "##क़": 1809,
      "##म्ब": 1810,
      "##ाण": 1811,
      "##क्षित": 1812,
      "रोग": 1813,
      "##्ले": 1814,
      "ध्यान": 1815,
      "##ायी": 1816,
      "##ीर": 1817,
      "प्रो": 1818,
      "##हास": 1819,
      "अंतर्": 1820,
      "धार": 1821,
      "##स्प": 1822,
      "क्षेत्रों": 1823,
      "कृष": 1824,
      "त्र": 1825,
      "मत": 1826,
      "इसी": 1827,
      "सार": 1828,
      "बिना": 1829,
      "पूरी": 1830,
      "संर": 1831,
      "घर": 1832,
      "इसमें": 1833,
      "समस्या": 1834,
      "वहां": 1835,
      "##वाल": 1836,
      "##ूरी": 1837,
      "ज्य": 1838,
      "विश्वास": 1839,
      "बैठ": 1840,
      "##ab": 1841,
      "ली": 1842,
      "##ार्ग": 1843,
      "##शि": 1844,
      "समूह": 1845,
      "प्रबंध": 1846,
      "##मिक": 1847,
      "##ee": 1848,
      "##ाधिक": 1849,
      "कवि": 1850,
      "स्वयं": 1851,
      "संक": 1852,
      "आया": 1853,
      "##ास्थ": 1854,
      "सूची": 1855,
      "ht": 1856,
      "मैंने": 1857,
      "देना": 1858,
      "''": 1859,
      "सिद्ध": 1860,
      "प्रकाश": 1861,
      "##तिहास": 1862,
      "प्रौद्योगिकी": 1863,
      "मज": 1864,
      "पक्ष": 1865,
      "##ाजिक": 1866,
      "न्यायालय": 1867,
      "##it": 1868,
      "फ़ाइल": 1869,
      "परिणाम": 1870,
      "बड़ी": 1871,
      "##िस्ट": 1872,
      "प्रमुख": 1873,
      "##तन": 1874,
      "ज्ञान": 1875,
      "पूरा": 1876,
      "हाथ": 1877,
      "18": 1878,
      "व्या": 1879,
      "जानकारी": 1880,
      "चुन": 1881,
      "जारी": 1882,
      "काफी": 1883,
      "##वादी": 1884,
      "##नीय": 1885,
      "उद्देश": 1886,
      "##ंह": 1887,
      "##ोस": 1888,
      "##ंदर": 1889,
      "##कर्": 1890,
      "नियंत्र": 1891,
      "सामाजिक": 1892,
      "##द्यालय": 1893,
      "कंपनी": 1894,
      "विभाग": 1895,
      "##मता": 1896,
      "##्ली": 1897,
      "##ुनिया": 1898,
      "##र्भ": 1899,
      "चाहते": 1900,
      "ऋण": 1901,
      "##मित": 1902,
      "आक": 1903,
      "सुधार": 1904,
      "##ेदन": 1905,
      "पुस्त": 1906,
      "¤¾": 1907,
      "10": 1908,
      "##धारा": 1909,
      "##द्धि": 1910,
      "एस": 1911,
      "नीति": 1912,
      "विस्त": 1913,
      "सहयोग": 1914,
      "संगठ": 1915,
      "##ंख": 1916,
      "##ोम": 1917,
      "भवन": 1918,
      "##्यता": 1919,
      "केंद्र": 1920,
      "##दिष्ट": 1921,
      "कोश": 1922,
      "कृषि": 1923,
      "##la": 1924,
      "अन्त": 1925,
      "##न्म": 1926,
      "स्वीकार": 1927,
      "सीमा": 1928,
      "फै": 1929,
      "सफल": 1930,
      "बाज": 1931,
      "मार": 1932,
      "वर्ग": 1933,
      "हमने": 1934,
      "##भग": 1935,
      "खंड": 1936,
      "माध्यम": 1937,
      "##ैर": 1938,
      "परिय": 1939,
      "पद": 1940,
      "मेरी": 1941,
      "सुविध": 1942,
      "शरी": 1943,
      "##्कि": 1944,
      "सभा": 1945,
      "##ियो": 1946,
      "##ासी": 1947,
      "##ांक": 1948,
      "प्रणाली": 1949,
      "कौ": 1950,
      "##ियन": 1951,
      "##्सा": 1952,
      "जिन्ह": 1953,
      "जग": 1954,
      "अनुम": 1955,
      "##ic": 1956,
      "लगभग": 1957,
      "परियोजना": 1958,
      "##भाष": 1959,
      "##विद्यालय": 1960,
      "गो": 1961,
      "छोड़": 1962,
      "शै": 1963,
      "ती": 1964,
      "##शी": 1965,
      "##आई": 1966,
      "बड़े": 1967,
      "यहाँ": 1968,
      "प्रस्त": 1969,
      "अभी": 1970,
      "दक्ष": 1971,
      "कठ": 1972,
      "विन": 1973,
      "व्यापार": 1974,
      "आवश्यकता": 1975,
      "##वर": 1976,
      "पिछ": 1977,
      "अत्य": 1978,
      "##दम": 1979,
      "विश्वविद्यालय": 1980,
      "हिंद": 1981,
      "ठीक": 1982,
      "##ोर्ट": 1983,
      "##ुम": 1984,
      "बल्कि": 1985,
      "पाठ": 1986,
      "निश्च": 1987,
      "निम्": 1988,
      "##ेयर": 1989,
      "उत्पादन": 1990,
      "##ेस": 1991,
      "विज्ञान": 1992,
      "निष": 1993,
      "संवि": 1994,
      "स्थापित": 1995,
      "समर्थ": 1996,
      "मी": 1997,
      "ऊपर": 1998,
      "जैसा": 1999,
      "हिस": 2000,
      "##साय": 2001,
      "¥": 2002,
      "##म्म": 2003,
      "देते": 2004,
      "जाये": 2005,
      "क़": 2006,
      "इसकी": 2007,
      "संदेश": 2008,
      "##क्स": 2009,
      "##्श": 2010,
      "##ान्त": 2011,
      "लड़": 2012,
      "निर्ण": 2013,
      "##शील": 2014,
      "कुल": 2015,
      "##त्स": 2016,
      "लागू": 2017,
      "##द्व": 2018,
      "व्यवस्था": 2019,
      "मामले": 2020,
      "विंड": 2021,
      "##चन": 2022,
      "सुरक्षा": 2023,
      "एन": 2024,
      "##in": 2025,
      "in": 2026,
      "चार": 2027,
      "##ादी": 2028,
      "देशों": 2029,
      "सही": 2030,
      "##बद्ध": 2031,
      "##ांति": 2032,
      "पढ़": 2033,
      "सुविधा": 2034,
      "स्": 2035,
      "मंद": 2036,
      "कॉ": 2037,
      "जिसका": 2038,
      "स्थित": 2039,
      "बिल": 2040,
      "##हत": 2041,
      "गण": 2042,
      "लक्ष": 2043,
      "सामने": 2044,
      "अवधि": 2045,
      "तरी": 2046,
      "बच": 2047,
      "निम्न": 2048,
      "रखने": 2049,
      "क्रिया": 2050,
      "काल": 2051,
      "कहते": 2052,
      "प्रदर्श": 2053,
      "¤": 2054,
      "दर्श": 2055,
      "शरीर": 2056,
      "प्रमाण": 2057,
      "परिवर्तन": 2058,
      "##्यूट": 2059,
      "हिन्द": 2060,
      "##टा": 2061,
      "##लेख": 2062,
      "साल": 2063,
      "##क्ट": 2064,
      "##ित्य": 2065,
      "नीचे": 2066,
      "विशिष्ट": 2067,
      "सत": 2068,
      "संस्था": 2069,
      "##्कृत": 2070,
      "डी": 2071,
      "डि": 2072,
      "उसी": 2073,
      "बस": 2074,
      "वेब": 2075,
      "विध": 2076,
      "परिस": 2077,
      "स्वतंत्र": 2078,
      "आने": 2079,
      "समाप्त": 2080,
      "सम्प": 2081,
      "##ोत": 2082,
      "आदेश": 2083,
      "¤°": 2084,
      "श्रे": 2085,
      "सदस्य": 2086,
      "बड़ा": 2087,
      "अर": 2088,
      "##ot": 2089,
      "मार्ग": 2090,
      "अंतर्गत": 2091,
      "##ीकरण": 2092,
      "उद्देश्य": 2093,
      "टी": 2094,
      "पानी": 2095,
      "राशि": 2096,
      "##्यू": 2097,
      "##ियाँ": 2098,
      "##ran": 2099,
      "अधिकारी": 2100,
      "उससे": 2101,
      "रखा": 2102,
      "##्रिय": 2103,
      "##त्मा": 2104,
      "क्षमता": 2105,
      "नाग": 2106,
      "सच": 2107,
      "जरूर": 2108,
      "डाल": 2109,
      "जिससे": 2110,
      "अपे": 2111,
      "परंतु": 2112,
      "भु": 2113,
      "देखा": 2114,
      "परी": 2115,
      "##तियों": 2116,
      "##ंधान": 2117,
      "12": 2118,
      "निर्णय": 2119,
      "आद": 2120,
      "##र्द": 2121,
      "यात्रा": 2122,
      "##ोब": 2123,
      "निवेश": 2124,
      "##gm": 2125,
      "रु": 2126,
      "पं": 2127,
      "kgm": 2128,
      "एक्स": 2129,
      "name": 2130,
      "जीव": 2131,
      "##र्स": 2132,
      "कोर्इ": 2133,
      "वर्त": 2134,
      "##गार": 2135,
      "##धारण": 2136,
      "अंग्रे": 2137,
      "##ृत्य": 2138,
      "वर्षों": 2139,
      "##ष्ण": 2140,
      "स्वास्थ": 2141,
      "उपधारा": 2142,
      "आन": 2143,
      "##वाह": 2144,
      "पश्चिम": 2145,
      "यही": 2146,
      "##चान": 2147,
      "पैदा": 2148,
      "मदद": 2149,
      "प्रस्तुत": 2150,
      "छोटे": 2151,
      "रे": 2152,
      "अनुसंधान": 2153,
      "##्रा": 2154,
      "संसद": 2155,
      "सम्बन्ध": 2156,
      "##क्षम": 2157,
      "गह": 2158,
      "महिला": 2159,
      "खोज": 2160,
      "##ूर्ति": 2161,
      "##ुओं": 2162,
      "पीछ": 2163,
      "अतिरिक": 2164,
      "##ेंट": 2165,
      "बच्चों": 2166,
      "अनुभव": 2167,
      "##थम": 2168,
      "प्रती": 2169,
      "##िश्च": 2170,
      "##ाहरण": 2171,
      "##िस्त": 2172,
      "प्रारंभ": 2173,
      "दृष्टि": 2174,
      "राम": 2175,
      "निर्धारण": 2176,
      "स्वास्थ्य": 2177,
      "##वाई": 2178,
      "##सित": 2179,
      "कट": 2180,
      "प्रेम": 2181,
      "##पाल": 2182,
      "जोड़": 2183,
      "लेने": 2184,
      "प्रशिक्ष": 2185,
      "जमा": 2186,
      "उदाहरण": 2187,
      "##र्ज": 2188,
      "ताकि": 2189,
      "दक्षि": 2190,
      "होंगे": 2191,
      "महान": 2192,
      "वर्तमान": 2193,
      "15": 2194,
      "##rans": 2195,
      "रहने": 2196,
      "थीं": 2197,
      "##पि": 2198,
      "राजनी": 2199,
      "भेज": 2200,
      "दिव": 2201,
      "##मत": 2202,
      "##जूद": 2203,
      "##ेप": 2204,
      "मिला": 2205,
      "ज्यादा": 2206,
      "बरा": 2207,
      "##ption": 2208,
      "इतिहास": 2209,
      "उद्य": 2210,
      "आरंभ": 2211,
      "युद्ध": 2212,
      "तौर": 2213,
      "दिश": 2214,
      "##ष्ट्रीय": 2215,
      "##or": 2216,
      "धन": 2217,
      "वी": 2218,
      "रचना": 2219,
      "मंदिर": 2220,
      "trans": 2221,
      "##षण": 2222,
      "##्ष्": 2223,
      "चौ": 2224,
      "##र्फ": 2225,
      "##भार": 2226,
      "बाल": 2227,
      "लगता": 2228,
      "11": 2229,
      "##ण्श": 2230,
      "ऊण्श": 2231,
      "##्छ्ष्": 2232,
      "ऊण्श्छ्ष्": 2233,
      "परन्तु": 2234,
      "##्रेस": 2235,
      "वर्ण": 2236,
      "transla": 2237,
      "विधि": 2238,
      "¥": 2239,
      "एम": 2240,
      "साहित्य": 2241,
      "संबंधी": 2242,
      "अच्छा": 2243,
      "##पत्र": 2244,
      "शिक": 2245,
      "##भर": 2246,
      "संद": 2247,
      "नए": 2248,
      "ट्र": 2249,
      "अतिरिक्त": 2250,
      "बंग": 2251,
      "पां": 2252,
      "##ँच": 2253,
      "घोष": 2254,
      "आकार": 2255,
      "पट": 2256,
      "रहते": 2257,
      "संच": 2258,
      "##ांश": 2259,
      "संस्थान": 2260,
      "कित": 2261,
      "संभव": 2262,
      "संत": 2263,
      "लेकर": 2264,
      "option": 2265,
      "गांधी": 2266,
      "##निर्": 2267,
      "अप्र": 2268,
      "##ाउ": 2269,
      "उत": 2270,
      "##यों": 2271,
      "वाप": 2272,
      "संसा": 2273,
      "घटना": 2274,
      "लंब": 2275,
      "चिक": 2276,
      "##ूं": 2277,
      "इस्त": 2278,
      "करेंगे": 2279,
      "##द्द": 2280,
      "##ाइन": 2281,
      "##हित": 2282,
      "प्रस्ताव": 2283,
      "कैसे": 2284,
      "विवरण": 2285,
      "##शल": 2286,
      "विदेशी": 2287,
      "नियंत्रण": 2288,
      "##ंगा": 2289,
      "आधारित": 2290,
      "##तिम": 2291,
      "कांग": 2292,
      "नही": 2293,
      "##बल": 2294,
      "##र्जी": 2295,
      "भू": 2296,
      "प्रधान": 2297,
      "वित्तीय": 2298,
      "##टन": 2299,
      "विकसित": 2300,
      "##नाथ": 2301,
      "##स्थित": 2302,
      "पेश": 2303,
      "दुनिया": 2304,
      "लाख": 2305,
      "उनमें": 2306,
      "##र्जा": 2307,
      "क्ल": 2308,
      "मुद्र": 2309,
      "तंत्र": 2310,
      "प्रग": 2311,
      "दिए": 2312,
      "दूसरी": 2313,
      "अच्छी": 2314,
      "भूमि": 2315,
      "सरकारी": 2316,
      "दिल्ली": 2317,
      "##वे": 2318,
      "करेगा": 2319,
      "प्राधिक": 2320,
      "चित्र": 2321,
      "पृष्ठ": 2322,
      "##वार": 2323,
      "याद": 2324,
      "##en": 2325,
      "बज": 2326,
      "ते": 2327,
      "किये": 2328,
      "विरोध": 2329,
      "चला": 2330,
      "जन्म": 2331,
      "बराबर": 2332,
      "सार्व": 2333,
      "प्रदेश": 2334,
      "संविधान": 2335,
      "दिशा": 2336,
      "199": 2337,
      "वृद्धि": 2338,
      "कला": 2339,
      "प्रथम": 2340,
      "मांग": 2341,
      "##ीद": 2342,
      "जगह": 2343,
      "दिखा": 2344,
      "संयुक्त": 2345,
      "उसमें": 2346,
      "प्रश्न": 2347,
      "##ly": 2348,
      "optional": 2349,
      "निर्देश": 2350,
      "गिर": 2351,
      "पुस्तक": 2352,
      "##कता": 2353,
      "##ग्री": 2354,
      "भावना": 2355,
      "इस्ल": 2356,
      "##कृत": 2357,
      "##ुस": 2358,
      "##र्ण": 2359,
      "##एम": 2360,
      "नौ": 2361,
      "##चल": 2362,
      "भिन्न": 2363,
      "स्थापना": 2364,
      "ना": 2365,
      "परिवार": 2366,
      "मात्रा": 2367,
      "अध्ययन": 2368,
      "रिप": 2369,
      "जाय": 2370,
      "##ानीय": 2371,
      "##डा": 2372,
      "भुगत": 2373,
      "खुल": 2374,
      "बाहरी": 2375,
      "उत्पन्न": 2376,
      "##ष्य": 2377,
      "##शोध": 2378,
      "सिंह": 2379,
      "खेल": 2380,
      "##ेह": 2381,
      "बंद": 2382,
      "रोक": 2383,
      "होकर": 2384,
      "##ोर्ड": 2385,
      "##्यात": 2386,
      "अंतिम": 2387,
      "##ोद": 2388,
      "##रल": 2389,
      "वा": 2390,
      "##le": 2391,
      "##्मिक": 2392,
      "##कर्ता": 2393,
      "लगे": 2394,
      "##साइट": 2395,
      "##िश्चित": 2396,
      "स्म": 2397,
      "नाट": 2398,
      "कमी": 2399,
      "##सं": 2400,
      "स्थानीय": 2401,
      "प्रगति": 2402,
      "##कल": 2403,
      "बनाया": 2404,
      "भूमिका": 2405,
      "##ोजित": 2406,
      "प्रकृति": 2407,
      "##ob": 2408,
      "वाय": 2409,
      "चिकित": 2410,
      "##ुदा": 2411,
      "##भूत": 2412,
      "##ity": 2413,
      "संभाव": 2414,
      "उल": 2415,
      "भीतर": 2416,
      "सोच": 2417,
      "##मार": 2418,
      "मिट": 2419,
      "##ॉन": 2420,
      "फिल": 2421,
      "सत्ता": 2422,
      "पुनः": 2423,
      "##िना": 2424,
      "##र्च": 2425,
      "बेह": 2426,
      "बाजार": 2427,
      "शासन": 2428,
      "do": 2429,
      "अग्र": 2430,
      "##ेमाल": 2431,
      "आत्म": 2432,
      "बा": 2433,
      "##पट": 2434,
      "भुगतान": 2435,
      "पौ": 2436,
      "पीछे": 2437,
      "उपबंध": 2438,
      "समिति": 2439,
      "अह": 2440,
      "##ाज़": 2441,
      "##ार्ड": 2442,
      "##ाज्य": 2443,
      "translation": 2444,
      "इस्तेमाल": 2445,
      "##र्ग": 2446,
      "विस्तार": 2447,
      "गल": 2448,
      "##ापन": 2449,
      "##त्त्व": 2450,
      "##लो": 2451,
      "विप": 2452,
      "अभि": 2453,
      "##ेंस": 2454,
      "त्रुट": 2455,
      "##िखित": 2456,
      "निर्यात": 2457,
      "रहता": 2458,
      "तकनी": 2459,
      "रोज": 2460,
      "##ायद": 2461,
      "##िले": 2462,
      "नया": 2463,
      "कहीं": 2464,
      "उपकरण": 2465,
      "ब्य": 2466,
      "##//": 2467,
      "##eed": 2468,
      "शु": 2469,
      "प्रशिक्षण": 2470,
      "##ुनिक": 2471,
      "##ाये": 2472,
      "जांच": 2473,
      "जबकि": 2474,
      "कांग्रेस": 2475,
      "ब्रिट": 2476,
      "सदस्यों": 2477,
      "##नाव": 2478,
      "नागरिक": 2479,
      "##्लाह": 2480,
      "पूंजी": 2481,
      "लक्ष्य": 2482,
      "सेट": 2483,
      "नव": 2484,
      "लौ": 2485,
      "मनुष": 2486,
      "बच्चे": 2487,
      "##ैंड": 2488,
      "दिनों": 2489,
      "need": 2490,
      "जरूरत": 2491,
      "##इन": 2492,
      "दक्षिण": 2493,
      "सल": 2494,
      "##म्प": 2495,
      "प्रा": 2496,
      "वेबसाइट": 2497,
      "आश": 2498,
      "not": 2499,
      "उल्": 2500,
      "##ar": 2501,
      "यू": 2502,
      "कानून": 2503,
      "हित": 2504,
      "प्रबंधन": 2505,
      "बो": 2506,
      "सत्य": 2507,
      "सक्रिय": 2508,
      "मुसल": 2509,
      "सिर्फ": 2510,
      "तहत": 2511,
      "निर्दिष्ट": 2512,
      "धी": 2513,
      "बर": 2514,
      "केन्द्र": 2515,
      "##ेरिका": 2516,
      "##स्कार": 2517,
      "##ीप": 2518,
      "पे": 2519,
      "मेरा": 2520,
      "##क्षर": 2521,
      "पिछले": 2522,
      "अपेक्षा": 2523,
      "सप": 2524,
      "चाहिये": 2525,
      "अमेरिका": 2526,
      "इंड": 2527,
      "://": 2528,
      "संगठन": 2529,
      "मित्र": 2530,
      "वास्तविक": 2531,
      "चीज": 2532,
      "##ज्ञानिक": 2533,
      "##्राम": 2534,
      "##हन": 2535,
      "वही": 2536,
      "##पूर्व": 2537,
      "##ड़ों": 2538,
      "मुसलमान": 2539,
      "##्रम": 2540,
      "##tp": 2541,
      "शा": 2542,
      "राजा": 2543,
      "माना": 2544,
      "¤¿": 2545,
      "तुल": 2546,
      "चाहता": 2547,
      "पिता": 2548,
      "प्ल": 2549,
      "किंतु": 2550,
      "अफ": 2551,
      "सहित": 2552,
      "##स्ता": 2553,
      "पूछ": 2554,
      "स्कूल": 2555,
      "खरी": 2556,
      "¤¸": 2557,
      "##ोक्ता": 2558,
      "निकल": 2559,
      "नेट": 2560,
      "मामलों": 2561,
      "prob": 2562,
      "##ably": 2563,
      "does": 2564,
      "मिश": 2565,
      "probably": 2566,
      "क्रम": 2567,
      "##ामीण": 2568,
      "उचित": 2569,
      "आधुनिक": 2570,
      "##स्ल": 2571,
      "ग्रामीण": 2572,
      "##ैतिक": 2573,
      "संके": 2574,
      "दें": 2575,
      "जाएगी": 2576,
      "भवि": 2577,
      "उल्लेख": 2578,
      "##ौती": 2579,
      "दाय": 2580,
      "कम्प": 2581,
      "##्याप्त": 2582,
      "ऊर्जा": 2583,
      "http": 2584,
      "##भू": 2585,
      "सेना": 2586,
      "प्रशासन": 2587,
      "सांस": 2588,
      "##पुर": 2589,
      "##कम": 2590,
      "बनाए": 2591,
      "सुनिश्चित": 2592,
      "निकाल": 2593,
      "चयन": 2594,
      "##वीं": 2595,
      "जम": 2596,
      "लिखा": 2597,
      "##City": 2598,
      "मंत्रालय": 2599,
      "##त्या": 2600,
      "देव": 2601,
      "##श्वर": 2602,
      "भविष्य": 2603,
      "##ेशा": 2604,
      "पहचान": 2605,
      "##ंथ": 2606,
      "##्यूटर": 2607,
      "संशोध": 2608,
      "मृत्य": 2609,
      "कप": 2610,
      "गुर": 2611,
      "रिपोर्ट": 2612,
      "खोल": 2613,
      "प्राय": 2614,
      "मर": 2615,
      "रू": 2616,
      "##न्यास": 2617,
      "उनसे": 2618,
      "##ैल": 2619,
      "अनुप": 2620,
      "##चर": 2621,
      "##धे": 2622,
      "समर्थन": 2623,
      "पहली": 2624,
      "विनिर्": 2625,
      "फल": 2626,
      "शायद": 2627,
      "मिले": 2628,
      "राज्यों": 2629,
      "##भाग": 2630,
      "राय": 2631,
      "अध्यक्ष": 2632,
      "##स्ति": 2633,
      "##ंसा": 2634,
      "##जनिक": 2635,
      "##पन": 2636,
      "##at": 2637,
      "त्रुटि": 2638,
      "##ुआ": 2639,
      "अल्लाह": 2640,
      "##िस्तान": 2641,
      "हमारा": 2642,
      "औद्योगिक": 2643,
      "सार्वजनिक": 2644,
      "##दार्थ": 2645,
      "##र्प": 2646,
      "सक्षम": 2647,
      "स्वतंत्रता": 2648,
      "##आर": 2649,
      "196": 2650,
      "इतना": 2651,
      "सम्मान": 2652,
      "##मंत्र": 2653,
      "##ात्मक": 2654,
      "मृत्यु": 2655,
      "मश": 2656,
      "ख़ुदा": 2657,
      "¤": 2658,
      "विधान": 2659,
      "कृप": 2660,
      "सन्": 2661,
      "पाया": 2662,
      "व्यक्तियों": 2663,
      "सां": 2664,
      "दस्ताव": 2665,
      "##बार": 2666,
      "प्रतिनि": 2667,
      "हमेशा": 2668,
      "मुखर्जी": 2669,
      "##ल्पना": 2670,
      "शीर्ष": 2671,
      "##िवार": 2672,
      "##त्साह": 2673,
      "अलावा": 2674,
      "ढंग": 2675,
      "##Name": 2676,
      "##क्रमण": 2677,
      "25": 2678,
      "जिन्हें": 2679,
      "अनुमति": 2680,
      "पदार्थ": 2681,
      "##रि": 2682,
      "निश्चित": 2683,
      "प्रवेश": 2684,
      "##वरी": 2685,
      "व्यापक": 2686,
      "सफलता": 2687,
      "गांव": 2688,
      "मही": 2689,
      "अर्था": 2690,
      "प्रतिक": 2691,
      "स्र": 2692,
      "##ान्व": 2693,
      "##ख़": 2694,
      "गैर": 2695,
      "पुल": 2696,
      "##ंबर": 2697,
      "दल": 2698,
      "चाहे": 2699,
      "##ारण": 2700,
      "देती": 2701,
      "योग्य": 2702,
      "व्यवहार": 2703,
      "##ज्": 2704,
      "¤¨": 2705,
      "##ायल": 2706,
      "##म्बर": 2707,
      "गी": 2708,
      "तुम्हें": 2709,
      "राजनीतिक": 2710,
      "उठा": 2711,
      "वार": 2712,
      "सारे": 2713,
      "##िको": 2714,
      "रस": 2715,
      "##व्यव": 2716,
      "##िथ": 2717,
      "##ृद": 2718,
      "मजब": 2719,
      "संरचना": 2720,
      "आवेदन": 2721,
      "प्रभावित": 2722,
      "##ुल्क": 2723,
      "तुम्हारे": 2724,
      "भौ": 2725,
      "मनुष्य": 2726,
      "प्राक": 2727,
      "उत्स": 2728,
      "आत": 2729,
      "उद्यम": 2730,
      "##डे": 2731,
      "##एल": 2732,
      "##ंटर": 2733,
      "##ंडल": 2734,
      "कार्यालय": 2735,
      "##ोल्ड": 2736,
      "पूरे": 2737,
      "##सम": 2738,
      "##ोलन": 2739,
      "सका": 2740,
      "अभिय": 2741,
      "बढ": 2742,
      "बाब": 2743,
      "निजी": 2744,
      "पहल": 2745,
      "केंद्रीय": 2746,
      "इस्लाम": 2747,
      "तत्व": 2748,
      "वैज्ञानिक": 2749,
      "मॉ": 2750,
      "##वर्क": 2751,
      "##००": 2752,
      "देखने": 2753,
      "कोशिश": 2754,
      "रो": 2755,
      "भग": 2756,
      "##म्भ": 2757,
      "194": 2758,
      "भे": 2759,
      "आत्मा": 2760,
      "करोड़": 2761,
      "जैसी": 2762,
      "छा": 2763,
      "वो": 2764,
      "मुक्त": 2765,
      "##गल": 2766,
      "##श्म": 2767,
      "वापस": 2768,
      "##राब": 2769,
      "प्रोत्साह": 2770,
      "सहायक": 2771,
      "पर्याप्त": 2772,
      "पांच": 2773,
      "##रोध": 2774,
      "बोर्ड": 2775,
      "##सिक": 2776,
      "अवस्था": 2777,
      "यूर": 2778,
      "##न्दर": 2779,
      "##्ला": 2780,
      "##च्छेद": 2781,
      "श्रेणी": 2782,
      "संपर्क": 2783,
      "सिद्धांत": 2784,
      "14": 2785,
      "शांति": 2786,
      "##र्चा": 2787,
      "संय": 2788,
      "विल": 2789,
      "लेखा": 2790,
      "रक्षा": 2791,
      "नदी": 2792,
      "विकल्प": 2793,
      "अपील": 2794,
      "##न्स": 2795,
      "##चक": 2796,
      "##ांड": 2797,
      "दब": 2798,
      "हैः": 2799,
      "##ूँ": 2800,
      "एज": 2801,
      "सामग्री": 2802,
      "शब्दों": 2803,
      "195": 2804,
      "संव": 2805,
      "पद्ध": 2806,
      "विज": 2807,
      "दश": 2808,
      "मास": 2809,
      "आए": 2810,
      "लि": 2811,
      "वहाँ": 2812,
      "प्राथ": 2813,
      "परिष": 2814,
      "दृष्ट": 2815,
      "बेहतर": 2816,
      "थो": 2817,
      "बुद्ध": 2818,
      "जिनमें": 2819,
      "बोल": 2820,
      "इच्छ": 2821,
      "पुरस्कार": 2822,
      "##घु": 2823,
      "##डियो": 2824,
      "प्राथमिक": 2825,
      "चाल": 2826,
      "निदेश": 2827,
      "डॉ": 2828,
      "##र्ड": 2829,
      "कीट": 2830,
      "सेवाओं": 2831,
      "एल": 2832,
      "खाद": 2833,
      "##कृ": 2834,
      "छोटी": 2835,
      "चुका": 2836,
      "संदर्भ": 2837,
      "साझ": 2838,
      "डाक": 2839,
      "करो": 2840,
      "##कीय": 2841,
      "डेट": 2842,
      "दिखाई": 2843,
      "गठ": 2844,
      "ऊंच": 2845,
      "रकम": 2846,
      "प्रणब": 2847,
      "##फ्ट": 2848,
      "इनमें": 2849,
      "रक्त": 2850,
      "आयु": 2851,
      "बंगाल": 2852,
      "धीरे": 2853,
      "##ैक": 2854,
      "##भीर": 2855,
      "),": 2856,
      "तारी": 2857,
      "##र्घ": 2858,
      "बने": 2859,
      "नम": 2860,
      "##ायत": 2861,
      "संग्रह": 2862,
      "केन्द": 2863,
      "nic": 2864,
      "पक": 2865,
      "पुरुष": 2866,
      "रखना": 2867,
      "सृ": 2868,
      "तरफ": 2869,
      "htm": 2870,
      "परिस्थ": 2871,
      "रेल": 2872,
      "युवा": 2873,
      "प्रकाशित": 2874,
      "##शिया": 2875,
      "##ोग्राम": 2876,
      "आंद": 2877,
      "संकेत": 2878,
      "लाल": 2879,
      "##ाधान": 2880,
      "इका": 2881,
      "16": 2882,
      "##st": 2883,
      "##िम्म": 2884,
      "##धा": 2885,
      "चर": 2886,
      "लॉ": 2887,
      "लागत": 2888,
      "13": 2889,
      "##ारोह": 2890,
      "##लिखित": 2891,
      "##ांकन": 2892,
      "कदम": 2893,
      "##प्त": 2894,
      "##र्न": 2895,
      "मशीन": 2896,
      "##र्ट": 2897,
      "रखते": 2898,
      "आतंक": 2899,
      "##िड": 2900,
      "##ंगे": 2901,
      "आपकी": 2902,
      "ईश्वर": 2903,
      "महा": 2904,
      "कृपया": 2905,
      "##ादन": 2906,
      "##ैनिक": 2907,
      "नेटवर्क": 2908,
      "देखते": 2909,
      "खो": 2910,
      "##ाचार": 2911,
      "पर्य": 2912,
      "योगदान": 2913,
      "##संद": 2914,
      "आयोग": 2915,
      "बताया": 2916,
      "समझौ": 2917,
      "##वर्ष": 2918,
      "प्राकृत": 2919,
      "##्याव": 2920,
      "उपाय": 2921,
      "समुदाय": 2922,
      "रहती": 2923,
      "विद्यार्थ": 2924,
      "यून": 2925,
      "मंत्री": 2926,
      "कविता": 2927,
      "जित": 2928,
      "निर्वा": 2929,
      "रिक": 2930,
      "शह": 2931,
      "जिसकी": 2932,
      "##्वेष": 2933,
      "बध": 2934,
      "प्रकट": 2935,
      "##्कृति": 2936,
      "##ानि": 2937,
      "कंप्यूटर": 2938,
      "अंक": 2939,
      "तेल": 2940,
      "विभाज": 2941,
      "##वत्ता": 2942,
      "##her": 2943,
      "अक": 2944,
      "अस्थ": 2945,
      "##खी": 2946,
      "प्रद": 2947,
      "पृथ": 2948,
      "¤²": 2949,
      "##चीन": 2950,
      "अनुच्छेद": 2951,
      "अच्छे": 2952,
      "197": 2953,
      "अभिव": 2954,
      "##तया": 2955,
      "##ृह": 2956,
      "निर्धारिती": 2957,
      "##मंत्री": 2958,
      "करा": 2959,
      "बहु": 2960,
      "ताल": 2961,
      "लघु": 2962,
      "जानते": 2963,
      "मुद्रा": 2964,
      "ब्रिटिश": 2965,
      "यूरोप": 2966,
      "ऑफ": 2967,
      "टै": 2968,
      "शहर": 2969,
      "गुणवत्ता": 2970,
      "खुलती": 2971,
      "सलाह": 2972,
      "##ड़क": 2973,
      "सर्वो": 2974,
      "हिस्सा": 2975,
      "भंड": 2976,
      "सकें": 2977,
      "विंडों": 2978,
      "विशाल": 2979,
      "धार्मिक": 2980,
      "##वाब": 2981,
      "निर्भर": 2982,
      "जहाँ": 2983,
      "##तार": 2984,
      "संगी": 2985,
      "##सू": 2986,
      "यद्य": 2987,
      "##फा": 2988,
      "फाइल": 2989,
      "खरीद": 2990,
      "000": 2991,
      "प्राकृतिक": 2992,
      "निधि": 2993,
      "##पूर्वक": 2994,
      "##जार": 2995,
      "समारोह": 2996,
      "संपत्ति": 2997,
      "##ितियों": 2998,
      "दू": 2999,
      "तीस": 3000,
      "वाद": 3001,
      "बधाई": 3002,
      "री": 3003,
      "##ंश": 3004,
      "##िकी": 3005,
      "यद्यपि": 3006,
      "जे": 3007,
      "पालन": 3008,
      "##वेयर": 3009,
      "तुलना": 3010,
      "संस्कृति": 3011,
      "दिवस": 3012,
      "##लन": 3013,
      "चीज़": 3014,
      "तथ": 3015,
      "##्वर": 3016,
      "यथ": 3017,
      "अपरा": 3018,
      "विविध": 3019,
      "पत": 3020,
      "##ृत्ति": 3021,
      "198": 3022,
      "विचारों": 3023,
      "ग्रह": 3024,
      "संभावना": 3025,
      "चर्चा": 3026,
      "जल्": 3027,
      "साधारण": 3028,
      "अत्यंत": 3029,
      "खाते": 3030,
      "चे": 3031,
      "##त्री": 3032,
      "गं": 3033,
      "सीमित": 3034,
      "पंजी": 3035,
      "आयात": 3036,
      "तरीके": 3037,
      "भोजन": 3038,
      "किन्तु": 3039,
      "मिलता": 3040,
      "मल": 3041,
      "अनुप्र": 3042,
      "##ेलन": 3043,
      "##िकोण": 3044,
      "हृद": 3045,
      "##ैस": 3046,
      "सूर": 3047,
      "##om": 3048,
      "जिसने": 3049,
      "दूसरा": 3050,
      "परिप": 3051,
      "मौजूद": 3052,
      "महत्त्व": 3053,
      "रि": 3054,
      "##se": 3055,
      "दस": 3056,
      "जाति": 3057,
      "खाता": 3058,
      "##भूति": 3059,
      "पड़े": 3060,
      "##वाले": 3061,
      "टे": 3062,
      "##दृ": 3063,
      "खिला": 3064,
      "##ागत": 3065,
      "अधिकांश": 3066,
      "30": 3067,
      "भारी": 3068,
      "आंदोलन": 3069,
      "##वर्ती": 3070,
      "चिकित्सा": 3071,
      "तारीख": 3072,
      "संस्थानों": 3073,
      "##जों": 3074,
      "निकट": 3075,
      "जरूरी": 3076,
      "खुद": 3077,
      "संघर्ष": 3078,
      "संसाधन": 3079,
      "केन्द्रीय": 3080,
      "पड़ा": 3081,
      "खास": 3082,
      "##ग्": 3083,
      "##मे": 3084,
      "##रीय": 3085,
      "##लाई": 3086,
      "ध्व": 3087,
      "विरुद्ध": 3088,
      "##भाल": 3089,
      "पुलिस": 3090,
      "##ोल्डर": 3091,
      "##ंतर": 3092,
      "गुना": 3093,
      "युग": 3094,
      "कौन": 3095,
      "अस्त": 3096,
      "आता": 3097,
      "पड़ता": 3098,
      "प्रसन्न": 3099,
      "आदमी": 3100,
      "निम्नलिखित": 3101,
      "अंग्रेजी": 3102,
      "लौट": 3103,
      "हस्ता": 3104,
      "आकर्ष": 3105,
      "लेते": 3106,
      "शर्त": 3107,
      "##ात्": 3108,
      "नेता": 3109,
      "##जित": 3110,
      "असम": 3111,
      "संगीत": 3112,
      "शुल्क": 3113,
      "निष्क": 3114,
      "उपभ": 3115,
      "गलत": 3116,
      "पंच": 3117,
      "##नेट": 3118,
      "##यर": 3119,
      "पाने": 3120,
      "दशा": 3121,
      "शता": 3122,
      "अनिवार": 3123,
      "##धनों": 3124,
      "##क्षेप": 3125,
      "पेट": 3126,
      "ªà": 3127,
      "सभ": 3128,
      "नये": 3129,
      "बौ": 3130,
      "गरी": 3131,
      "हट": 3132,
      "समाधान": 3133,
      "ब्याज": 3134,
      "संशोधन": 3135,
      "खर्च": 3136,
      "व्यक्तिगत": 3137,
      "गर्इ": 3138,
      "तत्": 3139,
      "##त्तर": 3140,
      "अंदर": 3141,
      "प्रदर्शन": 3142,
      "परीक्षा": 3143,
      "##ियर": 3144,
      "मिली": 3145,
      "##शाली": 3146,
      "अधिकारियों": 3147,
      "जिनके": 3148,
      "ग्राह": 3149,
      "##राष्ट्रीय": 3150,
      "आग": 3151,
      "आदर्श": 3152,
      "##टक": 3153,
      "अंश": 3154,
      "नर": 3155,
      "##मन": 3156,
      "आशा": 3157,
      "##िद्ध": 3158,
      "कानू": 3159,
      "मां": 3160,
      "आयोजित": 3161,
      "प्राचीन": 3162,
      "गतिविध": 3163,
      "करनी": 3164,
      "रात": 3165,
      "नोट": 3166,
      "##व्यवस्था": 3167,
      "##ंद्र": 3168,
      "##किंग": 3169,
      "निष्प": 3170,
      "चुके": 3171,
      "17": 3172,
      "दृश्य": 3173,
      "बनाना": 3174,
      "वस्तुओं": 3175,
      "इजर": 3176,
      "सिर": 3177,
      "शुभ": 3178,
      "सच्च": 3179,
      "तम": 3180,
      "आपका": 3181,
      "##िस्क": 3182,
      "छोटा": 3183,
      "मोट": 3184,
      "मुस्ल": 3185,
      "आते": 3186,
      "##र्य": 3187,
      "व्याव": 3188,
      "कुंजी": 3189,
      "##एफ": 3190,
      "##त्न": 3191,
      "सुरक्षित": 3192,
      "लाइ": 3193,
      "##निक": 3194,
      "##चारी": 3195,
      "डेटा": 3196,
      "मुस्लिम": 3197,
      "अनिवार्य": 3198,
      "##न्हीं": 3199,
      "परंप": 3200,
      "उनको": 3201,
      "##ब्दी": 3202,
      "भा": 3203,
      "##ताब": 3204,
      "बीमा": 3205,
      "##ुस्त": 3206,
      "वर्णन": 3207,
      "पद्धति": 3208,
      "##टल": 3209,
      "##ार्म": 3210,
      "कठिन": 3211,
      "गंभीर": 3212,
      "नगर": 3213,
      "##िनी": 3214,
      "असफल": 3215,
      "संरक्षण": 3216,
      "नाटक": 3217,
      "छात्र": 3218,
      "हृदय": 3219,
      "सर्": 3220,
      "लेना": 3221,
      "अर्थव्यवस्था": 3222,
      "दृष्टिकोण": 3223,
      "##स्वरूप": 3224,
      "कोशिका": 3225,
      "दायित्व": 3226,
      "तट": 3227,
      "समृ": 3228,
      "ii": 3229,
      "##क्ष्म": 3230,
      "जोर": 3231,
      "##तक": 3232,
      "##ावधान": 3233,
      "मेल": 3234,
      "इल": 3235,
      "ईसा": 3236,
      "शक्त": 3237,
      "प्रभावी": 3238,
      "अनुक": 3239,
      "पर्व": 3240,
      "##जात": 3241,
      "##चि": 3242,
      "##et": 3243,
      "पाक": 3244,
      "अल्प": 3245,
      "शाखा": 3246,
      "##ीकृत": 3247,
      "उपयुक्त": 3248,
      "विवाह": 3249,
      "तेजी": 3250,
      "कहना": 3251,
      "¤®": 3252,
      "विंडो": 3253,
      "##ायक": 3254,
      "गा": 3255,
      "समझा": 3256,
      "##फ्त": 3257,
      "चुनाव": 3258,
      "##ोषण": 3259,
      "जवाब": 3260,
      "##ूक": 3261,
      "विद्व": 3262,
      "इच्छा": 3263,
      "100": 3264,
      "##्शन": 3265,
      "लगी": 3266,
      "कार्र": 3267,
      "परंपरा": 3268,
      "इं": 3269,
      "##वास": 3270,
      "व्यय": 3271,
      "##स्करण": 3272,
      "हे": 3273,
      "एच": 3274,
      "##ट्ट": 3275,
      "हास": 3276,
      "निगम": 3277,
      "कार्यों": 3278,
      "संस्कृत": 3279,
      "भाई": 3280,
      "##nt": 3281,
      "किन": 3282,
      "उपस्थित": 3283,
      "##कालीन": 3284,
      "प्राण": 3285,
      "प्रोग्राम": 3286,
      "सर्वर": 3287,
      "घोषणा": 3288,
      "स्वरूप": 3289,
      "इजरायल": 3290,
      "ईमान": 3291,
      "##ताल": 3292,
      "लगाया": 3293,
      "सम्मेलन": 3294,
      "एशिया": 3295,
      "##्से": 3296,
      "##ादि": 3297,
      "##ून्य": 3298,
      "लाने": 3299,
      "अद": 3300,
      "कहानी": 3301,
      "भगवान": 3302,
      "मगर": 3303,
      "व्यवसाय": 3304,
      "जिम्म": 3305,
      "मोह": 3306,
      "##ाजी": 3307,
      "जिन्होंने": 3308,
      "##्रिया": 3309,
      "##गु": 3310,
      "आपने": 3311,
      "##्रेड": 3312,
      "अप्रैल": 3313,
      "बां": 3314,
      "रास": 3315,
      "मजबूत": 3316,
      "तय": 3317,
      "##ृत्त": 3318,
      "¥": 3319,
      "##he": 3320,
      "##il": 3321,
      "विवाद": 3322,
      "शास्त": 3323,
      "##ग्न": 3324,
      "##िटी": 3325,
      "pres": 3326,
      "नवान": 3327,
      "##ou": 3328,
      "##ालित": 3329,
      "##चारियों": 3330,
      "##्यावरण": 3331,
      "दौ": 3332,
      "##हीन": 3333,
      "अगले": 3334,
      "पश": 3335,
      "वन": 3336,
      "शेष": 3337,
      "सिस्ट": 3338,
      "##घ्र": 3339,
      "उन्न": 3340,
      "##ाजा": 3341,
      "कर्": 3342,
      "परिषद": 3343,
      "फ्र": 3344,
      "बढ़ा": 3345,
      "नवान्वेष": 3346,
      "वाताव": 3347,
      "50": 3348,
      "पहा": 3349,
      "तकनीकी": 3350,
      "भौतिक": 3351,
      "साफ": 3352,
      "##स्ती": 3353,
      "एफ": 3354,
      "##काम": 3355,
      "##र्तन": 3356,
      "वार्ष": 3357,
      "##मेंट": 3358,
      "अनुप्रयोग": 3359,
      "महिलाओं": 3360,
      "अभिव्य": 3361,
      "##व्र": 3362,
      "रहना": 3363,
      "मार्च": 3364,
      "वातावरण": 3365,
      "अनुसू": 3366,
      "प्रत्यक्ष": 3367,
      "¤¤": 3368,
      "पश्चिमी": 3369,
      "डर": 3370,
      "स्वर": 3371,
      "समुद्र": 3372,
      "स्रोत": 3373,
      "सरल": 3374,
      "दोष": 3375,
      "##ितीय": 3376,
      "पर्यावरण": 3377,
      "पार्टी": 3378,
      "##खंड": 3379,
      "समन": 3380,
      "मिलने": 3381,
      "शिकायत": 3382,
      "जिला": 3383,
      "पसंद": 3384,
      "##स्क": 3385,
      "##ोजनों": 3386,
      "वेतन": 3387,
      "सॉ": 3388,
      "##जली": 3389,
      "हल": 3390,
      "ग्राम": 3391,
      "शून्य": 3392,
      "ज़र": 3393,
      "बैठक": 3394,
      "बाव": 3395,
      "##पे": 3396,
      "उपन्यास": 3397,
      "##्ठ": 3398,
      "१९": 3399,
      "##डिया": 3400,
      "इंटर": 3401,
      "चेत": 3402,
      "##वाही": 3403,
      "महाम": 3404,
      "##ेदार": 3405,
      "परिच": 3406,
      "##्राष्ट्रीय": 3407,
      "चरण": 3408,
      "मानसिक": 3409,
      "पहुँच": 3410,
      "दर्शन": 3411,
      "तर्क": 3412,
      "कार्यान्व": 3413,
      "अपराध": 3414,
      "शेयर": 3415,
      "सूक्ष्म": 3416,
      "##डर": 3417,
      "महस": 3418,
      "इंज": 3419,
      "##बा": 3420,
      "बनी": 3421,
      "##लू": 3422,
      "संचार": 3423,
      "अरब": 3424,
      "##ियत": 3425,
      "पंजा": 3426,
      "अंतरराष्ट्रीय": 3427,
      "##्कृतिक": 3428,
      "##सन": 3429,
      "##ia": 3430,
      "बंध": 3431,
      "##जरा": 3432,
      "##नाएं": 3433,
      "##इयों": 3434,
      "विनिर्दिष्ट": 3435,
      "अतः": 3436,
      "खाद्य": 3437,
      "ढां": 3438,
      "सफ": 3439,
      "पहला": 3440,
      "प्राप्ति": 3441,
      "अश": 3442,
      "सम्मिल": 3443,
      "चुनें": 3444,
      "द्र": 3445,
      "पेज": 3446,
      "कर्मचारियों": 3447,
      "'%": 3448,
      "##उट": 3449,
      "##न्त्र": 3450,
      "##ीश": 3451,
      "शताब्दी": 3452,
      "दस्तावेज": 3453,
      "सश": 3454,
      "राजन": 3455,
      "प्रे": 3456,
      "प्रेर": 3457,
      "24": 3458,
      "पश्चात्": 3459,
      "संकल्प": 3460,
      "रोजगार": 3461,
      "चम": 3462,
      "जंग": 3463,
      "मक": 3464,
      "सित": 3465,
      "संपूर्ण": 3466,
      "प्रतिष्ठ": 3467,
      "प्रतिनिध": 3468,
      "सिस्टम": 3469,
      "मात्र": 3470,
      "अंड": 3471,
      "##्यात्म": 3472,
      "दा": 3473,
      "##जह": 3474,
      "##ापित": 3475,
      "इन्ह": 3476,
      "निर्मित": 3477,
      "बिक": 3478,
      "घंट": 3479,
      "महसूस": 3480,
      "पथ": 3481,
      "सीख": 3482,
      "खत": 3483,
      "ड्र": 3484,
      "पात्र": 3485,
      "उम": 3486,
      "दिये": 3487,
      "छवि": 3488,
      "राह": 3489,
      "##ॉप": 3490,
      "मू": 3491,
      "रज": 3492,
      "आब": 3493,
      "सांस्कृतिक": 3494,
      "विमान": 3495,
      "उपचार": 3496,
      "सारी": 3497,
      "##ूदा": 3498,
      "परीक्षण": 3499,
      "##क्टर": 3500,
      "सामना": 3501,
      "इतनी": 3502,
      "बौद्ध": 3503,
      "नियमों": 3504,
      "प्रधानमंत्री": 3505,
      "##भाषा": 3506,
      "##िक्स": 3507,
      "##लब": 3508,
      "स्थायी": 3509,
      "कथ": 3510,
      "उम्म": 3511,
      "वर": 3512,
      "##ंगी": 3513,
      "हिम": 3514,
      "##मय": 3515,
      "लेखक": 3516,
      "वायु": 3517,
      "आये": 3518,
      "सदन": 3519,
      "##रिया": 3520,
      "सुना": 3521,
      "आँ": 3522,
      "माह": 3523,
      "आयुक्त": 3524,
      "टन": 3525,
      "##क्ट्र": 3526,
      "बढ़ाने": 3527,
      "प्य": 3528,
      "##ृत्व": 3529,
      "आंत": 3530,
      "##क्षक": 3531,
      "निरंतर": 3532,
      "2014": 3533,
      "शैली": 3534,
      "खे": 3535,
      "प्रयासों": 3536,
      "समस्याओं": 3537,
      "##ाफ": 3538,
      "रखे": 3539,
      "कीमत": 3540,
      "अस्प": 3541,
      "सिक": 3542,
      "शीघ्र": 3543,
      "सै": 3544,
      "लें": 3545,
      "##तु": 3546,
      "##ारक": 3547,
      "अनुमान": 3548,
      "2015": 3549,
      "##यान": 3550,
      "प्रयोजनों": 3551,
      "##बे": 3552,
      "समक्ष": 3553,
      "##ांकि": 3554,
      "फ़ोल्डर": 3555,
      "नियमित": 3556,
      "##स्य": 3557,
      "प्रवि": 3558,
      "प्रभार": 3559,
      "कथा": 3560,
      "अनुवाद": 3561,
      "वैश्व": 3562,
      "आती": 3563,
      "कल्पना": 3564,
      "सात": 3565,
      "शास": 3566,
      "##ादित": 3567,
      "विस्तृत": 3568,
      "महीने": 3569,
      "डाट": 3570,
      "डिज": 3571,
      "शुद्ध": 3572,
      "##ोरी": 3573,
      "कार्रवाई": 3574,
      "सकेगा": 3575,
      "मुसलमानों": 3576,
      "##्ताह": 3577,
      "##ीदारी": 3578,
      "सवाल": 3579,
      "इत्य": 3580,
      "लक्षण": 3581,
      "क्षेत्रीय": 3582,
      "मॉड": 3583,
      "अनुकूल": 3584,
      "काट": 3585,
      "सिव": 3586,
      "ग्रहण": 3587,
      "काव्य": 3588,
      "##लाइन": 3589,
      "पो": 3590,
      "फी": 3591,
      "हालांकि": 3592,
      "वाह": 3593,
      "जल्दी": 3594,
      "##िमा": 3595,
      "मुक": 3596,
      "अधिकतम": 3597,
      "माँ": 3598,
      "##शय": 3599,
      "##--": 3600,
      "बावजूद": 3601,
      "बेट": 3602,
      "##स्थिति": 3603,
      "ब्रह": 3604,
      "उल्ल": 3605,
      "##िब": 3606,
      "##ड्ड": 3607,
      "सम्मिलित": 3608,
      "डे": 3609,
      "अभिप": 3610,
      "##ह्न": 3611,
      "##राई": 3612,
      "रुपये": 3613,
      "लो": 3614,
      "चले": 3615,
      "माता": 3616,
      "वार्षिक": 3617,
      "साम्र": 3618,
      "आंक": 3619,
      "##ंबई": 3620,
      "193": 3621,
      "शुभकाम": 3622,
      "इत्यादि": 3623,
      "##वाला": 3624,
      "##कारों": 3625,
      "सुंदर": 3626,
      "##मारी": 3627,
      "##धानी": 3628,
      "प्रदर्शित": 3629,
      "##uk": 3630,
      "उम्मीद": 3631,
      "तुर": 3632,
      "पल": 3633,
      "होनी": 3634,
      "बिजली": 3635,
      "##णों": 3636,
      "पाए": 3637,
      "विद्युत": 3638,
      "समाचार": 3639,
      "मि": 3640,
      "##ायें": 3641,
      "आध्यात्म": 3642,
      "प्रमाणपत्र": 3643,
      "शिव": 3644,
      "नेत": 3645,
      "##रेट": 3646,
      "##ज्ञात": 3647,
      "##त्नी": 3648,
      "##दिक": 3649,
      "जाएँ": 3650,
      "फ़िल": 3651,
      "##मल": 3652,
      "सुझ": 3653,
      "##क़्त": 3654,
      "##ॉँ": 3655,
      "समर्प": 3656,
      "##्रीन": 3657,
      "अफ्री": 3658,
      "नार": 3659,
      "##कट": 3660,
      "भ्र": 3661,
      "##दूर": 3662,
      "जिनका": 3663,
      "हिंदू": 3664,
      "¤": 3665,
      "आइ": 3666,
      "कनेक": 3667,
      "प्रतीक": 3668,
      "प्रायः": 3669,
      "फसल": 3670,
      "बढ़ावा": 3671,
      "फर": 3672,
      "##टिल": 3673,
      "दिखाएँ": 3674,
      "##िकल": 3675,
      "नामक": 3676,
      "23": 3677,
      "मौज": 3678,
      "वालों": 3679,
      "हिन्दू": 3680,
      "समन्व": 3681,
      "##तौर": 3682,
      "##ष्क": 3683,
      "निश्चय": 3684,
      "21": 3685,
      "पत्त": 3686,
      "हानि": 3687,
      "हस्त": 3688,
      "विश्ले": 3689,
      "##भूम": 3690,
      "चेतना": 3691,
      "जानी": 3692,
      "समस्त": 3693,
      "##ंगत": 3694,
      "##ाधीश": 3695,
      "अत्यधिक": 3696,
      "फूल": 3697,
      "##ब्ल": 3698,
      "##ांतर": 3699,
      "निर्वाचन": 3700,
      "आध्यात्मिक": 3701,
      "रेड": 3702,
      "संस्थाओं": 3703,
      "विद्यार्थियों": 3704,
      "पत्नी": 3705,
      "##ज़र": 3706,
      "प्रसन्नता": 3707,
      "कटौती": 3708,
      "वाण": 3709,
      "##्ब": 3710,
      "बातों": 3711,
      "प्रतिक्रिया": 3712,
      "##कृष्ट": 3713,
      "##नल": 3714,
      "मिलती": 3715,
      "बिक्री": 3716,
      "जायेगा": 3717,
      "टाइ": 3718,
      "अर्थात्": 3719,
      "बैंकों": 3720,
      "पाल": 3721,
      "##ंघ": 3722,
      "##वक": 3723,
      "परम": 3724,
      "प्रयोजन": 3725,
      "संगण": 3726,
      "¥": 3727,
      "तभी": 3728,
      "कल्या": 3729,
      "लगाने": 3730,
      "##ेदारी": 3731,
      "वक्त": 3732,
      "##शाला": 3733,
      "html": 3734,
      "##नाम": 3735,
      "पुराने": 3736,
      "कोड": 3737,
      "चलता": 3738,
      "पाठ्य": 3739,
      "नजर": 3740,
      "##ूब": 3741,
      "करार": 3742,
      "शुभकामनाएं": 3743,
      "अमे": 3744,
      "कंपन": 3745,
      "##्याग": 3746,
      "जाँच": 3747,
      "पराम": 3748,
      "महत्त्वपूर्ण": 3749,
      "सीधे": 3750,
      "अस्तित्व": 3751,
      "गतिविधियों": 3752,
      "##्वी": 3753,
      "स्वामी": 3754,
      "मूल्यांकन": 3755,
      "प्ले": 3756,
      "बुनिया": 3757,
      "वाक": 3758,
      "हवा": 3759,
      "संब": 3760,
      "खुशी": 3761,
      "इंडिया": 3762,
      "दंड": 3763,
      "##ैव": 3764,
      "##id": 3765,
      "re": 3766,
      "प्रयुक्त": 3767,
      "कर्मचारी": 3768,
      "किताब": 3769,
      "##ादेश": 3770,
      "स्वागत": 3771,
      "डिस्क": 3772,
      "दावा": 3773,
      "##हा": 3774,
      "¤¯": 3775,
      "तार": 3776,
      "बातें": 3777,
      "हिन्दी": 3778,
      "##ुसार": 3779,
      "कराने": 3780,
      "इनके": 3781,
      "वाणिज": 3782,
      "चै": 3783,
      "लोकतंत्र": 3784,
      "##पु": 3785,
      "प्रभ": 3786,
      "पाकिस्तान": 3787,
      "प्रसिद्ध": 3788,
      "वितरण": 3789,
      "दीर्घ": 3790,
      "pran": 3791,
      "##muk": 3792,
      "22": 3793,
      "इंग": 3794,
      "मौसम": 3795,
      "##तियां": 3796,
      "क्षति": 3797,
      "परामर्श": 3798,
      "धर": 3799,
      "##दों": 3800,
      "##jee": 3801,
      "##abmuk": 3802,
      "##herjee": 3803,
      "pranabmuk": 3804,
      "pranabmukherjee": 3805,
      "कूट": 3806,
      "##वें": 3807,
      "मानते": 3808,
      "##रान": 3809,
      "##ूंगा": 3810,
      "प्रोट": 3811,
      "prh": 3812,
      "अनुमोद": 3813,
      ")।": 3814,
      "नक": 3815,
      "तीव्र": 3816,
      "नेतृत्व": 3817,
      "भेजा": 3818,
      "शि": 3819,
      "हस्ताक्षर": 3820,
      "##लेज": 3821,
      "कलक": 3822,
      "##राज्य": 3823,
      "##ोने": 3824,
      "चुकी": 3825,
      "##हिम": 3826,
      "##भूमि": 3827,
      "प्रावधान": 3828,
      "रखें": 3829,
      "वजह": 3830,
      "##प्रिय": 3831,
      "इकाई": 3832,
      "प्रचार": 3833,
      "##ृंख": 3834,
      "आतंकवाद": 3835,
      "मंड": 3836,
      "बन्द": 3837,
      "##ol": 3838,
      "साधन": 3839,
      "जानता": 3840,
      "भागों": 3841,
      "न्यायाधीश": 3842,
      "निपट": 3843,
      "स्त्र": 3844,
      "वाणिज्य": 3845,
      "26": 3846,
      "इले": 3847,
      "घरे": 3848,
      "##सत": 3849,
      "मतलब": 3850,
      "सत्र": 3851,
      "नियुक्त": 3852,
      "##रित": 3853,
      "कानूनी": 3854,
      "हासिल": 3855,
      "घाट": 3856,
      "समाव": 3857,
      "रखी": 3858,
      "परिस्थितियों": 3859,
      "कठिना": 3860,
      "अवि": 3861,
      "##सान": 3862,
      "##वाधिक": 3863,
      "##ind": 3864,
      "31": 3865,
      "##तिहासिक": 3866,
      "कल्याण": 3867,
      "प्रेरित": 3868,
      "##ent": 3869,
      "देखभाल": 3870,
      "दुर्": 3871,
      "बाग": 3872,
      "युक्त": 3873,
      "सुख": 3874,
      "##वाली": 3875,
      "मान्यता": 3876,
      "विधेय": 3877,
      "नैतिक": 3878,
      "उत्कृष्ट": 3879,
      "नष्ट": 3880,
      "बुल": 3881,
      "जनवरी": 3882,
      "सप्ताह": 3883,
      "ग़": 3884,
      "##ंका": 3885,
      "लेता": 3886,
      "##श्मीर": 3887,
      "प्रोत्साहन": 3888,
      "##इड": 3889,
      "श्व": 3890,
      "##क्षिक": 3891,
      "कुशल": 3892,
      "##ment": 3893,
      "तरीका": 3894,
      "गृह": 3895,
      "जैव": 3896,
      "न्यून": 3897,
      "विफल": 3898,
      "घरेलू": 3899,
      "रखता": 3900,
      "बनाई": 3901,
      "उड़": 3902,
      "मो": 3903,
      "स्थानों": 3904,
      "कार्यक्रमों": 3905,
      "##te": 3906,
      "##मात्र": 3907,
      "##ाता": 3908,
      "स्थल": 3909,
      "192": 3910,
      "फैल": 3911,
      "अमेरिक": 3912,
      "चारों": 3913,
      "##रो": 3914,
      "आवास": 3915,
      "इन्हें": 3916,
      "##पुट": 3917,
      "मिश्र": 3918,
      "अक्ष": 3919,
      "##चित्र": 3920,
      "आनंद": 3921,
      "##फ्टवेयर": 3922,
      "):": 3923,
      "मुश": 3924,
      "##स्तिष्क": 3925,
      "आंतरिक": 3926,
      "जून": 3927,
      "जोख": 3928,
      "नेहर": 3929,
      "विषयों": 3930,
      "##ृंखला": 3931,
      "चिह्न": 3932,
      "महामहिम": 3933,
      "अंतर्राष्ट्रीय": 3934,
      "अध्याय": 3935,
      "वीडियो": 3936,
      "अना": 3937,
      "अंतरण": 3938,
      "अमरी": 3939,
      "गर्म": 3940,
      "##बि": 3941,
      "पुत्र": 3942,
      "##ंता": 3943,
      "सैनिक": 3944,
      "##रत": 3945,
      "कारबार": 3946,
      "##ानु": 3947,
      "प्रच": 3948,
      "गुजरा": 3949,
      "##जनक": 3950,
      "बीज": 3951,
      "इंजीन": 3952,
      "28": 3953,
      "कृत": 3954,
      "अवश्य": 3955,
      "संसार": 3956,
      "इलेक्ट्र": 3957,
      "आक्रमण": 3958,
      "तेज": 3959,
      "बीमारी": 3960,
      "उत्तरदाय": 3961,
      "स्पष्टीकरण": 3962,
      "##ुस्तान": 3963,
      "##स्पर": 3964,
      "चलते": 3965,
      "मिशन": 3966,
      "कोल": 3967,
      "जोखिम": 3968,
      "अख": 3969,
      "ग्रंथ": 3970,
      "मौजूदा": 3971,
      "ऑन": 3972,
      "संबंधों": 3973,
      "अधिकारों": 3974,
      "2013": 3975,
      "मंच": 3976,
      "सचिव": 3977,
      "दिस": 3978,
      "दूध": 3979,
      "हटा": 3980,
      "उच्चतम": 3981,
      "भूल": 3982,
      "संसाधनों": 3983,
      "आरोप": 3984,
      "##तें": 3985,
      "कार्ड": 3986,
      "##गो": 3987,
      "स्वच्छ": 3988,
      "##ंकर": 3989,
      "संवर्": 3990,
      "##ठी": 3991,
      "##ढ़ी": 3992,
      "प्रसार": 3993,
      "विनियम": 3994,
      "वैश्विक": 3995,
      "##ष्ट्र": 3996,
      "कौशल": 3997,
      "राजनैतिक": 3998,
      "ऐतिहासिक": 3999,
      "##लग्न": 4000,
      "दर्ज": 4001,
      "##ec": 4002,
      "फिल्म": 4003,
      "##जीव": 4004,
      "छोड़कर": 4005,
      "लेन": 4006,
      "##ज्ञा": 4007,
      "प्रवाह": 4008,
      "स्मृति": 4009,
      "##धर": 4010,
      "##्रय": 4011,
      "##नाश": 4012,
      "गणराज्य": 4013,
      "##जे": 4014,
      "##ायण": 4015,
      "स्थिर": 4016,
      "##चलित": 4017,
      "2016": 4018,
      "स्वा": 4019,
      "##ाइट": 4020,
      "उपयोगी": 4021,
      "किस्म": 4022,
      "परस्पर": 4023,
      "अधिस": 4024,
      "विशेषज्ञ": 4025,
      "रेखा": 4026,
      "गुरु": 4027,
      "मिलकर": 4028,
      "मानक": 4029,
      "बनने": 4030,
      "सेवाएं": 4031,
      "गीत": 4032,
      "##ase": 4033,
      "##रीत": 4034,
      "किसानों": 4035,
      "बुनियादी": 4036,
      "हथ": 4037,
      "जनसं": 4038,
      "पश्चात": 4039,
      "शिश": 4040,
      "साव": 4041,
      "करी": 4042,
      "अन्तर्": 4043,
      "##र्ती": 4044,
      "काग": 4045,
      "##ूष": 4046,
      "पूर्ववर्ष": 4047,
      "तथ्य": 4048,
      "मंज": 4049,
      "जमीन": 4050,
      "##ावल": 4051,
      "रसूल": 4052,
      "मुह": 4053,
      "वैसे": 4054,
      "लगातार": 4055,
      "श्रम": 4056,
      "आख": 4057,
      "##कारात्मक": 4058,
      "शारी": 4059,
      "औष": 4060,
      "काय": 4061,
      "##कुल": 4062,
      "देखें": 4063,
      "विद्यमान": 4064,
      "##कलाप": 4065,
      "न्यू": 4066,
      "संचालन": 4067,
      "एकता": 4068,
      "विशेषता": 4069,
      "भाषण": 4070,
      "##is": 4071,
      "##स्थान": 4072,
      "आठ": 4073,
      "आश्च": 4074,
      "मना": 4075,
      "उद्योगों": 4076,
      "आसान": 4077,
      "सूर्य": 4078,
      "अके": 4079,
      "आउट": 4080,
      "कर्त": 4081,
      "बर्": 4082,
      "विपरीत": 4083,
      "माइ": 4084,
      "हजार": 4085,
      "पारित": 4086,
      "उम्र": 4087,
      "¤¹": 4088,
      "##न्द्रनाथ": 4089,
      "##ंटी": 4090,
      "चीन": 4091,
      "दूरी": 4092,
      "2000": 4093,
      "खिलाफ": 4094,
      "##ोथ": 4095,
      "##घाट": 4096,
      "समी": 4097,
      "उपबंधों": 4098,
      "चक्र": 4099,
      "मस्तिष्क": 4100,
      "सिख": 4101,
      "देगा": 4102,
      "बाध": 4103,
      "##एन": 4104,
      "पकड़": 4105,
      "27": 4106,
      "चढ़": 4107,
      "नयी": 4108,
      "##न्ना": 4109,
      "लिखने": 4110,
      "विरोधी": 4111,
      "छूट": 4112,
      "##जल": 4113,
      "सौंप": 4114,
      "कलकत्ता": 4115,
      "गोप": 4116,
      "त्याग": 4117,
      "कमज": 4118,
      "शुरुआ": 4119,
      "क्लिक": 4120,
      "जटिल": 4121,
      "झु": 4122,
      "त्व": 4123,
      "##ियल": 4124,
      "अधि": 4125,
      "बदलाव": 4126,
      "अफ्रीका": 4127,
      "आश्चर्य": 4128,
      "##ीदार": 4129,
      "सहकारी": 4130,
      "##िप्प": 4131,
      "मालूम": 4132,
      "शारीरिक": 4133,
      "##ोव": 4134,
      "द्वीप": 4135,
      "पूजा": 4136,
      "##ेक्ट": 4137,
      "निवास": 4138,
      "प्रयत्न": 4139,
      "##कालिक": 4140,
      "अदाल": 4141,
      "अंध": 4142,
      "आंख": 4143,
      "उत्पादों": 4144,
      "जुड़े": 4145,
      "हिंदी": 4146,
      "न्यूनतम": 4147,
      "फ्ल": 4148,
      "बत": 4149,
      "##el": 4150,
      "दवा": 4151,
      "##ित्त": 4152,
      "संस्करण": 4153,
      "अगस्त": 4154,
      "##चीत": 4155,
      "मई": 4156,
      "प्रि": 4157,
      "किर": 4158,
      "एड": 4159,
      "##शनल": 4160,
      "नागरिकों": 4161,
      "आपूर्ति": 4162,
      "कार्यवाही": 4163,
      "नेहरू": 4164,
      "ब्ल": 4165,
      "इतने": 4166,
      "प्रेरण": 4167,
      "खी": 4168,
      "कृष्ण": 4169,
      "##िलेख": 4170,
      "निदेशक": 4171,
      "ताक": 4172,
      "नुक": 4173,
      "मस": 4174,
      "##पान": 4175,
      "निश": 4176,
      "अभियान": 4177,
      "बू": 4178,
      "बातचीत": 4179,
      "गठन": 4180,
      "the": 4181,
      "मोड": 4182,
      "गुप्त": 4183,
      "##ाइड": 4184,
      "साम्राज्य": 4185,
      "माप": 4186,
      "##हरा": 4187,
      "छह": 4188,
      "रास्त": 4189,
      "विजय": 4190,
      "निहित": 4191,
      "शाह": 4192,
      "##करी": 4193,
      "निरी": 4194,
      "विशेषकर": 4195,
      "आकाश": 4196,
      "##दर्शन": 4197,
      "अद्य": 4198,
      "गैस": 4199,
      "सुल": 4200,
      "बेच": 4201,
      "सर्वे": 4202,
      "##क्सर": 4203,
      "शोध": 4204,
      "परमाण": 4205,
      "जेल": 4206,
      "##ूबर": 4207,
      "##ियोग": 4208,
      "##िकता": 4209,
      "महार": 4210,
      "पंजाब": 4211,
      "##ायर": 4212,
      "##स्त्र": 4213,
      "##्किल": 4214,
      "स्ना": 4215,
      "संकट": 4216,
      "जाएं": 4217,
      "अन्दर": 4218,
      "##्फ": 4219,
      "##दाता": 4220,
      "वीर": 4221,
      "उपय": 4222,
      "आनन्द": 4223,
      "--": 4224,
      "कक्ष": 4225,
      "##िद": 4226,
      "सहेज": 4227,
      "कठोर": 4228,
      "##साधारण": 4229,
      "अस्व": 4230,
      "घोषित": 4231,
      "अधिसू": 4232,
      "प्रेष": 4233,
      "##ंदा": 4234,
      "दृढ़": 4235,
      "##ाएँ": 4236,
      "साध": 4237,
      "##गण": 4238,
      "##न्ट": 4239,
      "साक्ष": 4240,
      "मूल्यों": 4241,
      "प्राधिकारी": 4242,
      "सृजन": 4243,
      "विभाजन": 4244,
      "##पा": 4245,
      "##ुता": 4246,
      "##्कुल": 4247,
      "खुश": 4248,
      "लोकप्रिय": 4249,
      "##ur": 4250,
      "तथापि": 4251,
      "अभिलेख": 4252,
      "पूर्वी": 4253,
      "मिस": 4254,
      "हिस्से": 4255,
      "##सायिक": 4256,
      "सम्बन्धी": 4257,
      "स्त्री": 4258,
      "प्रतीत": 4259,
      "सर्वोच्च": 4260,
      "अभिव्यक्ति": 4261,
      "२००": 4262,
      "##01": 4263,
      "आस्ति": 4264,
      "##दारी": 4265,
      "संगठनों": 4266,
      "यथा": 4267,
      "पृथ्वी": 4268,
      "देखकर": 4269,
      "विधेयक": 4270,
      "##ेंशन": 4271,
      "संवाद": 4272,
      "धारण": 4273,
      "व्याख्या": 4274,
      "लॉग": 4275,
      "सुझाव": 4276,
      "जनसंख्या": 4277,
      "छिप": 4278,
      "भागीदारी": 4279,
      "बिंद": 4280,
      "पत्थ": 4281,
      "अभिप्रे": 4282,
      "खाने": 4283,
      "बुद्धि": 4284,
      "तमिल": 4285,
      "विश्लेषण": 4286,
      "शैक्षिक": 4287,
      "अनुरूप": 4288,
      "##वित्र": 4289,
      "नोड": 4290,
      "अक्सर": 4291,
      "सर्वाधिक": 4292,
      "उसको": 4293,
      ":-": 4294,
      "##टना": 4295,
      "##ौल": 4296,
      "आलो": 4297,
      "चैन": 4298,
      "##लीय": 4299,
      "अनुपात": 4300,
      "नियत": 4301,
      "करेगी": 4302,
      "अर्थात": 4303,
      "ताप": 4304,
      "मांस": 4305,
      "##ेज़": 4306,
      "लिखी": 4307,
      "हैंः": 4308,
      "लिखित": 4309,
      "मिन": 4310,
      "एकत्र": 4311,
      "##ियार": 4312,
      "आह": 4313,
      "बिल्कुल": 4314,
      "दशक": 4315,
      "##टे": 4316,
      "अवस": 4317,
      "मीटर": 4318,
      "##क्षेत्र": 4319,
      "उधार": 4320,
      "सिल": 4321,
      "आरम्भ": 4322,
      "गर्": 4323,
      "मछ": 4324,
      "प्रतिनिधित्व": 4325,
      "40": 4326,
      "##्ह": 4327,
      "रहेगा": 4328,
      "चलो": 4329,
      "खुले": 4330,
      "80": 4331,
      "##कर्ताओं": 4332,
      "परियोजनाओं": 4333,
      "##ारिश": 4334,
      "सरकारों": 4335,
      "पौध": 4336,
      "समझौता": 4337,
      "सॉफ्टवेयर": 4338,
      "##त्तम": 4339,
      "कब": 4340,
      "##सि": 4341,
      "##ce": 4342,
      "सुब": 4343,
      "##िपि": 4344,
      "तू": 4345,
      "शिख": 4346,
      "##शास्त": 4347,
      "संलग्न": 4348,
      "मीडिया": 4349,
      "खेती": 4350,
      "प्रत": 4351,
      "राजनीति": 4352,
      "##मर": 4353,
      "##िकाओं": 4354,
      "कितना": 4355,
      "डाटा": 4356,
      "पाई": 4357,
      "##पास": 4358,
      "##ग़": 4359,
      "निरा": 4360,
      "यंत्र": 4361,
      "लोड": 4362,
      "एकल": 4363,
      "##केट": 4364,
      "आवाज": 4365,
      "##ail": 4366,
      "टिप्प": 4367,
      "##खे": 4368,
      "साइ": 4369,
      "सर्वेक्षण": 4370,
      "रुपए": 4371,
      "##ुरी": 4372,
      "प्रतिभा": 4373,
      "वर्षा": 4374,
      "पढ़ने": 4375,
      "गरीब": 4376,
      "गौर": 4377,
      "##-#": 4378,
      "चुनौती": 4379,
      "##ाधीन": 4380,
      "स्की": 4381,
      "##िप्त": 4382,
      "परमाणु": 4383,
      "अवै": 4384,
      "उपभोक्ता": 4385,
      "##नात्मक": 4386,
      "देर": 4387,
      "सुविधाओं": 4388,
      "भेद": 4389,
      "सदा": 4390,
      "देय": 4391,
      "कहने": 4392,
      "नवान्वेषण": 4393,
      "मुश्किल": 4394,
      "##lease": 4395,
      "पाठ्यक्रम": 4396,
      "तिर": 4397,
      "बदले": 4398,
      "रब": 4399,
      "सरदार": 4400,
      "अधिकतर": 4401,
      "परिणामस्वरूप": 4402,
      "अमेरिकी": 4403,
      "खाली": 4404,
      "मालिक": 4405,
      "पंक्ति": 4406,
      "शिकार": 4407,
      "उत्साह": 4408,
      "बाबत": 4409,
      "मिट्टी": 4410,
      "बॉ": 4411,
      "बचा": 4412,
      "देकर": 4413,
      "जितना": 4414,
      "संविदा": 4415,
      "टुक": 4416,
      "##गोल": 4417,
      "##ादक": 4418,
      "लाइन": 4419,
      "पैर": 4420,
      "35": 4421,
      "आयोजन": 4422,
      "फैस": 4423,
      "छुट": 4424,
      "अद्यतन": 4425,
      "##म्स": 4426,
      "अभिप्रेत": 4427,
      "अभाव": 4428,
      "##क्व": 4429,
      "समग्र": 4430,
      "कितनी": 4431,
      "गोल": 4432,
      "फॉ": 4433,
      "हार": 4434,
      "##क्षीय": 4435,
      "स्क्रीन": 4436,
      "सशक्त": 4437,
      "परिवहन": 4438,
      "##श्त": 4439,
      "##ुक्ति": 4440,
      "##ज़ी": 4441,
      "##नन": 4442,
      "##ड़ियों": 4443,
      "##राक": 4444,
      "मूर्": 4445,
      "निकाय": 4446,
      "आग्रह": 4447,
      "जर्म": 4448,
      "पति": 4449,
      "पवित्र": 4450,
      "परेश": 4451,
      "मौल": 4452,
      "परिवर्तित": 4453,
      "निः": 4454,
      "पंजीकरण": 4455,
      "नेताओं": 4456,
      "##रक": 4457,
      "चिंता": 4458,
      "ग्राहक": 4459,
      "शुरुआत": 4460,
      "इन्": 4461,
      "औसत": 4462,
      "##ंव": 4463,
      "प्रार्थ": 4464,
      "साब": 4465,
      "पट्टी": 4466,
      "विम": 4467,
      "जरिए": 4468,
      "सूत्र": 4469,
      "बजाय": 4470,
      "अक्षम": 4471,
      "सड़क": 4472,
      "##घात": 4473,
      "आमतौर": 4474,
      "आसानी": 4475,
      "##चारिक": 4476,
      "सिफ": 4477,
      "##दर": 4478,
      "मुद्द": 4479,
      "##ूद्ध": 4480,
      "व्यावसायिक": 4481,
      "अभ्य": 4482,
      "बाह्य": 4483,
      "।\"": 4484,
      "##of": 4485,
      "##...": 4486,
      "विश्वविद्यालयों": 4487,
      "रास्ता": 4488,
      "##िमय": 4489,
      "ब्राह": 4490,
      "शीर्षक": 4491,
      "शक्तियों": 4492,
      "()": 4493,
      "##ॉक": 4494,
      "किलो": 4495,
      "समाप्ति": 4496,
      "जाकर": 4497,
      "देवी": 4498,
      "सदैव": 4499,
      "मामला": 4500,
      "तुम्हारी": 4501,
      "चयनित": 4502,
      "दूसरों": 4503,
      "गाय": 4504,
      "दुख": 4505,
      "अपेक्षित": 4506,
      "भाषाओं": 4507,
      "कश्मीर": 4508,
      "देंगे": 4509,
      "रवी": 4510,
      "##ोबार": 4511,
      "करीब": 4512,
      "चेह": 4513,
      "##ेख": 4514,
      "##सभा": 4515,
      "श्रृंखला": 4516,
      "##भाषित": 4517,
      "1961": 4518,
      "घंटे": 4519,
      "हल्": 4520,
      "##ामा": 4521,
      "उपर": 4522,
      "महास": 4523,
      "शहरी": 4524,
      "खड़ा": 4525,
      "डा": 4526,
      "क्व": 4527,
      "तल": 4528,
      "तिथ": 4529,
      "घटनाओं": 4530,
      "प्रोत्साहित": 4531,
      "आकर्षित": 4532,
      "जिले": 4533,
      "##तीत": 4534,
      "जहाज": 4535,
      "µà": 4536,
      "ढूं": 4537,
      "##जिए": 4538,
      "जाओ": 4539,
      "जिनकी": 4540,
      "जय": 4541,
      "##़्य": 4542,
      "##्रेट": 4543,
      "##भाविक": 4544,
      "हार्": 4545,
      "याच": 4546,
      "##दन": 4547,
      "##नर": 4548,
      "जीवित": 4549,
      "लै": 4550,
      "दबाव": 4551,
      "प्रेरणा": 4552,
      "##ावर": 4553,
      "##न्दु": 4554,
      "पुनर्": 4555,
      "फिली": 4556,
      "पशु": 4557,
      "##घाटन": 4558,
      "##ुलन": 4559,
      "उत्तरी": 4560,
      "##देव": 4561,
      "##संगत": 4562,
      "उपक्रम": 4563,
      "अहम": 4564,
      "##omment": 4565,
      "आसपास": 4566,
      "टिक": 4567,
      "##डु": 4568,
      "लेखन": 4569,
      "लंबे": 4570,
      "पूछा": 4571,
      "खींच": 4572,
      "##लेट": 4573,
      "धरती": 4574,
      "आहार": 4575,
      "प्रका": 4576,
      "सुभाष": 4577,
      "पहुँ": 4578,
      "रोगी": 4579,
      "चूं": 4580,
      "तकनीक": 4581,
      "लम्ब": 4582,
      "##िल्प": 4583,
      "¤": 4584,
      "##मती": 4585,
      "हिंसा": 4586,
      "##देह": 4587,
      "ww": 4588,
      "बदलने": 4589,
      "संध": 4590,
      "संबद्ध": 4591,
      "अपन": 4592,
      "##पालिका": 4593,
      "नमू": 4594,
      ">>": 4595,
      "हवाई": 4596,
      "चालू": 4597,
      "अवैध": 4598,
      "चूंकि": 4599,
      "##मति": 4600,
      "##ार्ट": 4601,
      "केरल": 4602,
      "द्वार": 4603,
      "##िश्त": 4604,
      "##ज़ा": 4605,
      "शुरु": 4606,
      "##शीलता": 4607,
      "पेड़": 4608,
      "hi": 4609,
      "¤": 4610,
      "छो": 4611,
      "द्वितीय": 4612,
      "www": 4613,
      "##द्री": 4614,
      "##ायु": 4615,
      "देन": 4616,
      "चलाने": 4617,
      "सहज": 4618,
      "##वंश": 4619,
      "हालत": 4620,
      "अदालत": 4621,
      "स्वाम": 4622,
      "वृक्ष": 4623,
      "कॉन्": 4624,
      "सिविल": 4625,
      "191": 4626,
      "अनुसूचित": 4627,
      "अन्तर": 4628,
      "सुदृ": 4629,
      "##ख्य": 4630,
      "##क्सी": 4631,
      "संसदीय": 4632,
      "थोड़ा": 4633,
      "सिफारिश": 4634,
      "आफ": 4635,
      "एंड": 4636,
      "##ोकन": 4637,
      "कितने": 4638,
      "रेलवे": 4639,
      "टेली": 4640,
      "रास्ते": 4641,
      "##णन": 4642,
      "मुद्दों": 4643,
      "लक": 4644,
      "##बाद": 4645,
      "राज्यपाल": 4646,
      "यूनिट": 4647,
      "किनारे": 4648,
      "प्रार्थना": 4649,
      "प्रकाशन": 4650,
      "##गाह": 4651,
      "रहें": 4652,
      "अनुदान": 4653,
      "मानवीय": 4654,
      "इंटरनेट": 4655,
      "दाव": 4656,
      "किसान": 4657,
      "चरित्र": 4658,
      "समीक्षा": 4659,
      "कव": 4660,
      "##त्प": 4661,
      "भंडारण": 4662,
      "##राम": 4663,
      "कहान": 4664,
      "पहुंचा": 4665,
      "रोकने": 4666,
      "##्यादा": 4667,
      "होम": 4668,
      "जाएंगे": 4669,
      "जोड़ें": 4670,
      "कंपनियों": 4671,
      "##िरा": 4672,
      "##प्प": 4673,
      "##ंगिक": 4674,
      "##ीकृति": 4675,
      "प्राथमिकता": 4676,
      "लिम": 4677,
      "मुंबई": 4678,
      "प्रशासनिक": 4679,
      "भय": 4680,
      "वहीं": 4681,
      "##नो": 4682,
      "##पेक्ष": 4683,
      "कमजोर": 4684,
      "नियंत्रित": 4685,
      "प्रारंभिक": 4686,
      "तुरंत": 4687,
      "##मीटर": 4688,
      "वर्गों": 4689,
      "समझौते": 4690,
      "##ख्त": 4691,
      "टीम": 4692,
      "समन्वय": 4693,
      "¤": 4694,
      "परिश": 4695,
      "चुने": 4696,
      "##निष्ठ": 4697,
      "मात": 4698,
      "स्तंभ": 4699,
      "प्री": 4700,
      "प्रथा": 4701,
      "अपर": 4702,
      "पुरानी": 4703,
      "विनिमय": 4704,
      "सतह": 4705,
      "अत": 4706,
      "अचान": 4707,
      "पोर्ट": 4708,
      "फार्म": 4709,
      "प्रिय": 4710,
      "पीठ": 4711,
      "पुनर": 4712,
      "##ेंसी": 4713,
      "कार्यान्वयन": 4714,
      "स्वतः": 4715,
      "##ार्ज": 4716,
      "सिंध": 4717,
      "दुः": 4718,
      "दिव्य": 4719,
      "उक्त": 4720,
      "मुद्": 4721,
      "अचानक": 4722,
      "इनका": 4723,
      "सराह": 4724,
      "##ुद": 4725,
      "##र्ध": 4726,
      "##ार्थी": 4727,
      "भंडार": 4728,
      "खाना": 4729,
      "##ष्प": 4730,
      "प्रेस": 4731,
      "एकमात्र": 4732,
      "अधिव": 4733,
      "बढ़ती": 4734,
      "संयंत्र": 4735,
      "समझने": 4736,
      "##दिन": 4737,
      "##गोर": 4738,
      "##अर": 4739,
      "रोम": 4740,
      "योजनाओं": 4741,
      "उठाने": 4742,
      "ब्रह्म": 4743,
      "##याल": 4744,
      "प्रतिस्प": 4745,
      "जुलाई": 4746,
      "समर्पित": 4747,
      "शत्र": 4748,
      "सें": 4749,
      "बीमार": 4750,
      "##द्धा": 4751,
      "लिखे": 4752,
      "लाया": 4753,
      "##मेल": 4754,
      "##पंथ": 4755,
      "वकी": 4756,
      "नुकसान": 4757,
      "दर्द": 4758,
      "चलने": 4759,
      "##िफ": 4760,
      "ड़": 4761,
      "भावी": 4762,
      "लंबी": 4763,
      "ऑनलाइन": 4764,
      "¤¦": 4765,
      "##कुम": 4766,
      "समृद्ध": 4767,
      "बिंदु": 4768,
      "आस्त": 4769,
      "सारा": 4770,
      "##क्का": 4771,
      "##ing": 4772,
      "टूट": 4773,
      "##माने": 4774,
      "##्नों": 4775,
      "##यां": 4776,
      "##शक्ति": 4777,
      "##त्कार": 4778,
      "इसने": 4779,
      "स्वस्थ": 4780,
      "चिकित्स": 4781,
      "महात्मा": 4782,
      "शिखर": 4783,
      "उदार": 4784,
      "##णु": 4785,
      "हार्दिक": 4786,
      "लिमिट": 4787,
      "32": 4788,
      "पाते": 4789,
      "मध्यम": 4790,
      "बाकी": 4791,
      "¤¡": 4792,
      "अत्या": 4793,
      "गर्भ": 4794,
      "##ंदन": 4795,
      "प्रतिनिधि": 4796,
      "सफेद": 4797,
      "अनुरोध": 4798,
      "कमांड": 4799,
      "धात": 4800,
      "तिथि": 4801,
      "चोट": 4802,
      "बग": 4803,
      "मंडल": 4804,
      "महारा": 4805,
      "पुरा": 4806,
      "हाथों": 4807,
      "60": 4808,
      "##चरण": 4809,
      "2018": 4810,
      "सुदृढ़": 4811,
      "##ट्र": 4812,
      "##ेश्वर": 4813,
      "##फे": 4814,
      "सेटिंग": 4815,
      "रीति": 4816,
      "आकर": 4817,
      "खड़े": 4818,
      "तला": 4819,
      "##वों": 4820,
      "मुल": 4821,
      "सभ्यता": 4822,
      "बोस": 4823,
      "अभिक": 4824,
      "##गढ़": 4825,
      "##india": 4826,
      "संक्रमण": 4827,
      "नवीन": 4828,
      "दिना": 4829,
      "##Comment": 4830,
      "29": 4831,
      "##अप": 4832,
      "बुरा": 4833,
      "सम्पूर्ण": 4834,
      "##ाजन": 4835,
      "कारणों": 4836,
      "श्रेष्ठ": 4837,
      "मिनट": 4838,
      "आल": 4839,
      "हद": 4840,
      "माउ": 4841,
      "##ान्य": 4842,
      "##वां": 4843,
      "##ंगल": 4844,
      "असर": 4845,
      "जड़": 4846,
      "असमर्थ": 4847,
      "##िरी": 4848,
      "##दायिक": 4849,
      "लिमिटेड": 4850,
      "पाँ": 4851,
      "##ैया": 4852,
      "मकान": 4853,
      "त्वचा": 4854,
      "निरीक्षण": 4855,
      "खान": 4856,
      "विद्र": 4857,
      "विद्यालय": 4858,
      "##क्क": 4859,
      "##ागर": 4860,
      "उद्घाटन": 4861,
      "विवेक": 4862,
      "पूर्ति": 4863,
      "2012": 4864,
      "det": 4865,
      "प्रशंसा": 4866,
      "आजादी": 4867,
      "वैध": 4868,
      "डाला": 4869,
      "##वर्ड": 4870,
      "फ़िल्म": 4871,
      "खत्म": 4872,
      "धो": 4873,
      "रिया": 4874,
      "विरूद्ध": 4875,
      "दस्तावेज़": 4876,
      "फरवरी": 4877,
      "स्वाभाविक": 4878,
      "नीतियों": 4879,
      "बाबू": 4880,
      "विभाजित": 4881,
      "ज्ञात": 4882,
      "गणना": 4883,
      "प्रचलित": 4884,
      "तुम्हारा": 4885,
      "अर्ध": 4886,
      "दिनांक": 4887,
      "ति": 4888,
      "मजदूर": 4889,
      "गुजरात": 4890,
      "गार": 4891,
      "##ंजन": 4892,
      "अन्यथा": 4893,
      "दीवार": 4894,
      "भाष्": 4895,
      "शल": 4896,
      "##ोधित": 4897,
      "नियुक्ति": 4898,
      "पौधों": 4899,
      "छात्रों": 4900,
      "समावेश": 4901,
      "</": 4902,
      "##काब": 4903,
      "##काव": 4904,
      "अनुश": 4905,
      "पाद": 4906,
      "##ri": 4907,
      "##ॉट": 4908,
      "विन्यास": 4909,
      "आंध": 4910,
      "कैं": 4911,
      "मैदान": 4912,
      "2007": 4913,
      "##गें": 4914,
      "निष्कर्ष": 4915,
      "ढांचे": 4916,
      "कर्तव्य": 4917,
      "बाधा": 4918,
      "महाराष्ट्र": 4919,
      "हक": 4920,
      "##रम": 4921,
      "##ास्ट": 4922,
      "मिलियन": 4923,
      "ध्वनि": 4924,
      "पत्थर": 4925,
      "फर्म": 4926,
      "रद्द": 4927,
      "##ident": 4928,
      "बेल": 4929,
      "##पचारिक": 4930,
      "शिक्षक": 4931,
      "##दर्शी": 4932,
      "लड़के": 4933,
      "विपणन": 4934,
      "द्विप": 4935,
      "अवधार": 4936,
      "कच्च": 4937,
      "मानद": 4938,
      "प्लग": 4939,
      "श्रेणीः": 4940,
      "press": 4941,
      "फोट": 4942,
      "भले": 4943,
      "##सों": 4944,
      "##फ़ी": 4945,
      "पर्यटन": 4946,
      "जिम्मेदारी": 4947,
      "दुक": 4948,
      "जागर": 4949,
      "सर्वोत्तम": 4950,
      "गौ": 4951,
      "##सेंस": 4952,
      "गुफा": 4953,
      "खतरा": 4954,
      "सागर": 4955,
      "समानता": 4956,
      "नौकरी": 4957,
      "हितों": 4958,
      "president": 4959,
      "प्रतियोग": 4960,
      "detail": 4961,
      "जुट": 4962,
      "##र्की": 4963,
      "जीत": 4964,
      "प्राधिकरण": 4965,
      "पड़ी": 4966,
      "बनाये": 4967,
      "गांवों": 4968,
      "##ofindia": 4969,
      "वचन": 4970,
      "##ao": 4971,
      "##ाधिकार": 4972,
      "ब्राह्म": 4973,
      "ठहर": 4974,
      "##वत": 4975,
      "शर्तों": 4976,
      "डाउ": 4977,
      "रण": 4978,
      "##ेंज": 4979,
      "##न्थ": 4980,
      "सुविधाएं": 4981,
      "लिंक": 4982,
      "presidentofindia": 4983,
      "##सु": 4984,
      "तोड़": 4985,
      "समुद्री": 4986,
      "गरीबी": 4987,
      "release": 4988,
      "##ब्ब": 4989,
      "2001": 4990,
      "पट्ट": 4991,
      "याचिका": 4992,
      "¤¼": 4993,
      "मृत": 4994,
      "##ूठ": 4995,
      "सहमत": 4996,
      "समूहों": 4997,
      "गहरा": 4998,
      "मॉडल": 4999,
      "##ांतिक": 5000,
      "उपस्थिति": 5001,
      "भारतीयों": 5002,
      "कामना": 5003,
      "नंबर": 5004,
      "सुबह": 5005,
      "इला": 5006,
      "पड": 5007,
      "##न्ड": 5008,
      "रसाय": 5009,
      "##विज्ञान": 5010,
      "टेक": 5011,
      "प्रान्त": 5012,
      "##विधि": 5013,
      "देखना": 5014,
      "##ख्यात": 5015,
      "समृद्धि": 5016,
      "खिल": 5017,
      "निच": 5018,
      "आवश्यकताओं": 5019,
      "##ग्ध": 5020,
      "01": 5021,
      "वंश": 5022,
      "##ंडी": 5023,
      "##िप्ट": 5024,
      "अग्रिम": 5025,
      "##्वा": 5026,
      "अंतः": 5027,
      "चुनौ": 5028,
      "चैनल": 5029,
      "of": 5030,
      "तुमने": 5031,
      "##ॉल्ट": 5032,
      "बेश": 5033,
      "उपयोक्ता": 5034,
      "साबित": 5035,
      "##ेंड": 5036,
      "सोचा": 5037,
      "अन्तर्गत": 5038,
      "अगला": 5039,
      "बजट": 5040,
      "##परी": 5041,
      "##राधिक": 5042,
      "##गमन": 5043,
      "मण": 5044,
      "चुना": 5045,
      "अत्यन्त": 5046,
      "##वासियों": 5047,
      "आँख": 5048,
      "##ूषण": 5049,
      "परम्प": 5050,
      "तत्वों": 5051,
      "छाप": 5052,
      "ठोस": 5053,
      "संह": 5054,
      "##ावली": 5055,
      "मैत्री": 5056,
      "##स्फ": 5057,
      "मैने": 5058,
      "2005": 5059,
      "जुड़": 5060,
      "नद": 5061,
      "भेंट": 5062,
      "अनुमोदन": 5063,
      "आदान": 5064,
      "खराब": 5065,
      "जवाह": 5066,
      "गहरी": 5067,
      "पौधे": 5068,
      "विमर्श": 5069,
      "‘‘": 5070,
      "##ed": 5071,
      "##स्स": 5072,
      "विहित": 5073,
      "##भावना": 5074,
      "प्रवृत्ति": 5075,
      "डिफ़": 5076,
      "उन्नत": 5077,
      "गवर्": 5078,
      "दास": 5079,
      "वरि": 5080,
      "##लैंड": 5081,
      "##फर": 5082,
      "##शास्त्र": 5083,
      "कोय": 5084,
      "##ंख्य": 5085,
      "बिलकुल": 5086,
      "खण्ड": 5087,
      "चाय": 5088,
      "जाल": 5089,
      "##बू": 5090,
      "लड़ाई": 5091,
      "असाधारण": 5092,
      "गाँ": 5093,
      "##़्त": 5094,
      "विद": 5095,
      "जनरल": 5096,
      "समझते": 5097,
      "समुचित": 5098,
      "अग्रणी": 5099,
      "स्कीम": 5100,
      "निगर": 5101,
      "##्कट": 5102,
      "##कु": 5103,
      "शिक्षण": 5104,
      "परिक": 5105,
      "रहेंगे": 5106,
      "रहस्य": 5107,
      "##वादियों": 5108,
      "बैंकिंग": 5109,
      "##ाबेस": 5110,
      "कम्पनी": 5111,
      "धारणा": 5112,
      "चीजों": 5113,
      "पदार्थों": 5114,
      "संवर्धन": 5115,
      "बटन": 5116,
      "नेत्र": 5117,
      "स्वीकृति": 5118,
      "पृष्ठभूमि": 5119,
      "रवीन्द्रनाथ": 5120,
      "छुप": 5121,
      "##ानिक": 5122,
      "दरव": 5123,
      "जायें": 5124,
      "ग्राफ": 5125,
      "निगरानी": 5126,
      "गंगा": 5127,
      "डेस": 5128,
      "राजस्व": 5129,
      "क्रांति": 5130,
      "व्यक्तित्व": 5131,
      "उन्म": 5132,
      "हा": 5133,
      "##ध्य": 5134,
      "##स्थापित": 5135,
      "पीड़": 5136,
      "बैठे": 5137,
      "नृत्य": 5138,
      "##ासत": 5139,
      "बहुम": 5140,
      "नील": 5141,
      "##जनन": 5142,
      "प्रणाल": 5143,
      "##-#-#": 5144,
      "खेत": 5145,
      "जातियों": 5146,
      "विविधता": 5147,
      "बौद्धिक": 5148,
      "##थी": 5149,
      "उल्लेखनीय": 5150,
      "उद्ध": 5151,
      "यौ": 5152,
      "हाँ": 5153,
      "हत्या": 5154,
      "##ांतरण": 5155,
      "निष्पादन": 5156,
      "प्यार": 5157,
      "##ोत्तर": 5158,
      "युक्ति": 5159,
      "##ोबाइल": 5160,
      "तत्काल": 5161,
      "लाइसेंस": 5162,
      "चन्द्र": 5163,
      "गहन": 5164,
      "संहिता": 5165,
      "गुल": 5166,
      "उपकरणों": 5167,
      "वकील": 5168,
      "¤«": 5169,
      "अभिन": 5170,
      "##नाक": 5171,
      "हिंदुस्तान": 5172,
      "संध्या": 5173,
      "नान": 5174,
      "पक्षों": 5175,
      "##तल": 5176,
      "कनेक्शन": 5177,
      "36": 5178,
      "अक्त": 5179,
      "भेजे": 5180,
      "शहरों": 5181,
      "आलोचना": 5182,
      "शान": 5183,
      "##ME": 5184,
      "दिखाया": 5185,
      "ड्राइ": 5186,
      "¤¬": 5187,
      "##ra": 5188,
      "अध्याप": 5189,
      "अस्पताल": 5190,
      "उभर": 5191,
      "##ंचित": 5192,
      "ग्ल": 5193,
      "परे": 5194,
      "विज्ञ": 5195,
      "##क्षिप्त": 5196,
      "सामान्यतः": 5197,
      "डिजाइन": 5198,
      "घूम": 5199,
      "##ut": 5200,
      "##ेंद": 5201,
      "##्यूल": 5202,
      "इनकी": 5203,
      "पैसे": 5204,
      "ज़्यादा": 5205,
      "इंग्ल": 5206,
      "मिलते": 5207,
      "मंदिरों": 5208,
      "उतर": 5209,
      "सौर": 5210,
      "यथास्थ": 5211,
      "फाय": 5212,
      "##दास": 5213,
      "निभ": 5214,
      "सामूह": 5215,
      "कमरे": 5216,
      "##मंडल": 5217,
      "##गान": 5218,
      "तंत्रिका": 5219,
      "करव": 5220,
      "सेल": 5221,
      "कहता": 5222,
      "बिहार": 5223,
      "##्यव": 5224,
      "स्वभाव": 5225,
      "चीनी": 5226,
      "चिंत": 5227,
      "to": 5228,
      "जानने": 5229,
      "दुर्घ": 5230,
      "कष्ट": 5231,
      "पोषण": 5232,
      "हज": 5233,
      "##ावि": 5234,
      "बैक": 5235,
      "बचाव": 5236,
      "निष्क्रिय": 5237,
      "आश्व": 5238,
      "##नाटक": 5239,
      "मुक्ति": 5240,
      "##ॉलर": 5241,
      "मिलाकर": 5242,
      "उतना": 5243,
      "खोलने": 5244,
      "##ow": 5245,
      "##चालित": 5246,
      "##फ़ि": 5247,
      "प्रारूप": 5248,
      "सितंबर": 5249,
      "अली": 5250,
      "प्रवृत्त": 5251,
      "ब्रिटेन": 5252,
      "रिक्त": 5253,
      "चेक": 5254,
      "बनाकर": 5255,
      "बदला": 5256,
      "द्विपक्षीय": 5257,
      "खतर": 5258,
      "तस्व": 5259,
      "प्रजा": 5260,
      "##क्षी": 5261,
      "कागज": 5262,
      "##शाह": 5263,
      "गिरफ्त": 5264,
      "सामूहिक": 5265,
      "दैनिक": 5266,
      "रेश": 5267,
      "##वरों": 5268,
      "##िकेट": 5269,
      "नेशनल": 5270,
      "##िवेश": 5271,
      "मानो": 5272,
      "inf": 5273,
      "डाय": 5274,
      "संदेह": 5275,
      "190": 5276,
      "##ज्ज": 5277,
      "##रू": 5278,
      "प्रतिबंध": 5279,
      "##म्मद": 5280,
      "ट्रै": 5281,
      "ताकत": 5282,
      "चिप": 5283,
      "भक्ति": 5284,
      "इसील": 5285,
      "मुकाब": 5286,
      "जीन": 5287,
      "पंड": 5288,
      "##रेख": 5289,
      "श्रमिक": 5290,
      "फोन": 5291,
      "##लिंग": 5292,
      "असह": 5293,
      "अनुसरण": 5294,
      "साहित्यिक": 5295,
      "शोक": 5296,
      "##मार्ग": 5297,
      "संप्र": 5298,
      "योग्यता": 5299,
      "अवसरों": 5300,
      "##मीन": 5301,
      "सहमति": 5302,
      "बदलें": 5303,
      "##ॉन्ट": 5304,
      "##्द": 5305,
      "##नु": 5306,
      "##ेंक": 5307,
      "##ेंद्र": 5308,
      "क्षण": 5309,
      "पार्क": 5310,
      "औषध": 5311,
      "##्रोल": 5312,
      "##िस्टर": 5313,
      "प्रतिबद्ध": 5314,
      "वर्गी": 5315,
      "वस्त्र": 5316,
      "कठिनाई": 5317,
      "डिफ़ॉल्ट": 5318,
      "वरिष्ठ": 5319,
      "##ण्य": 5320,
      "ट्रे": 5321,
      "दुःख": 5322,
      "अय": 5323,
      "##op": 5324,
      "##ॉर्ड": 5325,
      "परवर": 5326,
      "सत्याप": 5327,
      "आंध्र": 5328,
      "अक्तूबर": 5329,
      "शेय": 5330,
      "जलव": 5331,
      "ढूंढ": 5332,
      "यथास्थिति": 5333,
      "आभ": 5334,
      "कराया": 5335,
      "ब्राउ": 5336,
      "उपलब्धि": 5337,
      "शक्तिशाली": 5338,
      "भागीदार": 5339,
      "2006": 5340,
      "कॉन्फ़ि": 5341,
      "संदाय": 5342,
      "उठाया": 5343,
      "शिशु": 5344,
      "चाहती": 5345,
      "परिचय": 5346,
      "चैत": 5347,
      "##धानिक": 5348,
      "कर्नाटक": 5349,
      "वाणिज्यिक": 5350,
      "जीवा": 5351,
      "##ब्ज": 5352,
      "भरा": 5353,
      "##ोसा": 5354,
      "कोट": 5355,
      "##ोज़": 5356,
      "साहस": 5357,
      "प्रारम्भ": 5358,
      "देवता": 5359,
      "यूरोपीय": 5360,
      "हिमालय": 5361,
      "75": 5362,
      "एव": 5363,
      "गुजर": 5364,
      "##िलाभ": 5365,
      "अज्ञात": 5366,
      "##ैट": 5367,
      "बनाता": 5368,
      "##ंसिल": 5369,
      "जोड़ने": 5370,
      "युवाओं": 5371,
      "पैमाने": 5372,
      "##ुति": 5373,
      "काउ": 5374,
      "##िटल": 5375,
      "परिभाषित": 5376,
      "मार्गदर्शन": 5377,
      "info": 5378,
      "##ब्र": 5379,
      "##गन": 5380,
      "आराम": 5381,
      "अर्जित": 5382,
      "प्रदूषण": 5383,
      "प्रतियोगिता": 5384,
      "छि": 5385,
      "अधिकरण": 5386,
      "प्रतिप": 5387,
      "08": 5388,
      "आना": 5389,
      "बच्चा": 5390,
      "चैतन्य": 5391,
      "बांग": 5392,
      "##यें": 5393,
      "अकाद": 5394,
      "00": 5395,
      "खूब": 5396,
      "स्वर्ण": 5397,
      "इंडियन": 5398,
      "माइक्र": 5399,
      "##दिगार": 5400,
      "जुल": 5401,
      "नस्ल": 5402,
      "कुमार": 5403,
      "बनाएँ": 5404,
      "दिमा": 5405,
      "##सीय": 5406,
      "मूलभूत": 5407,
      "वस्तुत": 5408,
      "प्रविष्टि": 5409,
      "बेशक": 5410,
      "कक्षा": 5411,
      "फे": 5412,
      "कारोबार": 5413,
      "उत्तम": 5414,
      "अंग्रेज": 5415,
      "मिलेगी": 5416,
      "संवेद": 5417,
      "गठित": 5418,
      "##ारिक": 5419,
      "साइट": 5420,
      "सूचक": 5421,
      "असाम": 5422,
      "बजे": 5423,
      "बयान": 5424,
      "अभिलाभ": 5425,
      "खुदा": 5426,
      "तैय": 5427,
      "मिलेगा": 5428,
      "परवरदिगार": 5429,
      "उर्व": 5430,
      "पुनर्व": 5431,
      "पर्वत": 5432,
      "इंजीनिय": 5433,
      "स्वामित्व": 5434,
      "सराहना": 5435,
      "उन्हीं": 5436,
      "##ांछ": 5437,
      "देखता": 5438,
      "अंतरिक्ष": 5439,
      "साझा": 5440,
      "राहत": 5441,
      "##विक": 5442,
      "समाय": 5443,
      "विद्वान": 5444,
      "अधिसूचना": 5445,
      ").": 5446,
      "ऊंचाई": 5447,
      "##ुत्व": 5448,
      "देखे": 5449,
      "##तावनी": 5450,
      "विनिर्माण": 5451,
      "##िच": 5452,
      "##िसी": 5453,
      "प्रतिभूति": 5454,
      "अपनाया": 5455,
      "कोशिकाओं": 5456,
      "कथन": 5457,
      "इलेक्ट्रॉन": 5458,
      "पोत": 5459,
      "संगम": 5460,
      "घटक": 5461,
      "रजिस्ट": 5462,
      "पाँच": 5463,
      "खनि": 5464,
      "पॉल": 5465,
      "बजा": 5466,
      "वसू": 5467,
      "##हरी": 5468,
      "##ायन": 5469,
      "उपयोगकर्ता": 5470,
      "जिनसे": 5471,
      "विरासत": 5472,
      "दक्षिणी": 5473,
      "इस्लामी": 5474,
      "##राबाद": 5475,
      "दुर्घटना": 5476,
      "##चस्प": 5477,
      "व्यु": 5478,
      "प्लस": 5479,
      "जम्म": 5480,
      "प्रसंग": 5481,
      "पहुंचने": 5482,
      "##ूँगा": 5483,
      "उन्": 5484,
      "वस": 5485,
      "दोस्त": 5486,
      "न्यायिक": 5487,
      "उच्चतर": 5488,
      "चेतावनी": 5489,
      "बनाते": 5490,
      "विद्यार्थी": 5491,
      "ग्राहकों": 5492,
      "for": 5493,
      "ऊपरी": 5494,
      "##शोथ": 5495,
      "कार्ब": 5496,
      "निर्मा": 5497,
      "प्रविष्ट": 5498,
      "अज": 5499,
      "अक्षर": 5500,
      "तिल": 5501,
      "लगती": 5502,
      "निर्देशिका": 5503,
      "तीसरे": 5504,
      "सीमाओं": 5505,
      "ज़रूर": 5506,
      "प्रेषित": 5507,
      "आचरण": 5508,
      "तत्त्व": 5509,
      "रानी": 5510,
      "निष्ठ": 5511,
      "प्रबंधक": 5512,
      "जम्मू": 5513,
      "अदा": 5514,
      "घु": 5515,
      "न्यास": 5516,
      "महीनों": 5517,
      "पेंशन": 5518,
      "राजधानी": 5519,
      "##ंचाई": 5520,
      "विभागों": 5521,
      "सम्पर्क": 5522,
      "इलाज": 5523,
      "परम्परा": 5524,
      "##रेखा": 5525,
      "##जातियों": 5526,
      "उत्तरदायी": 5527,
      "महाराजा": 5528,
      "चंद्र": 5529,
      "बाय": 5530,
      "##धारी": 5531,
      "मुझसे": 5532,
      "कॉल": 5533,
      "धु": 5534,
      "मोबाइल": 5535,
      "##वालों": 5536,
      "अभिगम": 5537,
      "सिद्धांतों": 5538,
      "जितनी": 5539,
      "st": 5540,
      "##मक": 5541,
      "##ex": 5542,
      "मुंह": 5543,
      "विक्रय": 5544,
      "##ज़ार": 5545,
      "दिलचस्प": 5546,
      "##ताया": 5547,
      "प्रतीक्षा": 5548,
      "दाख": 5549,
      "500": 5550,
      "अब्द": 5551,
      "कड़ी": 5552,
      "लार": 5553,
      "सज": 5554,
      "##re": 5555,
      "देखो": 5556,
      "बचत": 5557,
      "सावधानी": 5558,
      "पैके": 5559,
      "भगवान्": 5560,
      "दान": 5561,
      "लल": 5562,
      "##शः": 5563,
      "##ापति": 5564,
      "##ंत्रिक": 5565,
      "स्ट्र": 5566,
      "फीस": 5567,
      "##नलोड": 5568,
      "फैसला": 5569,
      "जलवायु": 5570,
      "हड्ड": 5571,
      "##बारा": 5572,
      "##ंदी": 5573,
      "कॉन्फ़िगर": 5574,
      "भांति": 5575,
      "##ादे": 5576,
      "लगते": 5577,
      "चुप": 5578,
      "##इस": 5579,
      "संक्षिप्त": 5580,
      "लेती": 5581,
      "उतार": 5582,
      "क्य": 5583,
      "भरे": 5584,
      "##ूली": 5585,
      "पीढ़ी": 5586,
      "इसीलिए": 5587,
      "समितियों": 5588,
      "हुक": 5589,
      "सहन": 5590,
      "टिप्पणी": 5591,
      "बारी": 5592,
      "देह": 5593,
      "##कोश": 5594,
      "##ंभव": 5595,
      "संभावित": 5596,
      "आबादी": 5597,
      "इनकार": 5598,
      "मानना": 5599,
      "पंजीकृत": 5600,
      "ग्री": 5601,
      "##टों": 5602,
      "##नीति": 5603,
      "कपड़े": 5604,
      "अस्थायी": 5605,
      "पंडित": 5606,
      "भ्रम": 5607,
      "##मि": 5608,
      "साक्ष्य": 5609,
      "धन्य": 5610,
      "बाध्य": 5611,
      "##ीड": 5612,
      "##ंपरिक": 5613,
      "##मुच": 5614,
      "बोली": 5615,
      "##ist": 5616,
      "प्रतिदिन": 5617,
      "जानकर": 5618,
      "बढ़कर": 5619,
      "संबोधित": 5620,
      "शंकर": 5621,
      "##ad": 5622,
      "आपस": 5623,
      "मेम": 5624,
      "विनय": 5625,
      "स्मरण": 5626,
      "औपचारिक": 5627,
      "सन": 5628,
      "##कारा": 5629,
      "जायेगी": 5630,
      "संचालित": 5631,
      "##पंथी": 5632,
      "\"%": 5633,
      "बडी": 5634,
      "पत्रिका": 5635,
      "प्राधिकार": 5636,
      "iii": 5637,
      "डेस्कट": 5638,
      "##ेरे": 5639,
      "##सनीय": 5640,
      "मनोर": 5641,
      "न्यायालयों": 5642,
      "कॉलेज": 5643,
      "भेजने": 5644,
      "##ांक्षा": 5645,
      "¤¶": 5646,
      "पंख": 5647,
      "लु": 5648,
      "बाप": 5649,
      "रहित": 5650,
      "बारह": 5651,
      "फ्रांस": 5652,
      "खतरे": 5653,
      "दिसंबर": 5654,
      "परिवेश": 5655,
      "##हारिक": 5656,
      "पड़ती": 5657,
      "थोड़ी": 5658,
      "अकेले": 5659,
      "चली": 5660,
      "##कल्प": 5661,
      "कार्यकलाप": 5662,
      "##ग्रस्त": 5663,
      "सिद्धान्त": 5664,
      "केंद्रित": 5665,
      "डाउनलोड": 5666,
      "लिंग": 5667,
      "प्रास": 5668,
      "दीव": 5669,
      "सचमुच": 5670,
      "पेशे": 5671,
      "डेस्कटॉप": 5672,
      "भंग": 5673,
      "रिज": 5674,
      "जिल": 5675,
      "एकदम": 5676,
      "जाग": 5677,
      "सिंचाई": 5678,
      "प्रश्नों": 5679,
      "पुस्तिका": 5680,
      "रसायन": 5681,
      "45": 5682,
      "बिट": 5683,
      "वय": 5684,
      "वेद": 5685,
      "##त्ते": 5686,
      "आयी": 5687,
      "जुड़ा": 5688,
      "वसूली": 5689,
      "तरीकों": 5690,
      "प्रतिस्पर्": 5691,
      "शक": 5692,
      "सेक": 5693,
      "कहां": 5694,
      "लगाना": 5695,
      "शिक्षकों": 5696,
      "सम्भव": 5697,
      "विद्रोह": 5698,
      "हैद": 5699,
      "याची": 5700,
      "अनुज्ञात": 5701,
      "##िवासी": 5702,
      "2008": 5703,
      "##ानुसार": 5704,
      "प्रक्रियाओं": 5705,
      "रिव": 5706,
      "काली": 5707,
      "उद्यान": 5708,
      "लकड़ी": 5709,
      "qu": 5710,
      "वार्": 5711,
      "##पात": 5712,
      "पारंपरिक": 5713,
      "मधुम": 5714,
      "आरंभिक": 5715,
      "पच": 5716,
      "राजस्थान": 5717,
      "बाज़": 5718,
      "##ोगे": 5719,
      "स्तरों": 5720,
      "होंगी": 5721,
      "कायम": 5722,
      "छोड": 5723,
      "चीजें": 5724,
      "पोस्ट": 5725,
      "आंश": 5726,
      "सदी": 5727,
      "##ाकर": 5728,
      "##यु": 5729,
      "पहुंचे": 5730,
      "समर्थित": 5731,
      "यथार्थ": 5732,
      "जिम्मेदार": 5733,
      "¥": 5734,
      "##पत": 5735,
      "##ंदगी": 5736,
      "बुरी": 5737,
      "परिसर": 5738,
      "ईसाई": 5739,
      "धातु": 5740,
      "##ुण": 5741,
      "प्रजनन": 5742,
      "##कात": 5743,
      "कारक": 5744,
      "उपे": 5745,
      "चुकता": 5746,
      "निकाला": 5747,
      "अंतराल": 5748,
      "रेडियो": 5749,
      "##साइ": 5750,
      "बढ़ने": 5751,
      "परिवारों": 5752,
      "##ल्ले": 5753,
      "हिसाब": 5754,
      "तमिलना": 5755,
      "दि": 5756,
      "भरी": 5757,
      "##og": 5758,
      "प्रबन्ध": 5759,
      "स्वप": 5760,
      "मानता": 5761,
      "ज़मीन": 5762,
      "विवरणी": 5763,
      "धन्यवाद": 5764,
      "नै": 5765,
      "हार्ड": 5766,
      "##पथ": 5767,
      "##ियान्व": 5768,
      "संग्र": 5769,
      "सम्बंध": 5770,
      "मानवता": 5771,
      "खोलें": 5772,
      "संवेदन": 5773,
      "कन": 5774,
      "##ाते": 5775,
      "##ड़ाई": 5776,
      "स्टेशन": 5777,
      "स्क्र": 5778,
      "भूत": 5779,
      "##धित": 5780,
      "##ुरा": 5781,
      "##16": 5782,
      "उपखंड": 5783,
      "उद्देश्यों": 5784,
      "हस्तक्षेप": 5785,
      "/-": 5786,
      "टॉ": 5787,
      "##क्तिक": 5788,
      "सकेंगे": 5789,
      "स्वचालित": 5790,
      "अनुसूची": 5791,
      "तस्वीर": 5792,
      "(%": 5793,
      "##IN": 5794,
      "##ग्रहण": 5795,
      "पढ": 5796,
      "द्वि": 5797,
      "##क्राम": 5798,
      "सिवा": 5799,
      "सम्पत्ति": 5800,
      "वाक्य": 5801,
      "आंशिक": 5802,
      "इकट": 5803,
      "##ाए": 5804,
      "##ठन": 5805,
      "पुष्प": 5806,
      "आमंत्र": 5807,
      "गुणों": 5808,
      "ईरान": 5809,
      "राजभाषा": 5810,
      "बीस": 5811,
      "##च्छिक": 5812,
      "अधिकारिता": 5813,
      "##श्वास": 5814,
      "##ेन्ट": 5815,
      "संदेय": 5816,
      "उपायों": 5817,
      "प्रतिष्ठित": 5818,
      "ऑप": 5819,
      "झील": 5820,
      "दुर": 5821,
      "रिस": 5822,
      "##रस": 5823,
      "गुरू": 5824,
      "कब्": 5825,
      "मरा": 5826,
      "लाए": 5827,
      "पुष्टि": 5828,
      "पुरूष": 5829,
      "हैदराबाद": 5830,
      "रिश्त": 5831,
      "वंचित": 5832,
      "##ोति": 5833,
      "श्रीमती": 5834,
      "ऑडियो": 5835,
      "हरे": 5836,
      "आनु": 5837,
      "गांधीजी": 5838,
      "निकालने": 5839,
      "##्ताओं": 5840,
      "कोष": 5841,
      "स्वीकृत": 5842,
      "निभा": 5843,
      "गहराई": 5844,
      "##ag": 5845,
      "जोड़ा": 5846,
      "अवय": 5847,
      "पुस्तकों": 5848,
      "पहाड़ी": 5849,
      "प्लेट": 5850,
      "स्त्रियों": 5851,
      "मौलिक": 5852,
      "एल्": 5853,
      "दार्": 5854,
      "शोर": 5855,
      "कराना": 5856,
      "##जीवी": 5857,
      "##्रेम": 5858,
      "हाथी": 5859,
      "रेख": 5860,
      "संभवतः": 5861,
      "टैब": 5862,
      "##ld": 5863,
      "##कीर्ण": 5864,
      "सीधा": 5865,
      "शास्त्र": 5866,
      "मछली": 5867,
      "गेंद": 5868,
      "पाप": 5869,
      "##रचना": 5870,
      "##भेद": 5871,
      "उन्होने": 5872,
      "तात्": 5873,
      "लड़की": 5874,
      "90": 5875,
      "खड़ी": 5876,
      "##ीस": 5877,
      "##ac": 5878,
      "सुसंगत": 5879,
      "देखी": 5880,
      "वर्णित": 5881,
      "घरों": 5882,
      "मिथ": 5883,
      "##ांत्र": 5884,
      "##ेतन": 5885,
      "##रलाल": 5886,
      "एजेंस": 5887,
      "पैकेज": 5888,
      "¥": 5889,
      "पर्": 5890,
      "हमे": 5891,
      "##ोजी": 5892,
      "संतोष": 5893,
      "अनाज": 5894,
      "##ावन": 5895,
      "2002": 5896,
      "संतुलन": 5897,
      "मुकद": 5898,
      "कही": 5899,
      "कर्ण": 5900,
      "गू": 5901,
      "जमी": 5902,
      "##राज": 5903,
      "##oc": 5904,
      "##िस्म": 5905,
      "रखकर": 5906,
      "संतु": 5907,
      "नाते": 5908,
      "आशय": 5909,
      "मातृ": 5910,
      "अब्दुल": 5911,
      "व्यापारी": 5912,
      "अमरीका": 5913,
      "आखिर": 5914,
      "33": 5915,
      "एयर": 5916,
      "##ome": 5917,
      "कहला": 5918,
      "त्रुटिः": 5919,
      "09": 5920,
      "रव": 5921,
      "##शे": 5922,
      "##ंधन": 5923,
      "रूपों": 5924,
      "अवश": 5925,
      "##िश्र": 5926,
      "प्रसं": 5927,
      "संशोधित": 5928,
      "कीटों": 5929,
      "ध्वज": 5930,
      "अमरीकी": 5931,
      "गौरव": 5932,
      "आचार": 5933,
      "यानी": 5934,
      "शिल्प": 5935,
      "##सूर": 5936,
      "निस्स": 5937,
      "दुर्भ": 5938,
      "आकलन": 5939,
      "पाये": 5940,
      "##र्जन": 5941,
      "##ोहन": 5942,
      "फैला": 5943,
      "पीड़ित": 5944,
      "तैयारी": 5945,
      "जापान": 5946,
      "##सेट": 5947,
      "आधारभूत": 5948,
      "##क्षणिक": 5949,
      "वृद्ध": 5950,
      "रुचि": 5951,
      "रचनात्मक": 5952,
      "फलस्वरूप": 5953,
      "quot": 5954,
      "डॉलर": 5955,
      "अंग्रेजों": 5956,
      "मित्रों": 5957,
      "रिकार्ड": 5958,
      "वास": 5959,
      "##दनी": 5960,
      "दोनो": 5961,
      "चिन्ह": 5962,
      "सम्बन्धित": 5963,
      "##द्दीन": 5964,
      "मुकदम": 5965,
      "नकारात्मक": 5966,
      "सकारात्मक": 5967,
      "##लक": 5968,
      "पाता": 5969,
      "##ार्इ": 5970,
      "रोगों": 5971,
      "1999": 5972,
      "बांध": 5973,
      "जवाहरलाल": 5974,
      "इकट्ठ": 5975,
      "रूस": 5976,
      "##ुप्त": 5977,
      "##ोनें": 5978,
      "व्यावहारिक": 5979,
      "लेंगे": 5980,
      "##us": 5981,
      "##्यापी": 5982,
      "शानदार": 5983,
      "मानी": 5984,
      "##िज़": 5985,
      "##ुश": 5986,
      "##अल": 5987,
      "##nd": 5988,
      "पहन": 5989,
      "क्रियान्व": 5990,
      "परिभाषा": 5991,
      "##ंटन": 5992,
      "प्रयोगशाला": 5993,
      "##र्दू": 5994,
      "तापमान": 5995,
      "किन्हीं": 5996,
      "संपदा": 5997,
      "संगठित": 5998,
      "लंबाई": 5999,
      "घो": 6000,
      "झूठ": 6001,
      "डोम": 6002,
      "नज": 6003,
      "##मह": 6004,
      "उपन": 6005,
      "##ापुर": 6006,
      "##्रेल": 6007,
      "##म्मत": 6008,
      "वापसी": 6009,
      "शल्य": 6010,
      "चुनौतियों": 6011,
      "भर्ती": 6012,
      "स्वाधीन": 6013,
      "प्रतिफल": 6014,
      "फ़ॉन्ट": 6015,
      "उतनी": 6016,
      "पहलू": 6017,
      "तृ": 6018,
      "बाँ": 6019,
      "बोध": 6020,
      "##ुख": 6021,
      "##ियाई": 6022,
      "##ासा": 6023,
      "निवासी": 6024,
      "दुकान": 6025,
      "मज़": 6026,
      "##एच": 6027,
      "##णिक": 6028,
      "रहेगी": 6029,
      "रोज़": 6030,
      "##्नि": 6031,
      "प्रोटोक": 6032,
      "जर्मनी": 6033,
      "घनिष्ठ": 6034,
      "फस": 6035,
      "##्ज": 6036,
      "##बान": 6037,
      "विस": 6038,
      "मुला": 6039,
      "कहाँ": 6040,
      "समझता": 6041,
      "##डीई": 6042,
      "चा": 6043,
      "##्मा": 6044,
      "प्रांत": 6045,
      "##ाले": 6046,
      "तुर्की": 6047,
      "चुक": 6048,
      "तथ्यों": 6049,
      "बडे": 6050,
      "नेपाल": 6051,
      "दिखाने": 6052,
      "व्युत्प": 6053,
      "यो": 6054,
      "प्रबल": 6055,
      "आपसे": 6056,
      "##ोक्ताओं": 6057,
      "##दायक": 6058,
      "अहि": 6059,
      "सिक्": 6060,
      "कुशलता": 6061,
      "दिमाग": 6062,
      "02": 6063,
      "अज़": 6064,
      "लोह": 6065,
      "एकीकृत": 6066,
      "##िनल": 6067,
      "बिन्दु": 6068,
      "##ोपण": 6069,
      "मार्क": 6070,
      "प्रतिकूल": 6071,
      "शत्रु": 6072,
      "दाखिल": 6073,
      "उर्दू": 6074,
      "गर्व": 6075,
      "पाइ": 6076,
      "पोल": 6077,
      "##ोतों": 6078,
      "##इयां": 6079,
      "साहब": 6080,
      "खि": 6081,
      "सेंट": 6082,
      "##हाई": 6083,
      "वैकल्प": 6084,
      "पासवर्ड": 6085,
      "एजेंसी": 6086,
      "टर्म": 6087,
      "फु": 6088,
      "सड़": 6089,
      "##तांत्रिक": 6090,
      "विनाश": 6091,
      "##ावट": 6092,
      "बढ़ते": 6093,
      "सतत": 6094,
      "##्रु": 6095,
      "सकल": 6096,
      "राजकुम": 6097,
      "पत्रों": 6098,
      "1947": 6099,
      "वाद्य": 6100,
      "सैन्य": 6101,
      "मिश्रण": 6102,
      "शान्त": 6103,
      "##as": 6104,
      "##ारह": 6105,
      "##र्गी": 6106,
      "##ांट": 6107,
      "##सीसी": 6108,
      "##ातों": 6109,
      "वस्तुएं": 6110,
      "गतिविधि": 6111,
      "गोद": 6112,
      "##्यूशन": 6113,
      "लाना": 6114,
      "##14": 6115,
      "क्रांतिक": 6116,
      "लीग": 6117,
      "दुर्भाग": 6118,
      "वैकल्पिक": 6119,
      "ज्व": 6120,
      "##पित": 6121,
      "जिसको": 6122,
      "##ढ़े": 6123,
      "पिछली": 6124,
      "अंडे": 6125,
      "अवधारणा": 6126,
      "con": 6127,
      "##रुप": 6128,
      "##ation": 6129,
      "जाद": 6130,
      "बहाद": 6131,
      "##ष्णु": 6132,
      "सीखने": 6133,
      "##्वान": 6134,
      "##ापरी": 6135,
      "संपन्न": 6136,
      "07": 6137,
      "##लांग": 6138,
      "काले": 6139,
      "##ाणु": 6140,
      "पदों": 6141,
      "धनरा": 6142,
      "उठाए": 6143,
      "उभ": 6144,
      "माने": 6145,
      "जीवों": 6146,
      "जायेंगे": 6147,
      "मशीनरी": 6148,
      "घाटी": 6149,
      "मुद्दे": 6150,
      "तमिलनाडु": 6151,
      "काला": 6152,
      "परत": 6153,
      "##ांतरित": 6154,
      "दार्शन": 6155,
      "उग्र": 6156,
      "खून": 6157,
      "राव": 6158,
      "सेन": 6159,
      "##्यूब": 6160,
      "गारंटी": 6161,
      "¤": 6162,
      "गद्य": 6163,
      "हां": 6164,
      "आपसी": 6165,
      "पैसा": 6166,
      "दौड़": 6167,
      "इमार": 6168,
      "”-": 6169,
      "##ख्यान": 6170,
      "##ाद्व": 6171,
      "##्यात्मक": 6172,
      "##ापक": 6173,
      "शेयरों": 6174,
      "##्टा": 6175,
      "##काता": 6176,
      "प्रतिरोध": 6177,
      "डिग्री": 6178,
      "पड़ेगा": 6179,
      "सच्चे": 6180,
      "तलाश": 6181,
      "ऑफ़": 6182,
      "##ल्ड": 6183,
      "##ड़िया": 6184,
      "इनपुट": 6185,
      "2011": 6186,
      "अभ्यास": 6187,
      "ऊतक": 6188,
      "बहस": 6189,
      "सूचित": 6190,
      "सबको": 6191,
      "उत्तेज": 6192,
      "##क्सा": 6193,
      "आतंकवादी": 6194,
      "नकद": 6195,
      "साधनों": 6196,
      "दक्षता": 6197,
      "39": 6198,
      "शौ": 6199,
      "प्रतिबि": 6200,
      "व्यवस्थित": 6201,
      "आईटी": 6202,
      "परिवर्तनों": 6203,
      "कनेक्ट": 6204,
      "आउटपुट": 6205,
      "मान्य": 6206,
      "परिचित": 6207,
      "वैज्ञानिकों": 6208,
      "इकाइयों": 6209,
      "जंगल": 6210,
      "उत्तरदायित्व": 6211,
      "इर": 6212,
      "चतु": 6213,
      "##बाज": 6214,
      "##ूल्य": 6215,
      "##ष्कार": 6216,
      "मोटर": 6217,
      "भ्रष्ट": 6218,
      "किलोमीटर": 6219,
      "आर्": 6220,
      "पोष": 6221,
      "##ay": 6222,
      "##ौम": 6223,
      "निध": 6224,
      "गणित": 6225,
      "अस्थि": 6226,
      "इंद": 6227,
      "इंस": 6228,
      "शांत": 6229,
      "गुणा": 6230,
      "जनजा": 6231,
      "पूर": 6232,
      "व्यस्त": 6233,
      "समझे": 6234,
      "उत्पादक": 6235,
      "ज्योति": 6236,
      "शैक्षणिक": 6237,
      "कट्टर": 6238,
      "##ब्लिक": 6239,
      "सद्": 6240,
      "##यिक": 6241,
      "कालेज": 6242,
      "##ार्श्व": 6243,
      "भरोसा": 6244,
      "मिटाएँ": 6245,
      "##गोलिक": 6246,
      "कीम": 6247,
      "शिक्षित": 6248,
      "दर्शाता": 6249,
      "सम्पन्न": 6250,
      "मंडप": 6251,
      "हजारों": 6252,
      "प्रसंस्करण": 6253,
      "एप": 6254,
      "जू": 6255,
      "फार": 6256,
      "भक्त": 6257,
      "##दल": 6258,
      "##कीन": 6259,
      "तीनों": 6260,
      "##ate": 6261,
      "##क़्ति": 6262,
      "बेर": 6263,
      "##AME": 6264,
      "किल": 6265,
      "चाहूंगा": 6266,
      "प्रशास": 6267,
      "सोने": 6268,
      "188": 6269,
      "##ाउस": 6270,
      "क्रमशः": 6271,
      "##ाती": 6272,
      "राष्ट्रों": 6273,
      "वैय": 6274,
      "जुड़ी": 6275,
      "निशान": 6276,
      "चेहरे": 6277,
      "ईंधन": 6278,
      "मद्र": 6279,
      "सजा": 6280,
      "##यक": 6281,
      "##ावधि": 6282,
      "कैल": 6283,
      "##स्टर": 6284,
      "अगली": 6285,
      "ढांचा": 6286,
      "दार्शनिक": 6287,
      "चावल": 6288,
      "त्वर": 6289,
      "##पय": 6290,
      "##तना": 6291,
      "##ॉर्म": 6292,
      "##िली": 6293,
      "मुगल": 6294,
      "मेघ": 6295,
      "##िमान": 6296,
      "देशी": 6297,
      "असली": 6298,
      "115": 6299,
      "भौगोलिक": 6300,
      "##ष्म": 6301,
      "##ाधि": 6302,
      "जानवरों": 6303,
      "विचारधारा": 6304,
      "तुमसे": 6305,
      "सुनने": 6306,
      "इंस्ट": 6307,
      "वनस्प": 6308,
      "सहेजें": 6309,
      "आह्वान": 6310,
      "वस्तुतः": 6311,
      "आरक्षित": 6312,
      "189": 6313,
      "प्रस्तावित": 6314,
      "निःश": 6315,
      "क्रेड": 6316,
      "घास": 6317,
      "संभाल": 6318,
      "पढ़ा": 6319,
      "मासिक": 6320,
      "##ावस्था": 6321,
      "पूर्णता": 6322,
      "असामान्य": 6323,
      "संज": 6324,
      "सहयोगी": 6325,
      "अंकित": 6326,
      "¤": 6327,
      "चट्ट": 6328,
      "##पूर": 6329,
      "##यत": 6330,
      "##ूण": 6331,
      "##ायतों": 6332,
      "कहे": 6333,
      "सहभाग": 6334,
      "अहं": 6335,
      "उद्यमों": 6336,
      "दिसम्बर": 6337,
      "अपनाने": 6338,
      "इंजीनियरी": 6339,
      "संपादित": 6340,
      "केंद्रों": 6341,
      "इंजीनियर": 6342,
      "ग्रे": 6343,
      "नाक": 6344,
      "लिखते": 6345,
      "फ़ाइलें": 6346,
      "अफगान": 6347,
      "अकबर": 6348,
      "कस": 6349,
      "##गां": 6350,
      "प्रभावशाली": 6351,
      "मौत": 6352,
      "शक्तियां": 6353,
      "अखिल": 6354,
      "##सिंह": 6355,
      "टिकट": 6356,
      "नवं": 6357,
      "पॉ": 6358,
      "योजनाएं": 6359,
      "शुक्र": 6360,
      "नकदी": 6361,
      "मुकदमा": 6362,
      "मार्": 6363,
      "शो": 6364,
      "##दूरी": 6365,
      "##eat": 6366,
      "सबके": 6367,
      "लक्ष्म": 6368,
      "अपेक्षाकृत": 6369,
      "मद्रास": 6370,
      "ओपन": 6371,
      "वांछ": 6372,
      "##ैत": 6373,
      "अनुदेश": 6374,
      "##ोजक": 6375,
      "लेखकों": 6376,
      "वाहन": 6377,
      "मादा": 6378,
      "##ंसक": 6379,
      "मतदान": 6380,
      "185": 6381,
      "व्यापारिक": 6382,
      "भावनाओं": 6383,
      "शासक": 6384,
      "34": 6385,
      "कति": 6386,
      "डिप": 6387,
      "बर्फ": 6388,
      "भव": 6389,
      "##ोश": 6390,
      "प्रत्या": 6391,
      "साथी": 6392,
      "##्रेता": 6393,
      "पांड": 6394,
      "खनिज": 6395,
      "रिट": 6396,
      "##िकीय": 6397,
      "बोलते": 6398,
      "कार्यान्वित": 6399,
      "##वासी": 6400,
      "##घर": 6401,
      "सेक्टर": 6402,
      "##ेटी": 6403,
      "भेजें": 6404,
      "सभापति": 6405,
      "उल्लिखित": 6406,
      "##ानुभूति": 6407,
      "##ाद्वीप": 6408,
      "अनन्त": 6409,
      "विश्वसनीय": 6410,
      "क्रिकेट": 6411,
      "##000": 6412,
      "मौका": 6413,
      "आकांक्षा": 6414,
      "क्रियाकलाप": 6415,
      "निकलने": 6416,
      "चिकित्सक": 6417,
      "पादप": 6418,
      "हकदार": 6419,
      "70": 6420,
      "इम": 6421,
      "##षित": 6422,
      "##स्तीन": 6423,
      "पक्षी": 6424,
      "गोरा": 6425,
      "क़्यों": 6426,
      "सतर्क": 6427,
      "संग्रहालय": 6428,
      "रिज़": 6429,
      "##ंघन": 6430,
      "अनुमोदित": 6431,
      ".)": 6432,
      "दाम": 6433,
      "नाब": 6434,
      "अपरि": 6435,
      "प्राधिकृत": 6436,
      "चमक": 6437,
      "नवंबर": 6438,
      "अंततः": 6439,
      "हरि": 6440,
      "फोटो": 6441,
      "कतिपय": 6442,
      "केडीई": 6443,
      "##केल": 6444,
      "कार्यरत": 6445,
      "आवेद": 6446,
      "खुला": 6447,
      "उपलब्धता": 6448,
      "सकेगी": 6449,
      "सामान्यतया": 6450,
      "##पेश": 6451,
      "##ँह": 6452,
      "सुश": 6453,
      "स्तरीय": 6454,
      "लोकतांत्रिक": 6455,
      "सफलतापूर्वक": 6456,
      "आस्तियों": 6457,
      "तनाव": 6458,
      "फेंक": 6459,
      "##त्रिम": 6460,
      "##ड़ीसा": 6461,
      "गहरे": 6462,
      "चेन्न": 6463,
      "वरन्": 6464,
      "¥": 6465,
      "अतीत": 6466,
      "ऊँ": 6467,
      "बंबई": 6468,
      "##गामी": 6469,
      "अनुक्रम": 6470,
      "प्रतिवादी": 6471,
      "लिखना": 6472,
      "##प्रद": 6473,
      "समर्पण": 6474,
      "##फेसर": 6475,
      "गिरफ्तार": 6476,
      "कविताओं": 6477,
      "प्रचालन": 6478,
      "##इल": 6479,
      "##फोन": 6480,
      "##्थान": 6481,
      "सुन्दर": 6482,
      "निर्व": 6483,
      "##ुरत": 6484,
      "कानूनों": 6485,
      "प्रणालियों": 6486,
      "##ायनिक": 6487,
      "ब्राह्मण": 6488,
      "क्रेडिट": 6489,
      "अजी": 6490,
      "खिस": 6491,
      "नक़": 6492,
      "##चाप": 6493,
      "समू": 6494,
      "##ातर": 6495,
      "सीडी": 6496,
      "असल": 6497,
      "चलाया": 6498,
      "बचाने": 6499,
      "संगणक": 6500,
      "संगणना": 6501,
      "अस्वीकार": 6502,
      "ढल": 6503,
      "##12": 6504,
      "निधन": 6505,
      "##सेना": 6506,
      "बनता": 6507,
      "प्रसाद": 6508,
      "पूर्णतः": 6509,
      "प्रतिष्ठा": 6510,
      "कैंसर": 6511,
      "बक": 6512,
      "बंदर": 6513,
      "सहारा": 6514,
      "रखती": 6515,
      "संस्थापित": 6516,
      "##ेडकर": 6517,
      "प्रमाणित": 6518,
      "लंबा": 6519,
      "दस्तावेजों": 6520,
      "रिजर्व": 6521,
      "स्वप्न": 6522,
      "मूर्ति": 6523,
      "##्रो": 6524,
      "प्रयोक्ता": 6525,
      "नवम्बर": 6526,
      "जल्द": 6527,
      "हटाने": 6528,
      "धनराशि": 6529,
      "37": 6530,
      "छाया": 6531,
      "वजन": 6532,
      "##खन": 6533,
      "##ालों": 6534,
      "उपज": 6535,
      "##म्बी": 6536,
      "पीने": 6537,
      "हिमा": 6538,
      "संपादन": 6539,
      "ऊंची": 6540,
      "पहुँचा": 6541,
      "05": 6542,
      "##ोरेट": 6543,
      "बहि": 6544,
      "बनना": 6545,
      "बलि": 6546,
      "थोड़े": 6547,
      "पृथक": 6548,
      "or": 6549,
      "##ंठ": 6550,
      "करवा": 6551,
      "##ावी": 6552,
      "##दारों": 6553,
      "स्थितियों": 6554,
      "लक्ष्यों": 6555,
      "डालने": 6556,
      "एमएस": 6557,
      "अज़ाब": 6558,
      "नज़र": 6559,
      "बम": 6560,
      "उन्होनें": 6561,
      "वैसा": 6562,
      "कृत्रिम": 6563,
      "2004": 6564,
      "प्रोफेसर": 6565,
      "##----": 6566,
      "प्रोटीन": 6567,
      "श्वेत": 6568,
      "##स्फोट": 6569,
      "गि": 6570,
      "वाम": 6571,
      "अपमान": 6572,
      "##क्तियों": 6573,
      "स्टेट": 6574,
      "सौंदर": 6575,
      "संकल्पना": 6576,
      "खतरनाक": 6577,
      "व्युत्पन्न": 6578,
      "##ूदी": 6579,
      "##ेक्स": 6580,
      "बोझ": 6581,
      "ऊंचे": 6582,
      "##स्तीनी": 6583,
      "इराक": 6584,
      "चू": 6585,
      "नर्म": 6586,
      "लंदन": 6587,
      "सख्त": 6588,
      "जाह": 6589,
      "##ेनिस": 6590,
      "##दृश्य": 6591,
      "गवर्नर": 6592,
      "शरण": 6593,
      "हिल": 6594,
      "##ैम": 6595,
      "##ासीन": 6596,
      "पारस्प": 6597,
      "निरूप": 6598,
      "##एमई": 6599,
      "विजे": 6600,
      "कोलकाता": 6601,
      "##eather": 6602,
      "दांत": 6603,
      "##th": 6604,
      "मेन": 6605,
      "अमर": 6606,
      "आस्था": 6607,
      "घड़ी": 6608,
      "पूर्": 6609,
      "बुक": 6610,
      "मं": 6611,
      "लड": 6612,
      "शेख": 6613,
      "##कियों": 6614,
      "##ंडा": 6615,
      "अवरोध": 6616,
      "गईं": 6617,
      "##ण्डल": 6618,
      "##सूत्र": 6619,
      "टाइप": 6620,
      "नदियों": 6621,
      "इंत": 6622,
      "घन": 6623,
      "सोल": 6624,
      "##शब्द": 6625,
      "##ion": 6626,
      "संचित": 6627,
      "समेक": 6628,
      "विकलांग": 6629,
      "##स्कर": 6630,
      "पुकार": 6631,
      "परंपरागत": 6632,
      "छत": 6633,
      "बट": 6634,
      "स्न": 6635,
      "##व्यों": 6636,
      "आजाद": 6637,
      "कार्यालयों": 6638,
      "समुदायों": 6639,
      "खबर": 6640,
      "पार्ट": 6641,
      "बताता": 6642,
      "बसव": 6643,
      "विद्वानों": 6644,
      "उड़ीसा": 6645,
      "##ानाथ": 6646,
      "वृत्त": 6647,
      "अर्जन": 6648,
      "सत्या": 6649,
      "कम्प्यूटर": 6650,
      "पहलुओं": 6651,
      "प्रदत्त": 6652,
      "रासायनिक": 6653,
      "फ़िल्टर": 6654,
      "हथियार": 6655,
      "आयकर": 6656,
      "लाभों": 6657,
      "बालक": 6658,
      "प्रभार्य": 6659,
      "03": 6660,
      "जॉ": 6661,
      "रॉ": 6662,
      "##बाजी": 6663,
      "##णियों": 6664,
      "##्टे": 6665,
      "महल": 6666,
      "मेहर": 6667,
      "सितम्बर": 6668,
      "खर": 6669,
      "मृ": 6670,
      "सन्त": 6671,
      "##ामिन": 6672,
      "##कारिता": 6673,
      "##ावास": 6674,
      "मुँह": 6675,
      "##स्तु": 6676,
      "##न्तर": 6677,
      "2003": 6678,
      "विनियमन": 6679,
      "फिलीस्तीनी": 6680,
      "फुट": 6681,
      "##ाही": 6682,
      "सीता": 6683,
      "पुराना": 6684,
      "माँग": 6685,
      "परेशान": 6686,
      "कच": 6687,
      "##od": 6688,
      "विष्णु": 6689,
      "कुट": 6690,
      "खुली": 6691,
      "##ांकित": 6692,
      "##भारत": 6693,
      "मिस्र": 6694,
      "##बरा": 6695,
      "##चन्द्र": 6696,
      "##सात": 6697,
      "##विंद": 6698,
      "##दाताओं": 6699,
      "छुट्टी": 6700,
      "पारस्परिक": 6701,
      "नल": 6702,
      "नती": 6703,
      "##ुणा": 6704,
      "##वण": 6705,
      "साँ": 6706,
      "मेज": 6707,
      "##ाइयों": 6708,
      "भाग्य": 6709,
      "मनो": 6710,
      "उत्तराधिक": 6711,
      "##डीएफ": 6712,
      "दशकों": 6713,
      "पशुओं": 6714,
      "प्रिंटर": 6715,
      "त्य": 6716,
      "##AR": 6717,
      "विट": 6718,
      "##ाहट": 6719,
      "क्षमा": 6720,
      "परिस्थिति": 6721,
      "फसलों": 6722,
      "मुलाकात": 6723,
      "नक्": 6724,
      "##ृंग": 6725,
      "होटल": 6726,
      "सम्र": 6727,
      "वैष्ण": 6728,
      "प्रसारण": 6729,
      "##ार्थियों": 6730,
      "##म्बई": 6731,
      "रेग": 6732,
      "चौड़ाई": 6733,
      "संयोजन": 6734,
      "सिवाय": 6735,
      "परिश्रम": 6736,
      "नवी": 6737,
      "##ेंच": 6738,
      "##्यून": 6739,
      "विधिक": 6740,
      "भरें": 6741,
      "##शाही": 6742,
      "आमंत्रित": 6743,
      "फौ": 6744,
      "##िग": 6745,
      "##ूकता": 6746,
      "##्चर": 6747,
      "मुख्यतः": 6748,
      "मतभेद": 6749,
      "ज्याद": 6750,
      "चित्रण": 6751,
      "झग": 6752,
      "वल": 6753,
      "##ोसी": 6754,
      "लगने": 6755,
      "प्रवर्तन": 6756,
      "भरने": 6757,
      "##भाषण": 6758,
      "रचनाओं": 6759,
      "पुस्तकें": 6760,
      "अनुपालन": 6761,
      "मोटे": 6762,
      "बेटे": 6763,
      "##tem": 6764,
      "स्वाधीनता": 6765,
      "हिमाचल": 6766,
      "पस": 6767,
      "##ाजे": 6768,
      "सहानुभूति": 6769,
      "##च्छा": 6770,
      "##ुक़्त": 6771,
      "आदर": 6772,
      "##क्षरता": 6773,
      "मोहन": 6774,
      "रुक": 6775,
      "##ov": 6776,
      "##weather": 6777,
      "##ितियां": 6778,
      "स्पर्श": 6779,
      "##यंती": 6780,
      "मध्यस्थ": 6781,
      "पाठक": 6782,
      "उत्कृष्टता": 6783,
      "प्रोटोकॉल": 6784,
      "बडा": 6785,
      "इसको": 6786,
      "##ाबाद": 6787,
      "2009": 6788,
      "1956": 6789,
      "आवि": 6790,
      "कण": 6791,
      "कंट": 6792,
      "गिन": 6793,
      "शर": 6794,
      "##ुड": 6795,
      "##ch": 6796,
      "##AN": 6797,
      "##सेस": 6798,
      "##ाप्र": 6799,
      "अनुचित": 6800,
      "सूजन": 6801,
      "स्तन": 6802,
      "##क्की": 6803,
      "स्कूलों": 6804,
      "ईमेल": 6805,
      "झिल": 6806,
      "तदन": 6807,
      "नर्स": 6808,
      "पन": 6809,
      "शर्": 6810,
      "##ुज": 6811,
      "##िरण": 6812,
      "विकासशील": 6813,
      "##ोधन": 6814,
      "सौभाग": 6815,
      "तालाब": 6816,
      "गाड़ी": 6817,
      "इंग्लैंड": 6818,
      "जगत": 6819,
      "जानवर": 6820,
      "बढ़ता": 6821,
      "##स्ट्रेल": 6822,
      "रिज़र्व": 6823,
      "अट": 6824,
      "##क्ता": 6825,
      "प्रभाग": 6826,
      "रूपये": 6827,
      "ज्ञापन": 6828,
      "पेट्रोल": 6829,
      "कवियों": 6830,
      "एजेंसियों": 6831,
      "वैयक्तिक": 6832,
      "वादी": 6833,
      "##पल": 6834,
      "सकने": 6835,
      "लगाए": 6836,
      "व्याख्यान": 6837,
      "वास्तविकता": 6838,
      "बहुमत": 6839,
      "सौंदर्य": 6840,
      "##नीतिक": 6841,
      "अग्नि": 6842,
      "लेखापरी": 6843,
      "आसमान": 6844,
      "बचने": 6845,
      "देवताओं": 6846,
      "मानदंड": 6847,
      "चां": 6848,
      "धम": 6849,
      "सकी": 6850,
      "##लीन": 6851,
      "जानना": 6852,
      "मनोव": 6853,
      "निष्ठा": 6854,
      "तारा": 6855,
      "##िणी": 6856,
      "##शित": 6857,
      "जाया": 6858,
      "##दर्शिता": 6859,
      "##संरचना": 6860,
      "उल्लंघन": 6861,
      "दलों": 6862,
      "ह्य": 6863,
      "स्थूल": 6864,
      "सीम": 6865,
      "आधा": 6866,
      "सोचते": 6867,
      "##चरिता": 6868,
      "मुकदमे": 6869,
      ",–": 6870,
      "48": 6871,
      "पेर": 6872,
      "“%": 6873,
      "##लभ": 6874,
      "##बन": 6875,
      "इस्प": 6876,
      "हमला": 6877,
      "##ंदेह": 6878,
      "सुपर": 6879,
      "प्रतिभूत": 6880,
      "अतिमान": 6881,
      "रिकॉर्ड": 6882,
      "अधिवेशन": 6883,
      "फायदा": 6884,
      "बहादुर": 6885,
      "आख़": 6886,
      "##्वे": 6887,
      "##प्राप्त": 6888,
      "संपादक": 6889,
      "स्ने": 6890,
      "हिन्दुस्तान": 6891,
      "##कृष्ण": 6892,
      "डाक्टर": 6893,
      "परिपक्व": 6894,
      "निराश": 6895,
      "दिला": 6896,
      "पाना": 6897,
      "शेर": 6898,
      "शादी": 6899,
      "##ँग": 6900,
      "##ोक्त": 6901,
      "##व्यापी": 6902,
      "सुचरिता": 6903,
      "मेह": 6904,
      "राष्ट्री": 6905,
      "##ुलित": 6906,
      "अमल": 6907,
      "बताते": 6908,
      "जरूरतों": 6909,
      "06": 6910,
      "जयंती": 6911,
      "मील": 6912,
      "##तन्त्र": 6913,
      "बैठा": 6914,
      "तीर्थ": 6915,
      "भूख": 6916,
      "निस्संदेह": 6917,
      "इन्हीं": 6918,
      "धूम": 6919,
      "मस्": 6920,
      "##जनों": 6921,
      "##थे": 6922,
      "याताया": 6923,
      "व्यष्टि": 6924,
      "##म्मा": 6925,
      "पूर्ववर्ती": 6926,
      "##ंबेडकर": 6927,
      "##क्कर": 6928,
      "आधे": 6929,
      "आमदनी": 6930,
      "गलती": 6931,
      "मरम्मत": 6932,
      "गर्मी": 6933,
      "जागरूकता": 6934,
      "त्वरित": 6935,
      "बिर": 6936,
      "##द्दी": 6937,
      "##्रीम": 6938,
      "मानने": 6939,
      "निवारण": 6940,
      "दूरस्थ": 6941,
      "लिप": 6942,
      "##हरे": 6943,
      "##am": 6944,
      "बेस": 6945,
      "##साइटी": 6946,
      "यातायात": 6947,
      "अद्व": 6948,
      "ह्र": 6949,
      "१८": 6950,
      "##13": 6951,
      "यहूदी": 6952,
      "##ाग्र": 6953,
      "सार्वभ": 6954,
      "प्राणी": 6955,
      "गीता": 6956,
      "कथित": 6957,
      "डिजिटल": 6958,
      "item": 6959,
      "##सास": 6960,
      "उपग्रह": 6961,
      "सोसाइटी": 6962,
      "पड़ने": 6963,
      "खरीदने": 6964,
      "सैनिकों": 6965,
      "नाबार्ड": 6966,
      "तप": 6967,
      "मोर्": 6968,
      "##yp": 6969,
      "मानकों": 6970,
      "ज़ि": 6971,
      "युव": 6972,
      "अभिभाषण": 6973,
      "सम्मानित": 6974,
      "मुकाबले": 6975,
      "संतुष्ट": 6976,
      "क्रांतिकारी": 6977,
      "अच": 6978,
      "सीधी": 6979,
      "भरपूर": 6980,
      "अरबी": 6981,
      "नौकर": 6982,
      "लम्बे": 6983,
      "घृ": 6984,
      "पुस्तकालय": 6985,
      "##यल": 6986,
      "विस्फोट": 6987,
      "##रेक्ट": 6988,
      "तरल": 6989,
      "उत्पादकता": 6990,
      "##पीसी": 6991,
      "नमक": 6992,
      "सम्राट": 6993,
      "असी": 6994,
      "झा": 6995,
      "ट्रेड": 6996,
      "##तकों": 6997,
      "##टने": 6998,
      "##यू": 6999,
      "प्रतिव": 7000,
      "##र्थी": 7001,
      "तमाम": 7002,
      "सफाई": 7003,
      "04": 7004,
      "खज": 7005,
      "शस्त्र": 7006,
      "##हाल": 7007,
      "##कत": 7008,
      "##ूनी": 7009,
      "##his": 7010,
      "कोर्ट": 7011,
      "महान्": 7012,
      "शाखाओं": 7013,
      "टर्मिनल": 7014,
      "अनुय": 7015,
      "तीसरा": 7016,
      "आंखों": 7017,
      "डब्ल": 7018,
      "लिपि": 7019,
      "##लित": 7020,
      "##फ्र": 7021,
      "##ेंडर": 7022,
      "काफ़ी": 7023,
      "समीकरण": 7024,
      "प्रतिल": 7025,
      "पंजाबी": 7026,
      "मिश्रित": 7027,
      "सार्थ": 7028,
      "##तान": 7029,
      "##भि": 7030,
      "टैग": 7031,
      "नारायण": 7032,
      "बांग्ल": 7033,
      "इस्पात": 7034,
      "टेनिस": 7035,
      "दंत": 7036,
      "धान": 7037,
      "१०": 7038,
      "##वारी": 7039,
      "##र्ता": 7040,
      "##ैंक": 7041,
      "वितरित": 7042,
      "सदस्यता": 7043,
      "प्रशिक्षित": 7044,
      "बाढ़": 7045,
      "आकर्षण": 7046,
      "माहौल": 7047,
      "वरीय": 7048,
      "##िर्": 7049,
      "##ef": 7050,
      "##20": 7051,
      "##र्वेद": 7052,
      "सोम": 7053,
      "अध्यक्षता": 7054,
      "अनुशासन": 7055,
      "उग": 7056,
      "टकर": 7057,
      "हड़": 7058,
      "##ासित": 7059,
      "साक्षा": 7060,
      "मजदूरी": 7061,
      "परिसंप": 7062,
      "कराता": 7063,
      "बताने": 7064,
      "##ाजनक": 7065,
      "पचास": 7066,
      "उपेक्षा": 7067,
      "अड्ड": 7068,
      "भली": 7069,
      "मोड़": 7070,
      "मक्": 7071,
      "##नें": 7072,
      "##्रित": 7073,
      "स्वै": 7074,
      "स्वदेश": 7075,
      "##र्मी": 7076,
      "आवश्य": 7077,
      "टीका": 7078,
      "प्रावधानों": 7079,
      "ठाक": 7080,
      "बल्ले": 7081,
      "माय": 7082,
      "##्ण": 7083,
      "##ोरा": 7084,
      "##विदा": 7085,
      "ट्रैक": 7086,
      "इस्लामवादी": 7087,
      "तीसरी": 7088,
      "रजिस्टर": 7089,
      "##थित": 7090,
      "##र्फ़": 7091,
      "कारख": 7092,
      "##लाइ": 7093,
      "##न्दा": 7094,
      "जैन": 7095,
      "आवाज़": 7096,
      "2010": 7097,
      "अतिथ": 7098,
      "पान": 7099,
      "वन्य": 7100,
      "कारगर": 7101,
      "राध": 7102,
      "डाले": 7103,
      "लाखों": 7104,
      "##भाशय": 7105,
      "उपलब्धियों": 7106,
      "विदेशों": 7107,
      "समस्याएं": 7108,
      "जंगली": 7109,
      "इलाकों": 7110,
      "परिकल्पना": 7111,
      "इन्द्र": 7112,
      "##दूत": 7113,
      "##ऍं": 7114,
      "कोने": 7115,
      "##हीत": 7116,
      "मेहन": 7117,
      "##ंटित": 7118,
      "शुरूआ": 7119,
      "निवेशकों": 7120,
      "अफगानिस्तान": 7121,
      "चिल": 7122,
      "फेर": 7123,
      "हाइड": 7124,
      "##िक्षेप": 7125,
      "जाएँगे": 7126,
      "मेमोरी": 7127,
      "प्रासंगिक": 7128,
      "##ोदय": 7129,
      "फूलों": 7130,
      "जिलों": 7131,
      "जादू": 7132,
      "रम": 7133,
      "१५": 7134,
      "##ैधानिक": 7135,
      "केस": 7136,
      "##्याल": 7137,
      "##साई": 7138,
      "दावे": 7139,
      "##डल": 7140,
      "संक्षेप": 7141,
      "कार्मिक": 7142,
      "क्रय": 7143,
      "ग्रस्त": 7144,
      "पढ़ाई": 7145,
      "चिह्नित": 7146,
      "कहानियों": 7147,
      "विद्या": 7148,
      "नजदी": 7149,
      "बिन": 7150,
      "##शनी": 7151,
      "वैदिक": 7152,
      "परिणामों": 7153,
      "186": 7154,
      "बचपन": 7155,
      "१९९": 7156,
      "आंकड़े": 7157,
      "निपटान": 7158,
      "फिलीस्तीन": 7159,
      "vi": 7160,
      "आओ": 7161,
      "आलेख": 7162,
      "गै": 7163,
      "##टकों": 7164,
      "समकालीन": 7165,
      "उपदेश": 7166,
      "लेबल": 7167,
      "अधिकृत": 7168,
      "प्रतिर": 7169,
      "अवकाश": 7170,
      "##मान्य": 7171,
      "भेजी": 7172,
      "कूटशब्द": 7173,
      "##क्रामक": 7174,
      "क़्योंकि": 7175,
      "तह": 7176,
      "कीजिए": 7177,
      "मेर": 7178,
      "अवसंरचना": 7179,
      "बढ़ाना": 7180,
      "कृति": 7181,
      "नाटकों": 7182,
      "##प्ति": 7183,
      "वैष्णव": 7184,
      "नाय": 7185,
      "##लियों": 7186,
      "##ष्टा": 7187,
      "निर्गम": 7188,
      "श्रो": 7189,
      "ट्रांस": 7190,
      "उत्सुक": 7191,
      "शर्तें": 7192,
      "कच्चे": 7193,
      "गवाह": 7194,
      "दमन": 7195,
      "पार्श्व": 7196,
      "##चेंज": 7197,
      "संधि": 7198,
      "स्रोतों": 7199,
      "वक्तव्य": 7200,
      "निचले": 7201,
      "नक़ल": 7202,
      "आन्द": 7203,
      "यहीं": 7204,
      "##बरी": 7205,
      "##धीन": 7206,
      "किश": 7207,
      "वृत्ति": 7208,
      "घटा": 7209,
      "नियंत्रक": 7210,
      "##व्यवहार": 7211,
      "वयस्क": 7212,
      "ac": 7213,
      "##पोषण": 7214,
      "##कला": 7215,
      "##त्रियों": 7216,
      "सामर्थ": 7217,
      "तरंग": 7218,
      "आजकल": 7219,
      "पूर्णतया": 7220,
      "सुलझ": 7221,
      "भत्ता": 7222,
      "##वानी": 7223,
      "##घन": 7224,
      "केश": 7225,
      "##च्छेदन": 7226,
      "अर्ज": 7227,
      "क़िस्म": 7228,
      "आकर्षक": 7229,
      "मुल्क": 7230,
      ".–": 7231,
      "पते": 7232,
      "##गारों": 7233,
      "जोड़े": 7234,
      "##रीन": 7235,
      "स्विच": 7236,
      "स्था": 7237,
      "##ील्ड": 7238,
      "खासकर": 7239,
      "सिक्क": 7240,
      "अहिंसा": 7241,
      "पठ": 7242,
      "##स्र": 7243,
      "##भुत": 7244,
      "##वाणी": 7245,
      "##ूलन": 7246,
      "##जीवन": 7247,
      "मंजूरी": 7248,
      "एकत्रित": 7249,
      "हुक्म": 7250,
      "हाउस": 7251,
      "##जाम": 7252,
      "##ub": 7253,
      "मानस": 7254,
      "translate": 7255,
      "दुर्लभ": 7256,
      "इलेक्ट्रॉनिक": 7257,
      "##ंर": 7258,
      "##खिक": 7259,
      "##बीन": 7260,
      "प्राप": 7261,
      "##िक्र": 7262,
      "समझना": 7263,
      "##ंक्शन": 7264,
      "अंग्रेज़ी": 7265,
      "संदत्त": 7266,
      "##संचार": 7267,
      "अजीब": 7268,
      "घात": 7269,
      "घुस": 7270,
      "नाव": 7271,
      "नायक": 7272,
      "शपथ": 7273,
      "राजमार्ग": 7274,
      "लोगो": 7275,
      "सिर्फ़": 7276,
      "चलती": 7277,
      "आकस": 7278,
      "सोचने": 7279,
      "आनुवंश": 7280,
      "¤": 7281,
      "क्ला": 7282,
      "छप": 7283,
      "##खाव": 7284,
      "##ठा": 7285,
      "##तापूर्वक": 7286,
      "निमित": 7287,
      "सुदूर": 7288,
      "कार्यकारी": 7289,
      "अवल": 7290,
      "मिलना": 7291,
      "##मुखी": 7292,
      "श्रद्धा": 7293,
      "पीछला": 7294,
      "सांप्र": 7295,
      "##मलव": 7296,
      "निबंध": 7297,
      "भीड़": 7298,
      "सिरे": 7299,
      "लाभांश": 7300,
      "शीत": 7301,
      "सौभाग्य": 7302,
      "¤": 7303,
      "अटल": 7304,
      "दया": 7305,
      "मारे": 7306,
      "वेश": 7307,
      "शराब": 7308,
      "##बोर्ड": 7309,
      "प्रक्षेप": 7310,
      "##्लो": 7311,
      "पीड़ा": 7312,
      "ग्रन्थ": 7313,
      "अंगों": 7314,
      "##िस्ट्रेट": 7315,
      "कलाकार": 7316,
      "wh": 7317,
      "”।": 7318,
      "##os": 7319,
      "अपूर्ण": 7320,
      "वर्मा": 7321,
      "##पर्य": 7322,
      "श्रद्ध": 7323,
      "एसोस": 7324,
      "दशमलव": 7325,
      "औषधि": 7326,
      "माउस": 7327,
      "इकट्ठा": 7328,
      "अफ़": 7329,
      "##रानी": 7330,
      "##ॉग": 7331,
      "##ng": 7332,
      "##ास्": 7333,
      "सामु": 7334,
      "##ब्बे": 7335,
      "बोला": 7336,
      "65": 7337,
      "जला": 7338,
      "शोषण": 7339,
      "##वेल": 7340,
      "टैगोर": 7341,
      "prh2": 7342,
      "मधुमेह": 7343,
      "डोमेन": 7344,
      "मस्ज": 7345,
      "आकस्मिक": 7346,
      "दत्त": 7347,
      "बूट": 7348,
      "##मंड": 7349,
      "##एगा": 7350,
      "कराई": 7351,
      "कोर": 7352,
      "उपर्य": 7353,
      "##ort": 7354,
      "बुलाया": 7355,
      "com": 7356,
      "क्यू": 7357,
      "रूपरेखा": 7358,
      "##्सों": 7359,
      "##ोल्यूशन": 7360,
      "असंभव": 7361,
      "##ess": 7362,
      "सम्बद्ध": 7363,
      "महाभारत": 7364,
      "फॉर्म": 7365,
      "चिंतन": 7366,
      "जाहिर": 7367,
      "एण्ड": 7368,
      "फूट": 7369,
      "अपार": 7370,
      "यातना": 7371,
      "##ज़े": 7372,
      "....": 7373,
      "साझीदारी": 7374,
      "तालिका": 7375,
      "शास्त्री": 7376,
      "प्रभुत्व": 7377,
      "बांग्लादेश": 7378,
      "गर": 7379,
      "गेह": 7380,
      "##पेट": 7381,
      "##चिक": 7382,
      "##िएशन": 7383,
      "##स्थापन": 7384,
      "सर्विस": 7385,
      "सृजित": 7386,
      "उपनिवेश": 7387,
      "तत्स": 7388,
      "रवि": 7389,
      "##11": 7390,
      "##AT": 7391,
      "##ताएं": 7392,
      "अपवाद": 7393,
      "साक्षरता": 7394,
      "राजी": 7395,
      "दीप": 7396,
      "फ़ाइलों": 7397,
      "एनआई": 7398,
      "गर्भाशय": 7399,
      "वर्गीकरण": 7400,
      "sh": 7401,
      "फ्रेम": 7402,
      "हर्ष": 7403,
      "संभ": 7404,
      "पहच": 7405,
      "प्रतिवर्ष": 7406,
      "साम्य": 7407,
      "बनाती": 7408,
      "एल्गोर": 7409,
      "सड़कों": 7410,
      "वसा": 7411,
      "##शुदा": 7412,
      "संगत": 7413,
      "दोबारा": 7414,
      "जबर": 7415,
      "आवरण": 7416,
      "जिंदगी": 7417,
      "गोली": 7418,
      "##ख़्या": 7419,
      "मैत्रीपूर्ण": 7420,
      "विज्ञापन": 7421,
      "कना": 7422,
      "सट": 7423,
      "देगी": 7424,
      "संवैधानिक": 7425,
      "ऊंचा": 7426,
      "छः": 7427,
      "ठे": 7428,
      "नं": 7429,
      "बड़": 7430,
      "कुरान": 7431,
      "कार्यपालिका": 7432,
      "कमेटी": 7433,
      "नियन्त्र": 7434,
      "दूरसंचार": 7435,
      "बुला": 7436,
      "मित्रता": 7437,
      "सलाहकार": 7438,
      "प्रतिबद्धता": 7439,
      "संग्राम": 7440,
      "सन्द": 7441,
      "##शिष्ट": 7442,
      "##ुए": 7443,
      "##डिंग": 7444,
      "##ैक्ट": 7445,
      "केल": 7446,
      "##्ति": 7447,
      "##ाटी": 7448,
      "सुधारने": 7449,
      "मोहम्मद": 7450,
      "डाटाबेस": 7451,
      "नमूना": 7452,
      "##ेध": 7453,
      "##टो": 7454,
      "##सार": 7455,
      "##ul": 7456,
      "महाद्वीप": 7457,
      "कैप": 7458,
      "##पीआई": 7459,
      "महासागर": 7460,
      "55": 7461,
      "ओब": 7462,
      "समता": 7463,
      "अनिवासी": 7464,
      "आधिक": 7465,
      "चौथा": 7466,
      "प्रदाह": 7467,
      "द्रव": 7468,
      "ज्यादातर": 7469,
      "तदनुसार": 7470,
      "उधर": 7471,
      "चिर": 7472,
      "लम्बी": 7473,
      "सेव": 7474,
      "##करा": 7475,
      "कार्यवाह": 7476,
      "निकले": 7477,
      "अधिसूचित": 7478,
      "टेलीफोन": 7479,
      "समायोजन": 7480,
      "किलोग्राम": 7481,
      "व्र": 7482,
      "हानिक": 7483,
      "प्रगा": 7484,
      "अन्वेष": 7485,
      "##विश्वास": 7486,
      "निर्द": 7487,
      "बीत": 7488,
      "विवे": 7489,
      "187": 7490,
      "झिल्ली": 7491,
      "अज्ञान": 7492,
      "चिन": 7493,
      "हाइ": 7494,
      "##कन": 7495,
      "##थन": 7496,
      "क्षम": 7497,
      "अवर": 7498,
      "##िटर": 7499,
      "रामायण": 7500,
      "आयुर्वेद": 7501,
      "निमित्त": 7502,
      "300": 7503,
      "गंध": 7504,
      "किमी": 7505,
      "अधिर": 7506,
      "आईसी": 7507,
      "किराय": 7508,
      "जीवाणु": 7509,
      "शुरूआत": 7510,
      "##ल्स": 7511,
      "##ुब": 7512,
      "किरण": 7513,
      "विनि": 7514,
      "समापन": 7515,
      "##द्म": 7516,
      "##ढ़ा": 7517,
      "नियोजन": 7518,
      "उलझ": 7519,
      "पुरुषों": 7520,
      "सच्चा": 7521,
      "किराया": 7522,
      "सत्याग्रह": 7523,
      "सज्": 7524,
      "##ir": 7525,
      "##ांजल": 7526,
      "##ागल": 7527,
      "अवस्थित": 7528,
      "एक्सचेंज": 7529,
      "150": 7530,
      "प्रतिनिधियों": 7531,
      "वनस्पति": 7532,
      "दाह": 7533,
      "##पोर्ट": 7534,
      "##iv": 7535,
      "##wor": 7536,
      "यात्री": 7537,
      "इनसे": 7538,
      "चरम": 7539,
      "मराठी": 7540,
      "पेट्रोलियम": 7541,
      "सामर्थ्य": 7542,
      "इज": 7543,
      "टो": 7544,
      "डिस": 7545,
      "वाज": 7546,
      "##राव": 7547,
      "##ूती": 7548,
      "##um": 7549,
      "मेड": 7550,
      "दीक्ष": 7551,
      "खोजने": 7552,
      "मिटा": 7553,
      "केन्द्रों": 7554,
      "रोचक": 7555,
      "मेहनत": 7556,
      "लाह": 7557,
      "##डऋ": 7558,
      "तुमको": 7559,
      "सुनवाई": 7560,
      "कॉपी": 7561,
      "डालर": 7562,
      "मनुष्यों": 7563,
      "संग्रहण": 7564,
      "बेटी": 7565,
      "प्लगइन": 7566,
      "42": 7567,
      "निक्षेप": 7568,
      "भव्य": 7569,
      "##ियान": 7570,
      "विघ": 7571,
      "पीडीएफ": 7572,
      "##ाकू": 7573,
      "##ोरम": 7574,
      "स्वीकार्य": 7575,
      "निर्देशों": 7576,
      "अकादमी": 7577,
      "मंग": 7578,
      "मंगल": 7579,
      "सर्ज": 7580,
      "प्रॉ": 7581,
      "बादशाह": 7582,
      "गुट": 7583,
      "जिह": 7584,
      "आश्रम": 7585,
      "पर्यवे": 7586,
      "घाव": 7587,
      "देनी": 7588,
      "हमले": 7589,
      "चाहेंगे": 7590,
      "असंत": 7591,
      "##प्रस": 7592,
      "गीतों": 7593,
      "खिलाड़ी": 7594,
      "सशस्त्र": 7595,
      "मुहैया": 7596,
      "हड्डी": 7597,
      "विटामिन": 7598,
      "स्नेह": 7599,
      "##शंकर": 7600,
      "##गरी": 7601,
      "##्यूम": 7602,
      "कोमल": 7603,
      "अनुकरण": 7604,
      "दोहरा": 7605,
      "उपयोगिता": 7606,
      "##ुष्क": 7607,
      "समाजवादी": 7608,
      "संकलन": 7609,
      "सुधारों": 7610,
      "अन्तिम": 7611,
      "आदत": 7612,
      "उन्नयन": 7613,
      "वांछित": 7614,
      "वरीयता": 7615,
      "एह": 7616,
      "पेय": 7617,
      "बांस": 7618,
      "##निया": 7619,
      "##aa": 7620,
      "सदनों": 7621,
      "##ल्ह": 7622,
      "लोकसभा": 7623,
      "उठाना": 7624,
      "पेटेंट": 7625,
      "दोषी": 7626,
      "रजिस्ट्री": 7627,
      "कार्बन": 7628,
      "उपर्युक्त": 7629,
      "कर्ज": 7630,
      "हक़": 7631,
      "हफ्त": 7632,
      "##रखाव": 7633,
      "##ओएस": 7634,
      "परा": 7635,
      "उपास": 7636,
      "अनुभूति": 7637,
      "पाउ": 7638,
      "पूर्वोत्तर": 7639,
      "अंतरित": 7640,
      "कमीशन": 7641,
      "##पटल": 7642,
      "मांसपेश": 7643,
      "##भक्त": 7644,
      "##ितु": 7645,
      "संव्यवहार": 7646,
      "अधिकाधिक": 7647,
      "##ers": 7648,
      "सोचता": 7649,
      "प्रगाढ़": 7650,
      "शिष्ट": 7651,
      "सैक": 7652,
      "##त्रि": 7653,
      "उन्हे": 7654,
      "नींव": 7655,
      "जगत्": 7656,
      "सच्चाई": 7657,
      "मजदूरों": 7658,
      "कार्यकलापों": 7659,
      "राजकुमार": 7660,
      "गज": 7661,
      "साकार": 7662,
      "##ंचल": 7663,
      "सोव": 7664,
      "संकाय": 7665,
      "क्लब": 7666,
      "बेहद": 7667,
      "राजाओं": 7668,
      "डॉक्टर": 7669,
      "एशियाई": 7670,
      "prh0": 7671,
      "भेदभाव": 7672,
      "नमूने": 7673,
      "दीक्षांत": 7674,
      "कू": 7675,
      "पब्लिक": 7676,
      "##एव": 7677,
      "##ig": 7678,
      "रखरखाव": 7679,
      "बनकर": 7680,
      "मंत्रियों": 7681,
      "रंगम": 7682,
      "पेशी": 7683,
      "मूत्र": 7684,
      "आँक": 7685,
      "अवयव": 7686,
      "##पार": 7687,
      "##ोफ": 7688,
      "##ृद्धि": 7689,
      "##ॉर्ट": 7690,
      "पूर्वक": 7691,
      "बिग": 7692,
      "सर्वप्र": 7693,
      "##ैर्य": 7694,
      "##मार्क": 7695,
      "सच्ची": 7696,
      "कठिनाइयों": 7697,
      "स्थिरता": 7698,
      "गड़": 7699,
      "घुम": 7700,
      "रै": 7701,
      "रहकर": 7702,
      "आपात": 7703,
      "साथियों": 7704,
      "विशेषाधिकार": 7705,
      "आर्य": 7706,
      "उत्सव": 7707,
      "उपभोग": 7708,
      "तत्कालीन": 7709,
      "रेशम": 7710,
      "खातों": 7711,
      "दस्त": 7712,
      "सब्ज": 7713,
      "औरत": 7714,
      "##नाइट": 7715,
      "स्वाद": 7716,
      "##्लिक": 7717,
      "करेंः": 7718,
      "##ंबित": 7719,
      "कैम": 7720,
      "प्रवास": 7721,
      "छोड़ने": 7722,
      "इंच": 7723,
      "दै": 7724,
      "बन्ध": 7725,
      "##जुट": 7726,
      "सुपु": 7727,
      "प्रसव": 7728,
      "हिंदुओं": 7729,
      "हिस्सों": 7730,
      "अनुभवों": 7731,
      "सांप": 7732,
      "संवेदनशील": 7733,
      "अद्": 7734,
      "दादा": 7735,
      "##कश": 7736,
      "##चों": 7737,
      "होस्ट": 7738,
      "रहो": 7739,
      "मुना": 7740,
      "##राए": 7741,
      "बहन": 7742,
      "##ुतोष": 7743,
      "##धिकार": 7744,
      "अभिव्यक्त": 7745,
      "स्वच्छता": 7746,
      "आश्वासन": 7747,
      "ज़रूरत": 7748,
      "टेप": 7749,
      "पतन": 7750,
      "भूट": 7751,
      "वाइ": 7752,
      "##िने": 7753,
      "##षा": 7754,
      "##णे": 7755,
      "पराज": 7756,
      "स्वर्ग": 7757,
      "स्टार": 7758,
      "इसलिये": 7759,
      "##ोबल": 7760,
      "##भूषण": 7761,
      "1948": 7762,
      "अध्यापक": 7763,
      "संवेदना": 7764,
      "ठाकुर": 7765,
      "उज": 7766,
      "ढेर": 7767,
      "नॉ": 7768,
      "२०": 7769,
      "सुगम": 7770,
      "गुम": 7771,
      "मजिस्ट्रेट": 7772,
      "बोले": 7773,
      "दौरा": 7774,
      "ड्राइव": 7775,
      "¤": 7776,
      "कंध": 7777,
      "मरी": 7778,
      "हाई": 7779,
      "##श्रे": 7780,
      "सेवान": 7781,
      "हमसे": 7782,
      "##कोष": 7783,
      "आयाम": 7784,
      "उत्पा": 7785,
      "फ़र": 7786,
      "अमृत": 7787,
      "बेकार": 7788,
      "सुनकर": 7789,
      "त्रिप": 7790,
      "गणतंत्र": 7791,
      "विधियों": 7792,
      "एक्सट": 7793,
      "न्यायाधीशों": 7794,
      "साक्षात्कार": 7795,
      "iv": 7796,
      "चक": 7797,
      "##मोहन": 7798,
      "##ेग": 7799,
      "##ak": 7800,
      "अम्ल": 7801,
      "अपनाई": 7802,
      "वास्ते": 7803,
      "घटित": 7804,
      "##ाध्यक्ष": 7805,
      "नीतिगत": 7806,
      "परिषद्": 7807,
      "डेटाबेस": 7808,
      "सत्यापन": 7809,
      "घुट": 7810,
      "##टकर": 7811,
      "##डों": 7812,
      "करनेवाले": 7813,
      "कहती": 7814,
      "##्रेषण": 7815,
      "बदलना": 7816,
      "##द्वीप": 7817,
      "अभियुक्त": 7818,
      "निर्वाचित": 7819,
      "लौटने": 7820,
      "फेफ": 7821,
      "दुर्भाग्य": 7822,
      "नवा": 7823,
      "बही": 7824,
      "##ेगा": 7825,
      "##OR": 7826,
      "##ामत": 7827,
      "##ंतरण": 7828,
      "कामक": 7829,
      "समझी": 7830,
      "##त्स्य": 7831,
      "##ाउंड": 7832,
      "आशुतोष": 7833,
      "##गुण": 7834,
      "गंत": 7835,
      "तात": 7836,
      "दरों": 7837,
      "वासी": 7838,
      "##पूर्ति": 7839,
      "##डियों": 7840,
      "##विन": 7841,
      "##गित": 7842,
      "अपितु": 7843,
      "मेग": 7844,
      "##ाइम": 7845,
      "मानों": 7846,
      "चुंब": 7847,
      "पहुंचाने": 7848,
      "मंजूर": 7849,
      "छोड़ा": 7850,
      "##रूद्दीन": 7851,
      "हार्डवेयर": 7852,
      "समेकित": 7853,
      "सार्थक": 7854,
      "इक": 7855,
      "यक़": 7856,
      "हंस": 7857,
      "##मूर्ति": 7858,
      "##बर्ग": 7859,
      "##ैश": 7860,
      "##_01": 7861,
      "संकीर्ण": 7862,
      "परियोजनाएं": 7863,
      "लड़का": 7864,
      "विस्तारित": 7865,
      ".-": 7866,
      "64": 7867,
      "छेद": 7868,
      "एकजुट": 7869,
      "##लाभ": 7870,
      "देशवासियों": 7871,
      "पुनर्ग": 7872,
      "नोटिस": 7873,
      "मूसा": 7874,
      "बेचने": 7875,
      "गाँव": 7876,
      "सेवानिव": 7877,
      "43": 7878,
      "आज्ञा": 7879,
      "ध्य": 7880,
      "नाल": 7881,
      "##ेली": 7882,
      "##हारी": 7883,
      "##ैंट": 7884,
      "##ज़न": 7885,
      "##श्चात": 7886,
      "##ाकृ": 7887,
      "रोशनी": 7888,
      "उन्नति": 7889,
      "मॉड्यूल": 7890,
      "यौन": 7891,
      "आन्दोलन": 7892,
      "आगमन": 7893,
      "आंबेडकर": 7894,
      "बृह": 7895,
      "रसी": 7896,
      "##ब्रे": 7897,
      "परजीवी": 7898,
      "समाह": 7899,
      "रूपान्त": 7900,
      "भूक": 7901,
      "सांख्य": 7902,
      "मजबूर": 7903,
      "आगामी": 7904,
      "तुरन्त": 7905,
      "दीन": 7906,
      "##ीदा": 7907,
      "##फ्फ": 7908,
      "दुर्ग": 7909,
      "##टीएम": 7910,
      "स्नातक": 7911,
      "कोयला": 7912,
      "..": 7913,
      "ओह": 7914,
      "ग्य": 7915,
      "गले": 7916,
      "लोप": 7917,
      "सना": 7918,
      "हेल": 7919,
      "##ंकि": 7920,
      "##कोट": 7921,
      "सेवन": 7922,
      "संक्रिया": 7923,
      "कार्ट": 7924,
      "##त्तियों": 7925,
      "##चलन": 7926,
      "अतएव": 7927,
      "तिहाई": 7928,
      "अनाव": 7929,
      "१२": 7930,
      "##दु": 7931,
      "##ैण्ड": 7932,
      "विरा": 7933,
      "उपहार": 7934,
      "हुये": 7935,
      "आपदा": 7936,
      "कैसा": 7937,
      "बुराई": 7938,
      "अप्रत्य": 7939,
      "अपीलार्थी": 7940,
      "पर्यटकों": 7941,
      "नरम": 7942,
      "आख़िर": 7943,
      "is": 7944,
      "माध": 7945,
      "समाम": 7946,
      "वहन": 7947,
      "द्वारक": 7948,
      "##ूरो": 7949,
      "दुग्ध": 7950,
      "##and": 7951,
      "रोका": 7952,
      "इंकार": 7953,
      "##ect": 7954,
      "टुकड़े": 7955,
      "उन्मूलन": 7956,
      "इंदिरा": 7957,
      "कुटु": 7958,
      "ओबामा": 7959,
      "सर्वप्रथम": 7960,
      "38": 7961,
      "गम्": 7962,
      "धूल": 7963,
      "फोल्डर": 7964,
      "रोट": 7965,
      "अन्याय": 7966,
      "##ल्ली": 7967,
      "##ोहर": 7968,
      "उठता": 7969,
      "पड़ोसी": 7970,
      "1992": 7971,
      "लौटा": 7972,
      "बोलने": 7973,
      "अल्पस": 7974,
      "परिचालन": 7975,
      "मनोरंजन": 7976,
      "एमएसएमई": 7977,
      "पागल": 7978,
      "रहीं": 7979,
      "##ैज्ञानिक": 7980,
      "अनुमत": 7981,
      "1950": 7982,
      "पहाड़": 7983,
      "चेहरा": 7984,
      "पेशेवर": 7985,
      "ऊंट": 7986,
      "नकल": 7987,
      "’’": 7988,
      "##ोचित": 7989,
      "##19": 7990,
      "निविदा": 7991,
      "##क्ष्य": 7992,
      "पैनल": 7993,
      "प्रौढ़": 7994,
      "कीटनाश": 7995,
      "जितने": 7996,
      "गतिविधियां": 7997,
      "जैविक": 7998,
      "नानक": 7999,
      "(&": 8000,
      "अक्ट": 8001,
      "भला": 8002,
      "##चंद्र": 8003,
      "भारती": 8004,
      "सुस": 8005,
      "राजपत्र": 8006,
      "संस्थागत": 8007,
      "मूल्यवान": 8008,
      "त्रि": 8009,
      "आकृति": 8010,
      "क्रमांक": 8011,
      "तेलु": 8012,
      "निर्माता": 8013,
      "दीवारों": 8014,
      "##age": 8015,
      "रंगमंच": 8016,
      "Ch": 8017,
      "¤·": 8018,
      "धूप": 8019,
      "ध्रु": 8020,
      "नु": 8021,
      "बाइ": 8022,
      "लाई": 8023,
      "##बुल": 8024,
      "तरफ़": 8025,
      "अभिल": 8026,
      "गतिशील": 8027,
      "घृणा": 8028,
      "इट": 8029,
      "कमा": 8030,
      "कन्न": 8031,
      "खपत": 8032,
      "हैस": 8033,
      "##नाल": 8034,
      "विख्यात": 8035,
      "उपाधि": 8036,
      "##वाँ": 8037,
      "स्टॉक": 8038,
      "निष्पक्ष": 8039,
      "गम्भीर": 8040,
      "गेट": 8041,
      "जरा": 8042,
      "सावधान": 8043,
      "हँ": 8044,
      "##दंड": 8045,
      "##ew": 8046,
      "##नीत": 8047,
      "##दाबाद": 8048,
      "निवेदन": 8049,
      "##बीर": 8050,
      "गयीं": 8051,
      "मनाया": 8052,
      "सौंपा": 8053,
      "मणिप": 8054,
      "##ंख्यक": 8055,
      "सत्यापित": 8056,
      "सहभागिता": 8057,
      "\\\\": 8058,
      "धैर्य": 8059,
      "मोर": 8060,
      "हरी": 8061,
      "##लत": 8062,
      "##ंय": 8063,
      "##खार": 8064,
      "##ख्श": 8065,
      "##णि": 8066,
      "##ियॉँ": 8067,
      "##सीब": 8068,
      "श्रील": 8069,
      "प्राणियों": 8070,
      "दौरे": 8071,
      "स्क्रिप्ट": 8072,
      "##शिंग": 8073,
      "निदान": 8074,
      "स्वतन्त्र": 8075,
      "बदरूद्दीन": 8076,
      "उदय": 8077,
      "विधा": 8078,
      "विधवा": 8079,
      "पटल": 8080,
      "उपभोक्ताओं": 8081,
      "तयशुदा": 8082,
      "निपटने": 8083,
      "काउंसिल": 8084,
      "सटीक": 8085,
      "सोवियत": 8086,
      "बेज": 8087,
      "आईडी": 8088,
      "पड़ोस": 8089,
      "प्रोफ़": 8090,
      "पक्षियों": 8091,
      "सालों": 8092,
      "मंत्रालयों": 8093,
      "प्रचुर": 8094,
      "भ्रष्टाचार": 8095,
      "लेखापरीक्षा": 8096,
      "##ांजलि": 8097,
      "सिम": 8098,
      "##वत्": 8099,
      "##णता": 8100,
      "##ast": 8101,
      "##ric": 8102,
      "##्यु": 8103,
      "क़ौम": 8104,
      "हिमन": 8105,
      "अभिप्र": 8106,
      "जर्मन": 8107,
      "खां": 8108,
      "ख्याल": 8109,
      "##pp": 8110,
      "##वीय": 8111,
      "##ियस": 8112,
      "माननीय": 8113,
      "अर्पित": 8114,
      "दरबार": 8115,
      "बंगल": 8116,
      "दिखाता": 8117,
      "##ज्ह": 8118,
      "चुनावों": 8119,
      "उड़ान": 8120,
      "वसूल": 8121,
      "संजाल": 8122,
      "दम": 8123,
      "भाँ": 8124,
      "##मैन": 8125,
      "##ोगी": 8126,
      "अनंत": 8127,
      "सबूत": 8128,
      "असमान": 8129,
      "सर्वथा": 8130,
      "गोवा": 8131,
      "##ener": 8132,
      "वायदा": 8133,
      "सृष्टि": 8134,
      "सचिवालय": 8135,
      "बॉक्स": 8136,
      "सामुदायिक": 8137,
      "ऋष": 8138,
      "ताज": 8139,
      "##ोत्स": 8140,
      "##धक": 8141,
      "##di": 8142,
      "##नेस": 8143,
      "##स्थल": 8144,
      "बहुप": 8145,
      "क्रियाओं": 8146,
      "डिब": 8147,
      "वापिस": 8148,
      "1998": 8149,
      "स्मारक": 8150,
      "बरसात": 8151,
      "नेताजी": 8152,
      "इंजीनियरिंग": 8153,
      "आघात": 8154,
      "मोम": 8155,
      "##तरी": 8156,
      "##चन्द": 8157,
      "##ण्डे": 8158,
      "##erv": 8159,
      "सभाओं": 8160,
      "क़ुर": 8161,
      "एजेंट": 8162,
      "टाइम्स": 8163,
      "दीर्घकालिक": 8164,
      "आवेदक": 8165,
      "द्वारकानाथ": 8166,
      "चिट": 8167,
      "चूक": 8168,
      "छे": 8169,
      "बचे": 8170,
      "##िडी": 8171,
      "##ैड": 8172,
      "##्रोजन": 8173,
      "विचित्र": 8174,
      "##क्तता": 8175,
      "साफ़": 8176,
      "भागवत": 8177,
      "##ार्द": 8178,
      "स्टाफ": 8179,
      "बुरे": 8180,
      "जीवंत": 8181,
      "दबा": 8182,
      "##रता": 8183,
      "##ँजी": 8184,
      "##ox": 8185,
      "चाहें": 8186,
      "##योग्य": 8187,
      "विचारण": 8188,
      "पाठकों": 8189,
      "नाश": 8190,
      "उद्यमियों": 8191,
      "खोला": 8192,
      "पसंदीदा": 8193,
      "बताना": 8194,
      "भूटान": 8195,
      ")...": 8196,
      "ओवर": 8197,
      "गत": 8198,
      "नोक": 8199,
      "बिख": 8200,
      "बंट": 8201,
      "यांत्र": 8202,
      "रेट": 8203,
      "##ानंद": 8204,
      "संख़्या": 8205,
      "निल": 8206,
      "स्थलों": 8207,
      "वर्षो": 8208,
      "निरन्तर": 8209,
      "माध्यमिक": 8210,
      "क्लास": 8211,
      "रूचि": 8212,
      "प्रिंट": 8213,
      "पुनराव": 8214,
      "बगैर": 8215,
      "प्रजाति": 8216,
      "प्रतिस्पर्धा": 8217,
      "बाज़ार": 8218,
      "स्नान": 8219,
      "श्रीलंका": 8220,
      "अंद": 8221,
      "छंद": 8222,
      "जॉन": 8223,
      "नास": 8224,
      "सऋ": 8225,
      "##ोई": 8226,
      "##्यास": 8227,
      "यात्रियों": 8228,
      "##राइट": 8229,
      "व्याय": 8230,
      "##िरपेक्ष": 8231,
      "##ब्ध": 8232,
      "लिखें": 8233,
      "मुख्यालय": 8234,
      "पूछता": 8235,
      "शास्त्रीय": 8236,
      "निभाई": 8237,
      "उर्वरक": 8238,
      "पाइप": 8239,
      "\",": 8240,
      "ऊतकों": 8241,
      "झुक": 8242,
      "ढूँ": 8243,
      "##रेशन": 8244,
      "##कस": 8245,
      "##बिल": 8246,
      "प्रोज": 8247,
      "##िकरण": 8248,
      "संयोग": 8249,
      "##स्तर": 8250,
      "पैरा": 8251,
      "मौज़": 8252,
      "मामूली": 8253,
      "आधी": 8254,
      "धर्मों": 8255,
      "शिकायतों": 8256,
      "विधानसभा": 8257,
      "वार्ता": 8258,
      "कीमतों": 8259,
      "अप्रत्यक्ष": 8260,
      "ट्यूब": 8261,
      "पडे": 8262,
      "##ैप": 8263,
      "##ोग्रा": 8264,
      "न्यायपालिका": 8265,
      "##प्रति": 8266,
      "प्रत्यर्थी": 8267,
      "व्याकरण": 8268,
      "पिछड़े": 8269,
      "##लेखन": 8270,
      "संतुलित": 8271,
      "यूनियन": 8272,
      "गंतव्य": 8273,
      "थै": 8274,
      "##छा": 8275,
      "किराए": 8276,
      "विगत": 8277,
      "##राष्ट्र": 8278,
      "कहकर": 8279,
      "##ढ़ियों": 8280,
      "##ाँकि": 8281,
      "पैरों": 8282,
      "मौखिक": 8283,
      "कौंसिल": 8284,
      "##ुस्तानी": 8285,
      "##स्ट्रेलिया": 8286,
      "सुपुर्द": 8287,
      "अक्टूबर": 8288,
      "be": 8289,
      "गिल": 8290,
      "छू": 8291,
      "टेल": 8292,
      "##ठित": 8293,
      "##्युन": 8294,
      "प्रजातियों": 8295,
      "##िकों": 8296,
      "##विड": 8297,
      "वेग": 8298,
      "विकिरण": 8299,
      "चलकर": 8300,
      "मधुर": 8301,
      "हालाँकि": 8302,
      "जमाने": 8303,
      "मुहम्मद": 8304,
      "स्वैच्छिक": 8305,
      "एंव": 8306,
      "हॉ": 8307,
      "##तो": 8308,
      "##शिला": 8309,
      "##un": 8310,
      "प्रख्यात": 8311,
      "##न्नाथ": 8312,
      "अनदे": 8313,
      "कारावास": 8314,
      "##निष": 8315,
      "मुख़्य": 8316,
      "##स्ट्र": 8317,
      "प्रौद्योगिकियों": 8318,
      "मूर्ख": 8319,
      "अन्तर्राष्ट्रीय": 8320,
      "समावेशी": 8321,
      "ब्राउज़र": 8322,
      "##श्रेष्ठ": 8323,
      "ग्यारह": 8324,
      "¥": 8325,
      "##ेन्द्र": 8326,
      "##ीट": 8327,
      "##डो": 8328,
      "##्टन": 8329,
      "निमंत्र": 8330,
      "मुक़": 8331,
      "निर्वाह": 8332,
      "राज़्य": 8333,
      "##परक": 8334,
      "बुश": 8335,
      "गुणसूत्र": 8336,
      "संकु": 8337,
      "प्रगतिशील": 8338,
      "गुजराती": 8339,
      "दिलचस्पी": 8340,
      "समाहित": 8341,
      "ओल": 8342,
      "रोब": 8343,
      "हेक्ट": 8344,
      "प्रपत्र": 8345,
      "##सीआई": 8346,
      "उनपर": 8347,
      "व्यर्थ": 8348,
      "##लील": 8349,
      "जानती": 8350,
      "##itle": 8351,
      "प्रस्तावों": 8352,
      "##र्पण": 8353,
      "शासकों": 8354,
      "काटने": 8355,
      "मुद्दा": 8356,
      "क्रियान्वयन": 8357,
      "मस्जिद": 8358,
      "कनाडा": 8359,
      "नारी": 8360,
      "११": 8361,
      "##घोष": 8362,
      "##ूर्त": 8363,
      "नामों": 8364,
      "##न्यू": 8365,
      "महानि": 8366,
      "अभिने": 8367,
      "यूआर": 8368,
      "संप्रदाय": 8369,
      "तृतीय": 8370,
      "प्रतिभूतियों": 8371,
      "बश": 8372,
      "सउ": 8373,
      "##बारी": 8374,
      "संस्कार": 8375,
      "राज्यक्षेत्र": 8376,
      "कंप्यूट": 8377,
      "लड़कियों": 8378,
      "संचिका": 8379,
      "पृथक्": 8380,
      "आंकड़ों": 8381,
      "श्रमिकों": 8382,
      "कब्जा": 8383,
      "घोड़े": 8384,
      "action": 8385,
      "क्षमताओं": 8386,
      "##ृष्ट": 8387,
      "##ॉस": 8388,
      "##ियामक": 8389,
      "दोहर": 8390,
      "अभिन्न": 8391,
      "##र्तक": 8392,
      "स्तम्भ": 8393,
      "चलना": 8394,
      "निरपेक्ष": 8395,
      "प्रोफ": 8396,
      "आशंका": 8397,
      "सूरज": 8398,
      "पंचायत": 8399,
      "आश्चर्यजनक": 8400,
      "नाइट": 8401,
      "पायी": 8402,
      "फलों": 8403,
      "##ap": 8404,
      "##ढे": 8405,
      "##्तन": 8406,
      "लेट": 8407,
      "स्वाय": 8408,
      "बनाएं": 8409,
      "सारणी": 8410,
      "अन्तः": 8411,
      "संस्थाएं": 8412,
      "सुनाई": 8413,
      "##ावलोकन": 8414,
      "इधर": 8415,
      "ऑपर": 8416,
      "डेल": 8417,
      "##ंड़": 8418,
      "कोण": 8419,
      "अनो": 8420,
      "##ापना": 8421,
      "##णात्मक": 8422,
      "##क़्": 8423,
      "गोला": 8424,
      "मजबूती": 8425,
      "पंचांग": 8426,
      "निष्पादित": 8427,
      "ईमानदारी": 8428,
      "भ्रूण": 8429,
      "सेंटर": 8430,
      "क्री": 8431,
      "डिक": 8432,
      "नाज": 8433,
      "नाथ": 8434,
      "पिक": 8435,
      "लायक": 8436,
      "प्रक्रम": 8437,
      "परित": 8438,
      "##धारित": 8439,
      "बहुल": 8440,
      "पीड़क": 8441,
      "हिन्दुओं": 8442,
      "केन्द्रित": 8443,
      "असफलता": 8444,
      "आइए": 8445,
      "गोपनीय": 8446,
      "हैसियत": 8447,
      "##हृ": 8448,
      "##af": 8449,
      "जाप": 8450,
      "कहो": 8451,
      "विकृत": 8452,
      "जनजातियों": 8453,
      "परिदृश्य": 8454,
      "जगन्नाथ": 8455,
      "नाट्य": 8456,
      "कपड़ा": 8457,
      "हल्का": 8458,
      "अहमद": 8459,
      "बंदरगाह": 8460,
      "अद्भुत": 8461,
      "महानिदेश": 8462,
      "ऋतु": 8463,
      "चर्च": 8464,
      "डेम": 8465,
      "नह": 8466,
      "पाय": 8467,
      "ब्रे": 8468,
      "भित्त": 8469,
      "##चु": 8470,
      "प्रम": 8471,
      "##न्ता": 8472,
      "मुआ": 8473,
      "पारिवार": 8474,
      "सर्वश्रेष्ठ": 8475,
      "यथास": 8476,
      "1000": 8477,
      "UR": 8478,
      "title": 8479,
      "चारा": 8480,
      "दण्ड": 8481,
      "फर्": 8482,
      "यज्ञ": 8483,
      "रोड": 8484,
      "##बुद्ध": 8485,
      "##ण्ट": 8486,
      "एकड़": 8487,
      "मुताब": 8488,
      "सुनी": 8489,
      "##विष्ट": 8490,
      "राश": 8491,
      "व्यास": 8492,
      "##न्दगी": 8493,
      "बढ़ाया": 8494,
      "रोगियों": 8495,
      "समर्थक": 8496,
      "डिज़": 8497,
      "संचरण": 8498,
      "दायरे": 8499,
      "अशोक": 8500,
      "शासित": 8501,
      "कंपनियां": 8502,
      "तेलुगु": 8503,
      "इश": 8504,
      "ताम": 8505,
      "बाई": 8506,
      "वात": 8507,
      "१६": 8508,
      "##ियारों": 8509,
      "मुर": 8510,
      "सुग": 8511,
      "स्वे": 8512,
      "स्थाई": 8513,
      "कामों": 8514,
      "##र्षि": 8515,
      "श्रेय": 8516,
      "बंगाली": 8517,
      "नाटकीय": 8518,
      "शेयरधार": 8519,
      "प्रभु": 8520,
      "नवीकरण": 8521,
      "फौज": 8522,
      "प्रॉक्सी": 8523,
      "मुताबिक": 8524,
      "आदम": 8525,
      "शिल": 8526,
      "##ाभ": 8527,
      "##किल": 8528,
      "##ऊँ": 8529,
      "##रेटर": 8530,
      "कार्यकाल": 8531,
      "##त्ती": 8532,
      "सोसाय": 8533,
      "हरिया": 8534,
      "सम्भावना": 8535,
      "संकेतक": 8536,
      "गरीबों": 8537,
      "एवोल्यूशन": 8538,
      "रिवाज": 8539,
      "निरूपित": 8540,
      "पारिवारिक": 8541,
      "##दह": 8542,
      "##टरी": 8543,
      "प्रतिमा": 8544,
      "मिलन": 8545,
      "सिने": 8546,
      "क्रोध": 8547,
      "पुणे": 8548,
      "##्लेट": 8549,
      "इंजन": 8550,
      "खेतों": 8551,
      "क्यो": 8552,
      "जमींद": 8553,
      "अतिथि": 8554,
      "गेहूं": 8555,
      ",-": 8556,
      "दार": 8557,
      "वक्र": 8558,
      "##oog": 8559,
      "##बाल": 8560,
      "##र्कों": 8561,
      "किंग": 8562,
      "##ायम": 8563,
      "##याव": 8564,
      "आपत्ति": 8565,
      "निर्धन": 8566,
      "प्रशांत": 8567,
      "##ोर्स": 8568,
      "पदक": 8569,
      "ब्यौ": 8570,
      "साझीदार": 8571,
      "चरणों": 8572,
      "फॉर": 8573,
      "निर्माताओं": 8574,
      "लार्वा": 8575,
      "स्ट्रिंग": 8576,
      "शान्ति": 8577,
      "मेनू": 8578,
      "##oogle": 8579,
      "रूट": 8580,
      "श्ल": 8581,
      "##श्ले": 8582,
      "जोड": 8583,
      "स्टाक": 8584,
      "पड़ते": 8585,
      "सूचीबद्ध": 8586,
      "1990": 8587,
      "अकेला": 8588,
      "आँखों": 8589,
      "ललिता": 8590,
      "##ाकृष्ण": 8591,
      "56": 8592,
      "पंद्र": 8593,
      "अपशिष्ट": 8594,
      "##िस्थ": 8595,
      "उपस": 8596,
      "##ागार": 8597,
      "पाती": 8598,
      "##ेयी": 8599,
      "##डीए": 8600,
      "प्रवासी": 8601,
      "समुच्च": 8602,
      "सौदे": 8603,
      "उतने": 8604,
      "##िथ्म": 8605,
      "दायित्वों": 8606,
      "आंकड़ा": 8607,
      "विशेषज्ञों": 8608,
      "बजाए": 8609,
      "तात्कालिक": 8610,
      "सांप्रदायिक": 8611,
      "चुंबकीय": 8612,
      "आजीव": 8613,
      "ग्रीन": 8614,
      "ढाल": 8615,
      "पावर": 8616,
      "रिए": 8617,
      "##वृत्त": 8618,
      "स्थानांतरित": 8619,
      "अनुमानित": 8620,
      "सतर्कता": 8621,
      "हानिकारक": 8622,
      "52": 8623,
      "कों": 8624,
      "जूट": 8625,
      "नाज़": 8626,
      "लखन": 8627,
      "हरा": 8628,
      "##सनी": 8629,
      "##50": 8630,
      "##ial": 8631,
      "तकली": 8632,
      "अभिर": 8633,
      "ग्रिड": 8634,
      "बैल": 8635,
      "अर्द्ध": 8636,
      "जुर्म": 8637,
      "मुद्रित": 8638,
      "उठाकर": 8639,
      "नजदीक": 8640,
      "पंद्रह": 8641,
      "ड्रा": 8642,
      "दह": 8643,
      "भयान": 8644,
      "##यंत्र": 8645,
      "##ोन्": 8646,
      "##जु": 8647,
      "प्रको": 8648,
      "प्रजात": 8649,
      "##ालेख": 8650,
      "निंदा": 8651,
      "मुफ्त": 8652,
      "##ुलर": 8653,
      "अल्": 8654,
      "बाजारों": 8655,
      "सम्बन्धों": 8656,
      "मुद्रण": 8657,
      "ब्यूरो": 8658,
      "द्रव्य": 8659,
      "लक्षणों": 8660,
      "झुठ": 8661,
      "भाँति": 8662,
      ":%": 8663,
      "एन्": 8664,
      "चट": 8665,
      "पडा": 8666,
      "##घा": 8667,
      "##स्सी": 8668,
      "निकला": 8669,
      "सूचनाओं": 8670,
      "परिपथ": 8671,
      "परिपूर्ण": 8672,
      "हल्के": 8673,
      "##क्साइड": 8674,
      "बकाया": 8675,
      "प्रतिलिपि": 8676,
      "आनुवंशिक": 8677,
      "सनातन": 8678,
      ");": 8679,
      "पिल": 8680,
      "सिप": 8681,
      "##नियों": 8682,
      "##्तान": 8683,
      "कां": 8684,
      "अनि": 8685,
      "##िपी": 8686,
      "हरित": 8687,
      "स्कैन": 8688,
      "धारक": 8689,
      "उद्यमी": 8690,
      "अभियोग": 8691,
      "दवाओं": 8692,
      "निधियों": 8693,
      "प्रतिवेदन": 8694,
      "राधाकृष्ण": 8695,
      "72": 8696,
      "आरेख": 8697,
      "मन्द": 8698,
      "##आइ": 8699,
      "सीखा": 8700,
      "बिता": 8701,
      "आरक्षण": 8702,
      "गिरावट": 8703,
      "बंधन": 8704,
      "दरवाजे": 8705,
      "Name": 8706,
      "तित": 8707,
      "##्रल": 8708,
      "बनायी": 8709,
      "बादल": 8710,
      "##निहित": 8711,
      "##वर्ग": 8712,
      "निर्णायक": 8713,
      "बिलियन": 8714,
      "प्रदर्शक": 8715,
      "प्रदेशों": 8716,
      "पेड़ों": 8717,
      "रिफ": 8718,
      "ड्रग": 8719,
      "अस्पष्ट": 8720,
      "शिष्य": 8721,
      "नर्मदा": 8722,
      "इंतजार": 8723,
      "जबरद": 8724,
      "एक्सटेंशन": 8725,
      "मेगाव": 8726,
      "हरियाणा": 8727,
      "कूद": 8728,
      "##मियम": 8729,
      "##ट्": 8730,
      "##खण्ड": 8731,
      "प्राम": 8732,
      "##ालक": 8733,
      "लेगा": 8734,
      "विशेषताओं": 8735,
      "##ाटा": 8736,
      "लगाकर": 8737,
      "संभावनाएं": 8738,
      "तत्पर": 8739,
      "##प्पा": 8740,
      "सिंधु": 8741,
      "बीमारियों": 8742,
      "पुनर्वास": 8743,
      "इमारत": 8744,
      "org": 8745,
      "स्वदेशी": 8746,
      "पुनर्गठन": 8747,
      "ऑपरेशन": 8748,
      "47": 8749,
      "अन्न": 8750,
      "षड": 8751,
      "##तापूर्ण": 8752,
      "##िसा": 8753,
      "##रात": 8754,
      "##रेन": 8755,
      "जिसमे": 8756,
      "फ़िर": 8757,
      "पारदर्शिता": 8758,
      "सोचना": 8759,
      "दिखाना": 8760,
      "दुश्म": 8761,
      "वाणी": 8762,
      "सेनाओं": 8763,
      "हस्तांतरण": 8764,
      "46": 8765,
      "ठहरा": 8766,
      "फास": 8767,
      "रन": 8768,
      "##टें": 8769,
      "##ey": 8770,
      "##डक": 8771,
      "सेम": 8772,
      "##ावार": 8773,
      "##गीर": 8774,
      "अलार्म": 8775,
      "##ोहित": 8776,
      "जरुरी": 8777,
      "जरुरत": 8778,
      "उदासीन": 8779,
      "49": 8780,
      "आन्त": 8781,
      "सन्न": 8782,
      "##ंकी": 8783,
      "##ुड़": 8784,
      "##ृश्य": 8785,
      "काश्मीर": 8786,
      "अनिश्चित": 8787,
      "कारकों": 8788,
      "##ैंस": 8789,
      "सिटी": 8790,
      "सब्स": 8791,
      "##फ़्ट": 8792,
      "बदलते": 8793,
      "ट्रस्ट": 8794,
      "अनुप्रयोगों": 8795,
      "श्वसन": 8796,
      "गाँधी": 8797,
      "घातक": 8798,
      "भूकंप": 8799,
      "सोसायटी": 8800,
      "भयानक": 8801,
      "अन्ध": 8802,
      "गार्ड": 8803,
      "भाज": 8804,
      "##कक्ष": 8805,
      "चाहा": 8806,
      "मेनन": 8807,
      "विक्रेता": 8808,
      "##ोपित": 8809,
      "##दर्शक": 8810,
      "मौके": 8811,
      "आत्मनि": 8812,
      "##दृष्टि": 8813,
      "बेटा": 8814,
      "क्षतिपूर्ति": 8815,
      "दुर्बल": 8816,
      "आखिरी": 8817,
      "सूचकांक": 8818,
      "54": 8819,
      "आज़": 8820,
      "उभार": 8821,
      "चोरी": 8822,
      "टांग": 8823,
      "थक": 8824,
      "दाँ": 8825,
      "नली": 8826,
      "पवन": 8827,
      "वाई": 8828,
      "##जो": 8829,
      "रूपांतरण": 8830,
      "##ंडे": 8831,
      "##ोरेशन": 8832,
      "##फीति": 8833,
      "सौह": 8834,
      "निर्णयों": 8835,
      "शाही": 8836,
      "मशीनों": 8837,
      "अस्थिर": 8838,
      "##र्ध्व": 8839,
      "छिद्र": 8840,
      "धुंध": 8841,
      "आधिकारिक": 8842,
      "लखनऊ": 8843,
      "आभूषण": 8844,
      "गंग": 8845,
      "##पेयी": 8846,
      "##डि": 8847,
      "##वती": 8848,
      "कहें": 8849,
      "मेन्यू": 8850,
      "विकार": 8851,
      "रखो": 8852,
      "गुला": 8853,
      "स्टार्ट": 8854,
      "1991": 8855,
      "वाशिंग": 8856,
      "विपक्ष": 8857,
      "प्रदूष": 8858,
      "रणनीति": 8859,
      "टेक्न": 8860,
      "व्यायाम": 8861,
      ".,": 8862,
      "औजार": 8863,
      "खाल": 8864,
      "ज्वर": 8865,
      "नो": 8866,
      "भलाई": 8867,
      "शुष्क": 8868,
      "##लाल": 8869,
      "##थाम": 8870,
      "##ML": 8871,
      "किले": 8872,
      "##तीकरण": 8873,
      "महर्षि": 8874,
      "दीजिए": 8875,
      "नींद": 8876,
      "##वर्धन": 8877,
      "संभावनाओं": 8878,
      "दिनांकित": 8879,
      "अन्वेषण": 8880,
      "लाहौर": 8881,
      "##ब्रेरी": 8882,
      "आजीविका": 8883,
      "घायल": 8884,
      "पग": 8885,
      "भोज": 8886,
      "वान": 8887,
      "सफ़": 8888,
      "उद्भूत": 8889,
      "रंगों": 8890,
      "##ोसिस": 8891,
      "पद्धतियों": 8892,
      "नवीनतम": 8893,
      "खनन": 8894,
      "धनी": 8895,
      "##मूल": 8896,
      "##ेरा": 8897,
      "##तको": 8898,
      "##ter": 8899,
      "##ER": 8900,
      "##काव्य": 8901,
      "राजकीय": 8902,
      "बहुस": 8903,
      "पूर्वोक्त": 8904,
      "##ुपयोग": 8905,
      "लेखों": 8906,
      "निषेध": 8907,
      "बालों": 8908,
      "नवान्वेषी": 8909,
      "##ास्टिक": 8910,
      "बलिदान": 8911,
      "तारों": 8912,
      "यकीन": 8913,
      "##गृह": 8914,
      "एका": 8915,
      "भीतरी": 8916,
      "जोड़ी": 8917,
      "##किट": 8918,
      "उत्पत्ति": 8919,
      "क्रिस": 8920,
      "नीतियां": 8921,
      "##फलक": 8922,
      "आदेशों": 8923,
      "महिलाएं": 8924,
      "अंडमान": 8925,
      "नोड्स": 8926,
      "##aoM": 8927,
      "माइक्रो": 8928,
      "मणिपुर": 8929,
      "जापानी": 8930,
      "53": 8931,
      "ईस्ट": 8932,
      "डूब": 8933,
      "लहर": 8934,
      "##ोला": 8935,
      "##्रिक": 8936,
      "करूंगा": 8937,
      "मुसीब": 8938,
      "आपराधिक": 8939,
      "क्षे": 8940,
      "##मानत": 8941,
      "बैठकों": 8942,
      "इलाह": 8943,
      "उपन्यासों": 8944,
      "पल्ल": 8945,
      "कर्तव्यों": 8946,
      "दृढ़ता": 8947,
      "कहलाता": 8948,
      "पूरक": 8949,
      "एल्गोरिथ्म": 8950,
      "राधाकृष्णन": 8951,
      "',": 8952,
      "खर्": 8953,
      "पद्य": 8954,
      "बस्ती": 8955,
      "हॆ": 8956,
      "##वाने": 8957,
      "##ॉय": 8958,
      "बिछ": 8959,
      "पैट": 8960,
      "##द्रा": 8961,
      "दिखायी": 8962,
      "युवक": 8963,
      "चुनने": 8964,
      "चित्रों": 8965,
      "स्राव": 8966,
      "##्ठी": 8967,
      "विशेषताएं": 8968,
      "गोपाल": 8969,
      "कॉन्फ़िगरेशन": 8970,
      "नियन्त्रण": 8971,
      "वाजपेयी": 8972,
      "डाली": 8973,
      "रच": 8974,
      "##डू": 8975,
      "##अली": 8976,
      "##ठे": 8977,
      "बढ़े": 8978,
      "बेहत": 8979,
      "उठे": 8980,
      "युसु": 8981,
      "##abel": 8982,
      "##र्दन": 8983,
      "प्रेमी": 8984,
      "जगहों": 8985,
      "मास्टर": 8986,
      "साझेदारी": 8987,
      "स्त्रोत": 8988,
      "चुपचाप": 8989,
      "सउदी": 8990,
      "टूल": 8991,
      "बिस्त": 8992,
      "मत्स्य": 8993,
      "##लि": 8994,
      "##खल": 8995,
      "##डब": 8996,
      "##्रीट": 8997,
      "विश्राम": 8998,
      "##िप्र": 8999,
      "##चित्य": 9000,
      "मंत्रिम": 9001,
      "संघीय": 9002,
      "मलयाल": 9003,
      "गुनाह": 9004,
      "अधिष्ठ": 9005,
      "पसन्द": 9006,
      "खैर": 9007,
      "ग्व": 9008,
      "##चारा": 9009,
      "##विद": 9010,
      "सूखे": 9011,
      "अमीर": 9012,
      "##....": 9013,
      "बलराम": 9014,
      "आईएस": 9015,
      "सारांश": 9016,
      "निराशा": 9017,
      "सार्वभौ": 9018,
      "विनिधान": 9019,
      "स्वायत्त": 9020,
      "ढ़": 9021,
      "शंका": 9022,
      "शॉर्ट": 9023,
      "##युद्ध": 9024,
      "##जान": 9025,
      "कोष्ठ": 9026,
      "##ियमित": 9027,
      "एक्सप": 9028,
      "संतान": 9029,
      "चीज़ों": 9030,
      "विवादों": 9031,
      "शास्ति": 9032,
      "साधना": 9033,
      "प्रोफ़ाइल": 9034,
      "HT": 9035,
      "कवर": 9036,
      "भोग": 9037,
      "व्ह": 9038,
      "शार": 9039,
      "##ोही": 9040,
      "##झकर": 9041,
      "निब": 9042,
      "##रीब": 9043,
      "दोप": 9044,
      "देखेंगे": 9045,
      "क्रिस्ट": 9046,
      "उत्पादित": 9047,
      "##श्वत": 9048,
      "##यंकर": 9049,
      "मंदी": 9050,
      "धीमी": 9051,
      "परंपराओं": 9052,
      "आबंटित": 9053,
      "मृतक": 9054,
      "मिथ्या": 9055,
      "समूचे": 9056,
      "इंद्र": 9057,
      "भि": 9058,
      "##हाली": 9059,
      "##यता": 9060,
      "##02": 9061,
      "##ॉजी": 9062,
      "##र्ब": 9063,
      "कहेंगे": 9064,
      "##िमी": 9065,
      "क्रोम": 9066,
      "लगाई": 9067,
      "अप्रत्या": 9068,
      "लगेगा": 9069,
      "आंखें": 9070,
      "सिंधी": 9071,
      "ध्येय": 9072,
      "औज़ार": 9073,
      "छत्त": 9074,
      "थल": 9075,
      "बस्त": 9076,
      "मोन": 9077,
      "यों": 9078,
      "यान": 9079,
      "##ev": 9080,
      "##RO": 9081,
      "##र्ते": 9082,
      "समीप": 9083,
      "##ांगी": 9084,
      "##ावत": 9085,
      "अनुभाग": 9086,
      "खाड़ी": 9087,
      "मारने": 9088,
      "##क्टरों": 9089,
      "बाबा": 9090,
      "अधिग्रहण": 9091,
      "सिलस": 9092,
      "निकायों": 9093,
      "कोयले": 9094,
      "हेक्टेयर": 9095,
      "92": 9096,
      "फ्री": 9097,
      "वनों": 9098,
      "वाट": 9099,
      "##म्र": 9100,
      "##प्ट": 9101,
      "##श्यों": 9102,
      "##ड्": 9103,
      "##वाया": 9104,
      "##SL": 9105,
      "##ोंग": 9106,
      "कोल्ह": 9107,
      "##न्ने": 9108,
      "मानकर": 9109,
      "सबका": 9110,
      "पैग़": 9111,
      "##ीलाल": 9112,
      "टीवी": 9113,
      "आधुनिकीकरण": 9114,
      "1957": 9115,
      "इच्छुक": 9116,
      "प्रवाहित": 9117,
      "निवासियों": 9118,
      "करवाने": 9119,
      "निःशुल्क": 9120,
      "विजेता": 9121,
      "what": 9122,
      "चत": 9123,
      "एकीकरण": 9124,
      "##्को": 9125,
      "मानचित्र": 9126,
      "ग्रुप": 9127,
      "बढ़ी": 9128,
      "जिनको": 9129,
      "##स्वी": 9130,
      "##ोतरी": 9131,
      "रोकथाम": 9132,
      "शांतिपूर्ण": 9133,
      "अपराधी": 9134,
      "स्नातको": 9135,
      "छुटकारा": 9136,
      "चिंतित": 9137,
      "अतिमानसिक": 9138,
      "##world": 9139,
      "कामकाज": 9140,
      "but": 9141,
      "अरे": 9142,
      "इंट": 9143,
      "मजा": 9144,
      "मण्डल": 9145,
      "साद": 9146,
      "##ॉक्स": 9147,
      "##झे": 9148,
      "निरस्त": 9149,
      "स्वयंसे": 9150,
      "श्रेणियों": 9151,
      "आश्रय": 9152,
      "1946": 9153,
      "मल्टी": 9154,
      "आबंटन": 9155,
      "नारियल": 9156,
      "66": 9157,
      "85": 9158,
      "Google": 9159,
      "टोप": 9160,
      "दर्जा": 9161,
      "बम्बई": 9162,
      "भयंकर": 9163,
      "##च्य": 9164,
      "##र्सी": 9165,
      "##ायती": 9166,
      "देरी": 9167,
      "करनेवाला": 9168,
      "सिंग": 9169,
      "स्टी": 9170,
      "वित्तपोषण": 9171,
      "कित्त": 9172,
      "1996": 9173,
      "प्लास्टिक": 9174,
      "मोटी": 9175,
      "पुनर्निर्": 9176,
      "मलयालम": 9177,
      "88": 9178,
      "NAME": 9179,
      "अँ": 9180,
      "थोड": 9181,
      "फू": 9182,
      "फाइ": 9183,
      "वध": 9184,
      "सघन": 9185,
      "##टिक": 9186,
      "##शिप": 9187,
      "एक्से": 9188,
      "##फ़ा": 9189,
      "पारदर्शी": 9190,
      "बलों": 9191,
      "खुराक": 9192,
      "विधाय": 9193,
      "चलाए": 9194,
      "1987": 9195,
      "भौतिकी": 9196,
      "विशेषज्ञता": 9197,
      "पहुँचे": 9198,
      "पॉलिसी": 9199,
      "कित्तूर": 9200,
      "झट": 9201,
      "झेल": 9202,
      "ताजा": 9203,
      "##टिंग": 9204,
      "##यामत": 9205,
      "##थल": 9206,
      "##वाना": 9207,
      "##ाजत": 9208,
      "साख": 9209,
      "लेनी": 9210,
      "##ष्मा": 9211,
      "##तिक्रम": 9212,
      "पारिश्र": 9213,
      "दिखता": 9214,
      "पिछला": 9215,
      "1997": 9216,
      "निर्देशित": 9217,
      "##ाज़ा": 9218,
      "##ानिर्": 9219,
      "जनजाति": 9220,
      "हड़ताल": 9221,
      "श्लोक": 9222,
      "दोपहर": 9223,
      "अप्रत्याशित": 9224,
      "पारिश्रमिक": 9225,
      "##स्म": 9226,
      "समितियां": 9227,
      "##ापी": 9228,
      "बनती": 9229,
      "सदियों": 9230,
      "मंत्रि": 9231,
      "##स्वती": 9232,
      "संरक्षित": 9233,
      "क़्या": 9234,
      "पंथ": 9235,
      "पटना": 9236,
      "दायर": 9237,
      "भेड़": 9238,
      "कर्ता": 9239,
      "आवासीय": 9240,
      "प्रेषण": 9241,
      "परेशानी": 9242,
      "अपर्याप्त": 9243,
      "तात्पर्य": 9244,
      "नतीजा": 9245,
      "इलाहाबाद": 9246,
      "स्ल": 9247,
      "##किक": 9248,
      "##बु": 9249,
      "##av": 9250,
      "##xx": 9251,
      "##सेन": 9252,
      "अनियमित": 9253,
      "##रीद": 9254,
      "रात्रि": 9255,
      "सामंज": 9256,
      "अव्यव": 9257,
      "आवृत्ति": 9258,
      "पूर्वावलोकन": 9259,
      "##क्रमित": 9260,
      "वृक्क": 9261,
      "लाभदायक": 9262,
      "धारित": 9263,
      "##ष्णुता": 9264,
      "अंशदान": 9265,
      "गूगल": 9266,
      "आचार्य": 9267,
      "चट्टान": 9268,
      "किशोर": 9269,
      "प्रामाण": 9270,
      "सौहार्द": 9271,
      "स्नातकोत्तर": 9272,
      "हेम": 9273,
      "##पसंद": 9274,
      "##वर्तन": 9275,
      "कोरिया": 9276,
      "##्विक": 9277,
      "अनुर": 9278,
      "##माइ": 9279,
      "##ायाँ": 9280,
      "तुम्हे": 9281,
      "मुकाबला": 9282,
      "पोषक": 9283,
      "अद्वितीय": 9284,
      "अवलोकन": 9285,
      "?\"": 9286,
      "उगा": 9287,
      "बर्तन": 9288,
      "##डेट": 9289,
      "##वस्तु": 9290,
      "थाः": 9291,
      "समझती": 9292,
      "नियोक्ता": 9293,
      "##प्रदेश": 9294,
      "शब्दावली": 9295,
      "##हीनता": 9296,
      "मणीलाल": 9297,
      "उद्धरण": 9298,
      "भ्रमण": 9299,
      "बल्लेबाज": 9300,
      "सिक्किम": 9301,
      "II": 9302,
      "un": 9303,
      "छव": 9304,
      "लय": 9305,
      "वादा": 9306,
      "##िष्णुता": 9307,
      "##ear": 9308,
      "##शेष": 9309,
      "##बंदी": 9310,
      "##qu": 9311,
      "सीरिया": 9312,
      "मूलतः": 9313,
      "सचेत": 9314,
      "##sthis": 9315,
      "सुखद": 9316,
      "प्रीमियम": 9317,
      "गवर्न": 9318,
      "कोटि": 9319,
      "whatsthis": 9320,
      "झलक": 9321,
      "हिर": 9322,
      "##ैनी": 9323,
      "##ारियों": 9324,
      "काल्प": 9325,
      "एक्ट": 9326,
      "##ड़की": 9327,
      "हममें": 9328,
      "##द्घ": 9329,
      "पुरी": 9330,
      "पैद": 9331,
      "जहन्न": 9332,
      "ब्रित": 9333,
      "विषयक": 9334,
      "पटेल": 9335,
      "आदर्शों": 9336,
      "प्रोग्रामिंग": 9337,
      "हथियारों": 9338,
      "फैसले": 9339,
      "उपरांत": 9340,
      "गुलाम": 9341,
      "अभिनय": 9342,
      "प्रशासक": 9343,
      "यक़ीन": 9344,
      "समुच्चय": 9345,
      "¤": 9346,
      "ग्रेड": 9347,
      "भण्ड": 9348,
      "उपाध्यक्ष": 9349,
      "##लेन": 9350,
      "##राग": 9351,
      "पूज": 9352,
      "##र्तित": 9353,
      "##ल्ला": 9354,
      "कैश": 9355,
      "##हार्य": 9356,
      "शैल": 9357,
      "कॉर्प": 9358,
      "पांव": 9359,
      "अग्रसर": 9360,
      "##िस्को": 9361,
      "गंभीरता": 9362,
      "दर्जे": 9363,
      "भागीदारों": 9364,
      "तिलक": 9365,
      "अवशेष": 9366,
      "मुआव": 9367,
      "सार्वभौमिक": 9368,
      "आक्षेप": 9369,
      "औचित्य": 9370,
      "तंब": 9371,
      "शिर": 9372,
      "##ेरी": 9373,
      "##ोनी": 9374,
      "##्पद": 9375,
      "जीने": 9376,
      "सोना": 9377,
      "फैली": 9378,
      "नौका": 9379,
      "वाहक": 9380,
      "समन्वित": 9381,
      "पुराण": 9382,
      "फीसदी": 9383,
      "ऑपरेट": 9384,
      "रेगिस्तान": 9385,
      "##eneric": 9386,
      "खादी": 9387,
      "जंतु": 9388,
      "##पृ": 9389,
      "##ड़ने": 9390,
      "पूँजी": 9391,
      "नामित": 9392,
      "मनपसंद": 9393,
      "उत्तरा": 9394,
      "फैले": 9395,
      "प्रदर्शनी": 9396,
      "जायगा": 9397,
      "सरलता": 9398,
      "ग्रंथों": 9399,
      "बहुमूल्य": 9400,
      "जनजातीय": 9401,
      "नवाचार": 9402,
      "घेर": 9403,
      "पुत": 9404,
      "भट": 9405,
      "##लेस": 9406,
      "अवज्ञा": 9407,
      "कम्युन": 9408,
      "गुस्": 9409,
      "प्रत्यु": 9410,
      "ऋणों": 9411,
      "बाघ": 9412,
      "प्रेरक": 9413,
      "परमिट": 9414,
      "##क्सीजन": 9415,
      "उत्तराधिकारी": 9416,
      "रसीद": 9417,
      "गरि": 9418,
      "चित्त": 9419,
      "मृद": 9420,
      "रौ": 9421,
      "शख": 9422,
      "##एक्स": 9423,
      "##क्षकों": 9424,
      "क्षेत्रक": 9425,
      "विभेद": 9426,
      "चार्ट": 9427,
      "सतत्": 9428,
      "डालें": 9429,
      "आभासी": 9430,
      "पूर्वा": 9431,
      "आविष्कार": 9432,
      "58": 9433,
      "99": 9434,
      "उछ": 9435,
      "खार": 9436,
      "पित": 9437,
      "बसे": 9438,
      "##मस": 9439,
      "##ठों": 9440,
      "##ानियों": 9441,
      "##ताई": 9442,
      "साइन": 9443,
      "##्यूटी": 9444,
      "विधिव": 9445,
      "चित्रित": 9446,
      "बुद्धिम": 9447,
      "सृज": 9448,
      "कराए": 9449,
      "मोती": 9450,
      "साक्षी": 9451,
      "आँखें": 9452,
      "लक्ष्मी": 9453,
      ",%": 9454,
      "400": 9455,
      "कद": 9456,
      "तौ": 9457,
      "दयाल": 9458,
      "नाप": 9459,
      "नाना": 9460,
      "फंड": 9461,
      "लह": 9462,
      "##ोना": 9463,
      "##ृहीत": 9464,
      "##बंद": 9465,
      "##ोग्य": 9466,
      "कुर": 9467,
      "कुंज": 9468,
      "सरोज": 9469,
      "वैसी": 9470,
      "कैद": 9471,
      "खंडों": 9472,
      "लड़ने": 9473,
      "निवेशक": 9474,
      "अफस": 9475,
      "निकालना": 9476,
      "बढ़ाकर": 9477,
      "आस्तियां": 9478,
      "केलिए": 9479,
      "नाज़िल": 9480,
      "शख्स": 9481,
      "¤¥": 9482,
      "तीर": 9483,
      "फिन": 9484,
      "मोल": 9485,
      "सादा": 9486,
      "##लय": 9487,
      "##्रपान": 9488,
      "##न्सी": 9489,
      "जिज्ञ": 9490,
      "##द्रता": 9491,
      "पारिस्थ": 9492,
      "माणिक": 9493,
      "लाभकारी": 9494,
      "सहयोगियों": 9495,
      "मास्ट": 9496,
      "खाद्यान": 9497,
      "निर्भरता": 9498,
      "##olor": 9499,
      "तूफ": 9500,
      "ट्रेन": 9501,
      "सिक्ख": 9502,
      "कार्यवाहियों": 9503,
      "अभिप्राय": 9504,
      "आत्मनिर्भ": 9505,
      "ब्रितानी": 9506,
      "कत": 9507,
      "गढ़": 9508,
      "गरम": 9509,
      "टिका": 9510,
      "नहर": 9511,
      "फर्क": 9512,
      "##30": 9513,
      "##इंट": 9514,
      "समा": 9515,
      "क्रूर": 9516,
      "जिन्ना": 9517,
      "कृषक": 9518,
      "चौदह": 9519,
      "मरने": 9520,
      "1988": 9521,
      "पर्वतीय": 9522,
      "##ount": 9523,
      "अखबार": 9524,
      "द्वीपों": 9525,
      "दुखद": 9526,
      "याचिकाकर्ता": 9527,
      "##्लिकेशन": 9528,
      "पूछताछ": 9529,
      "क्योकि": 9530,
      "51": 9531,
      "रथ": 9532,
      "##जिये": 9533,
      "##ंतुक": 9534,
      "##रेज": 9535,
      "सरस्वती": 9536,
      "##न्दन": 9537,
      "बनाव": 9538,
      "क्रमिक": 9539,
      "नियोजित": 9540,
      "##ब्दियों": 9541,
      "अधीनस्थ": 9542,
      "मैच": 9543,
      "विवश": 9544,
      "भरत": 9545,
      "दर्शाया": 9546,
      "डालते": 9547,
      "सकाः": 9548,
      "आएगा": 9549,
      "इंगित": 9550,
      "तीव्रता": 9551,
      "लैंगिक": 9552,
      "योनि": 9553,
      "सद्भावना": 9554,
      "असीम": 9555,
      "हिमनद": 9556,
      "सामंजस्य": 9557,
      ")-": 9558,
      "बगल": 9559,
      "भट्ट": 9560,
      "##कर्म": 9561,
      "##भु": 9562,
      "##ree": 9563,
      "##ile": 9564,
      "##ON": 9565,
      "कारी": 9566,
      "स्वार्थ": 9567,
      "सूखा": 9568,
      "##ाष्प": 9569,
      "निकोबार": 9570,
      "सेवाएँ": 9571,
      "##दायगी": 9572,
      "बुखार": 9573,
      "तुल्य": 9574,
      "##सूची": 9575,
      "विद्वत": 9576,
      "किनारा": 9577,
      "फायदे": 9578,
      "गिनती": 9579,
      "एसोसिएशन": 9580,
      "सिनेमा": 9581,
      "वाशिंगटन": 9582,
      "बिस्तर": 9583,
      "एर": 9584,
      "गाने": 9585,
      "छोर": 9586,
      "१४": 9587,
      "१७": 9588,
      "##em": 9589,
      "##ड्र": 9590,
      "निम": 9591,
      "##क्षमता": 9592,
      "क्षु": 9593,
      "##ोकस": 9594,
      "लगों": 9595,
      "स्थानांतरण": 9596,
      "पीछा": 9597,
      "विलियम": 9598,
      "1976": 9599,
      "किनारों": 9600,
      "मंडली": 9601,
      "कृत्यों": 9602,
      "अपनाना": 9603,
      "##-#-#-#-#": 9604,
      "अब्दुल्ला": 9605,
      "खिसका": 9606,
      "##रेक्ट्री": 9607,
      "डब्ल्यू": 9608,
      "#-#-#-#-#": 9609,
      "एंट": 9610,
      "घों": 9611,
      "श्य": 9612,
      "##ऊंगा": 9613,
      "##धर्म": 9614,
      "##ॉं": 9615,
      "यहूद": 9616,
      "##ावती": 9617,
      "##ौर्य": 9618,
      "##प्रण": 9619,
      "लगाते": 9620,
      "दिलाने": 9621,
      "उदर": 9622,
      "प्रस्तुति": 9623,
      "विनम्र": 9624,
      "क़यामत": 9625,
      "लंबित": 9626,
[...]
